[PAD]	0
[UNK]	0
[BOS]	0
[EOS]	0
[SEP]	0
[CLS]	0
[MASK]	0
s	-3.25881
▁the	-3.26283
,	-3.39597
.	-3.41643
▁of	-3.86802
▁and	-4.02025
▁in	-4.09275
▁a	-4.2622
▁to	-4.3529
▁	-4.82386
▁was	-4.84503
ed	-5.00086
-	-5.0052
▁"	-5.00784
ing	-5.0203
▁The	-5.1128
▁is	-5.1296
▁for	-5.25254
'	-5.30334
▁on	-5.36052
"	-5.39937
▁with	-5.43098
▁as	-5.43499
▁by	-5.47091
e	-5.47991
d	-5.51215
▁(	-5.52083
▁that	-5.65051
y	-5.70459
▁at	-5.72054
er	-5.72463
▁from	-5.77187
t	-5.79743
▁In	-5.83502
)	-5.83981
▁his	-5.87772
ly	-5.89119
n	-5.89432
▁he	-5.9926
▁an	-6.01003
al	-6.02485
▁A	-6.13116
▁were	-6.1791
r	-6.18845
▁He	-6.18934
a	-6.19887
o	-6.24433
es	-6.26869
th	-6.28196
▁be	-6.29173
▁are	-6.30116
▁which	-6.30927
i	-6.32291
▁it	-6.33171
in	-6.34614
▁had	-6.48112
▁S	-6.48524
m	-6.49165
▁also	-6.49575
S	-6.51313
▁or	-6.52067
c	-6.52303
:	-6.5286
▁has	-6.55234
or	-6.58502
▁first	-6.58573
l	-6.59263
▁re	-6.60115
le	-6.60916
on	-6.61121
re	-6.61961
an	-6.65246
▁It	-6.67834
▁18	-6.70809
▁who	-6.717
▁not	-6.73671
▁their	-6.74758
▁C	-6.76815
▁but	-6.83378
",	-6.83524
▁one	-6.83645
en	-6.84047
u	-6.84067
▁her	-6.84266
il	-6.84359
ic	-6.84528
▁de	-6.84984
▁its	-6.85201
ion	-6.86566
ation	-6.8662
k	-6.88335
g	-6.88636
f	-6.89075
▁have	-6.89205
;	-6.90052
ar	-6.90644
▁this	-6.91262
C	-6.91348
p	-6.92353
▁two	-6.92995
▁B	-6.93203
▁I	-6.94152
A	-6.94594
▁been	-6.95306
▁E	-6.95609
),	-6.95925
P	-6.99688
us	-7.0046
ers	-7.01369
".	-7.02043
▁F	-7.04352
h	-7.05337
).	-7.06378
st	-7.07331
B	-7.07664
el	-7.08054
▁after	-7.08438
b	-7.08623
▁D	-7.09372
ra	-7.09839
▁P	-7.13582
T	-7.14251
▁other	-7.15582
ri	-7.16678
M	-7.16801
D	-7.16802
▁over	-7.18286
ne	-7.18759
▁time	-7.19038
▁W	-7.19142
z	-7.19161
E	-7.19403
ur	-7.19769
it	-7.20715
▁G	-7.20789
▁she	-7.21945
▁into	-7.23028
ia	-7.24159
▁all	-7.2439
▁On	-7.24801
▁K	-7.26216
ent	-7.27105
▁New	-7.27111
ry	-7.29112
se	-7.29604
li	-7.30703
I	-7.30826
lo	-7.30897
ir	-7.30949
man	-7.31144
ta	-7.3125
F	-7.3215
▁out	-7.32186
te	-7.32235
▁up	-7.32683
at	-7.32763
▁they	-7.32888
▁U	-7.33833
ch	-7.34035
na	-7.34216
▁M	-7.34706
▁when	-7.34945
ma	-7.35331
is	-7.35409
▁O	-7.35548
▁1	-7.35873
▁more	-7.36725
▁would	-7.36752
la	-7.36903
ist	-7.37044
ter	-7.3763
▁can	-7.38061
ity	-7.38201
▁under	-7.38573
▁where	-7.38735
▁T	-7.3911
ro	-7.39202
et	-7.39683
de	-7.40711
▁years	-7.41353
▁new	-7.41525
▁during	-7.42041
▁R	-7.4219
N	-7.42403
O	-7.42691
R	-7.43283
ive	-7.44008
ton	-7.44178
▁This	-7.44241
L	-7.44506
id	-7.44958
G	-7.45024
▁between	-7.45824
ce	-7.46159
▁St	-7.46217
▁Re	-7.46834
▁part	-7.47232
▁N	-7.47389
H	-7.47473
▁p	-7.47553
un	-7.48385
▁She	-7.48643
▁only	-7.4949
The	-7.49739
um	-7.507
to	-7.51126
▁season	-7.52271
/	-7.52756
▁him	-7.53333
w	-7.53856
ian	-7.53986
▁made	-7.54399
ol	-7.54862
ul	-7.55336
▁three	-7.55806
ment	-7.56337
▁later	-7.56983
am	-7.57052
ck	-7.57372
▁team	-7.57419
▁co	-7.57446
▁3	-7.57664
▁most	-7.57971
▁used	-7.58445
▁year	-7.58846
me	-7.60498
x	-7.60505
▁United	-7.6096
–	-7.61101
▁University	-7.61344
▁such	-7.61552
▁than	-7.61701
ve	-7.61999
▁about	-7.62495
ine	-7.62759
▁film	-7.6321
▁un	-7.63334
▁became	-7.63437
ate	-7.63868
▁Ma	-7.64106
age	-7.64391
▁known	-7.64809
▁con	-7.65001
▁American	-7.65152
▁De	-7.65765
ad	-7.66513
▁Le	-7.67036
▁2	-7.67596
ti	-7.67664
▁some	-7.68113
▁L	-7.68117
as	-7.68463
ant	-7.69652
▁so	-7.70425
ary	-7.70696
▁no	-7.7103
co	-7.72231
▁being	-7.72244
▁including	-7.72324
▁well	-7.72478
▁second	-7.72641
▁H	-7.72863
W	-7.73825
▁After	-7.74516
able	-7.74784
▁work	-7.74892
▁17	-7.75181
▁there	-7.75211
ha	-7.75375
mi	-7.75397
son	-7.75762
%	-7.76512
▁against	-7.76647
▁through	-7.7677
▁many	-7.775
▁number	-7.77541
▁4	-7.77783
▁then	-7.78249
ll	-7.78543
land	-7.78638
▁c	-7.79119
ci	-7.79737
▁people	-7.79822
▁5	-7.80159
▁school	-7.80304
go	-7.80625
ie	-7.81123
▁before	-7.81529
▁La	-7.81536
sh	-7.8161
▁Co	-7.81626
▁name	-7.819
▁family	-7.82196
▁album	-7.82314
ig	-7.82445
▁while	-7.8257
▁end	-7.83093
▁War	-7.83973
▁until	-7.84185
▁As	-7.84994
▁World	-7.85132
mo	-7.85229
▁both	-7.8547
▁life	-7.8569
▁four	-7.87162
▁National	-7.87327
▁Mar	-7.87528
▁10	-7.87566
ot	-7.87709
the	-7.88349
é	-7.88473
ge	-7.88492
ang	-7.88507
."	-7.89466
2	-7.89603
▁won	-7.90006
▁g	-7.90231
ies	-7.90296
K	-7.90388
▁played	-7.90896
▁area	-7.90997
▁May	-7.91129
▁st	-7.91335
▁dis	-7.91753
vi	-7.92045
▁Al	-7.92093
▁–	-7.9215
va	-7.92329
v	-7.92508
nd	-7.927
ba	-7.93132
▁6	-7.9314
no	-7.9325
tic	-7.93547
▁States	-7.93634
ated	-7.94084
▁may	-7.94443
▁state	-7.94486
1	-7.94691
ted	-7.94844
▁them	-7.94997
▁e	-7.95034
im	-7.95098
▁Sa	-7.95267
V	-7.95391
▁released	-7.9542
▁pro	-7.95619
▁found	-7.95679
ance	-7.9573
est	-7.95756
ga	-7.95866
der	-7.96286
▁pre	-7.9747
ni	-7.97652
▁At	-7.97793
▁School	-7.98035
▁16	-7.98363
▁South	-7.98427
▁August	-7.98565
hi	-7.98618
6	-7.99007
▁career	-7.9923
▁15	-7.99439
▁J	-7.997
ke	-7.9986
be	-8.00121
ut	-8.00243
▁His	-8.00366
▁series	-8.00612
▁several	-8.0089
▁following	-8.00992
▁March	-8.01447
▁Na	-8.01485
▁home	-8.01542
▁will	-8.01719
j	-8.02121
tion	-8.0215
▁same	-8.02393
ty	-8.02433
3	-8.02685
5	-8.02899
▁called	-8.03108
▁September	-8.0346
up	-8.03582
ism	-8.03835
▁An	-8.0431
▁For	-8.04327
ard	-8.0454
▁Ha	-8.04728
▁place	-8.0485
▁early	-8.05058
ous	-8.05448
ner	-8.05558
▁October	-8.05779
▁Mo	-8.05808
▁June	-8.06136
▁John	-8.06184
da	-8.06185
ley	-8.06296
ow	-8.06316
▁7	-8.06483
▁city	-8.06883
▁April	-8.07108
ish	-8.0736
ver	-8.07646
▁January	-8.07792
▁use	-8.07885
▁North	-8.08111
▁July	-8.09071
▁b	-8.09409
▁12	-8.09847
▁local	-8.10241
▁since	-8.10343
▁began	-8.10427
▁Li	-8.10908
▁November	-8.10992
▁Ra	-8.11078
▁(19	-8.11224
▁do	-8.11231
ical	-8.11774
ka	-8.11835
he	-8.11856
U	-8.12039
▁government	-8.12168
▁game	-8.12846
▁To	-8.13285
ial	-8.13397
▁group	-8.13526
▁war	-8.13587
op	-8.13656
di	-8.14166
ence	-8.14572
▁8	-8.14697
▁December	-8.14795
▁V	-8.14881
▁Ro	-8.15021
▁Bo	-8.15116
po	-8.15228
▁single	-8.15483
▁They	-8.15756
▁station	-8.15899
▁population	-8.15977
min	-8.16391
▁Pa	-8.1653
▁held	-8.16536
▁Me	-8.1694
4	-8.17014
com	-8.17132
pe	-8.17664
ling	-8.17681
▁high	-8.17783
▁20	-8.18052
▁Con	-8.18119
▁per	-8.18329
▁ex	-8.18443
▁any	-8.18593
▁back	-8.18756
▁County	-8.18936
▁named	-8.1896
▁large	-8.18994
▁former	-8.19002
▁located	-8.19117
▁line	-8.19223
▁Ba	-8.19231
▁public	-8.19292
ct	-8.19347
ill	-8.19433
▁long	-8.19557
▁York	-8.19854
▁Be	-8.19855
▁Lo	-8.19901
’	-8.20033
▁took	-8.20061
lu	-8.20358
▁these	-8.20459
ak	-8.20565
ac	-8.21111
▁did	-8.21443
▁age	-8.21518
gu	-8.21521
▁club	-8.21784
and	-8.21927
▁member	-8.21934
▁each	-8.22273
▁Dur	-8.22338
▁There	-8.22672
▁February	-8.2285
▁di	-8.23102
▁music	-8.23103
▁served	-8.23111
▁Vi	-8.23399
do	-8.23432
▁11	-8.23523
▁British	-8.23603
bi	-8.24114
▁2010	-8.24215
7	-8.24678
mb	-8.24713
▁show	-8.24827
▁company	-8.24983
ting	-8.2506
ru	-8.25536
ca	-8.25581
▁City	-8.25625
▁town	-8.25789
▁League	-8.26174
0	-8.26248
▁village	-8.2632
▁band	-8.2651
▁9	-8.2653
▁car	-8.26685
▁could	-8.26693
om	-8.27487
▁support	-8.28005
▁ma	-8.28012
▁Ta	-8.28159
▁Ri	-8.28245
▁land	-8.28494
▁Po	-8.28506
▁'	-8.2852
▁14	-8.28598
▁No	-8.2866
▁Bar	-8.29132
one	-8.29426
▁head	-8.29493
▁system	-8.29586
▁set	-8.29747
ex	-8.29748
▁around	-8.29767
ho	-8.2988
od	-8.29906
▁Pro	-8.30123
▁Se	-8.30427
▁received	-8.30501
▁song	-8.30526
born	-8.30695
▁born	-8.30733
▁Ca	-8.3112
▁State	-8.31167
▁Di	-8.31385
▁final	-8.31498
▁due	-8.31862
▁Z	-8.31884
▁include	-8.31962
ven	-8.32432
▁Ka	-8.32439
ber	-8.32574
our	-8.32582
▁me	-8.32668
▁However	-8.32768
▁species	-8.33364
tra	-8.33546
les	-8.33557
▁century	-8.33623
8	-8.3388
▁13	-8.33944
em	-8.34046
end	-8.34166
▁Car	-8.34216
▁last	-8.34754
▁built	-8.34813
way	-8.34875
▁Gu	-8.34986
▁day	-8.35043
ster	-8.35242
ud	-8.35292
pa	-8.35352
▁2012	-8.35763
ap	-8.35843
▁main	-8.36023
per	-8.36254
▁said	-8.36323
▁national	-8.36327
▁Ho	-8.36726
▁left	-8.36841
ham	-8.37021
▁Man	-8.3716
▁side	-8.37611
▁now	-8.37883
ler	-8.38413
▁Ar	-8.3855
▁History	-8.38756
▁building	-8.38788
▁West	-8.38832
▁published	-8.38962
▁w	-8.39279
▁play	-8.39409
▁2014	-8.39463
▁2013	-8.39531
lin	-8.39795
mer	-8.4034
▁along	-8.40367
▁small	-8.4039
▁death	-8.40576
au	-8.40671
00	-8.40694
cy	-8.40722
▁died	-8.41019
▁members	-8.4105
▁m	-8.41056
▁because	-8.41075
▁son	-8.41142
▁five	-8.41342
J	-8.41717
▁ch	-8.41832
▁&	-8.41875
ja	-8.41913
▁All	-8.41935
con	-8.41978
▁district	-8.41996
▁different	-8.42073
ide	-8.42201
▁own	-8.4226
out	-8.42283
▁based	-8.42967
ally	-8.43004
ach	-8.43025
▁title	-8.43112
vo	-8.43234
▁("	-8.43472
▁man	-8.43729
bo	-8.43817
ft	-8.43856
▁German	-8.43861
▁water	-8.43981
▁within	-8.44002
▁2015	-8.44035
▁third	-8.44094
▁en	-8.44146
ny	-8.44235
▁2018	-8.44471
▁2008	-8.44546
▁north	-8.44672
dy	-8.45087
▁2016	-8.45207
▁near	-8.45328
▁2009	-8.45357
▁d	-8.45445
▁like	-8.45483
ions	-8.45587
ah	-8.45621
▁service	-8.45648
cu	-8.45691
▁sub	-8.45757
▁down	-8.46014
▁off	-8.46127
▁order	-8.4613
mit	-8.46242
▁Mi	-8.46539
▁world	-8.46584
wa	-8.46794
ab	-8.4695
▁Ga	-8.47197
▁v	-8.4728
9	-8.47673
▁Her	-8.47713
ten	-8.47786
by	-8.47851
ger	-8.47865
▁six	-8.47876
▁included	-8.48001
den	-8.48197
line	-8.48298
▁College	-8.48428
▁Ne	-8.48571
tro	-8.48653
▁30	-8.4911
▁art	-8.49179
os	-8.49378
▁period	-8.49503
que	-8.49525
ite	-8.49548
▁moved	-8.49758
▁power	-8.49921
▁English	-8.49999
▁Su	-8.50156
▁late	-8.50208
▁form	-8.50282
ized	-8.50294
▁million	-8.50453
▁Do	-8.50686
▁win	-8.50732
▁Pi	-8.50761
▁River	-8.50796
▁sp	-8.50899
▁post	-8.50954
▁French	-8.51059
ship	-8.51271
▁major	-8.51468
▁very	-8.51512
▁men	-8.517
▁children	-8.52248
▁San	-8.52281
mar	-8.52378
▁short	-8.52524
qui	-8.52616
men	-8.52778
▁non	-8.52845
ning	-8.52853
▁make	-8.52997
▁south	-8.53027
▁become	-8.53037
▁US	-8.53269
▁house	-8.53271
▁led	-8.53285
▁Park	-8.534
▁history	-8.53521
▁2011	-8.53785
▁still	-8.53812
und	-8.53949
ities	-8.54001
▁position	-8.54265
▁those	-8.54332
▁race	-8.55287
▁25	-8.55355
ff	-8.55574
▁design	-8.55851
du	-8.56139
we	-8.56206
▁r	-8.56378
▁II	-8.56451
▁19	-8.56546
▁pa	-8.56563
▁sc	-8.56658
,000	-8.56785
▁original	-8.5683
▁another	-8.56917
ng	-8.56971
ub	-8.57045
ko	-8.57068
▁if	-8.57118
▁London	-8.57119
▁best	-8.57163
▁2019	-8.57211
lic	-8.57285
▁book	-8.5733
▁2006	-8.57468
▁record	-8.57507
▁site	-8.57562
ki	-8.57899
ai	-8.58007
▁law	-8.58099
qu	-8.58283
ology	-8.58454
▁El	-8.58651
▁comp	-8.58861
sa	-8.5906
▁among	-8.59232
▁fl	-8.59281
ations	-8.59341
▁District	-8.59479
▁way	-8.59488
ness	-8.59745
rd	-8.59753
ana	-8.59757
▁women	-8.59821
za	-8.59827
ect	-8.60032
che	-8.60098
▁even	-8.60281
time	-8.60308
lan	-8.60407
")	-8.60762
ag	-8.60768
gen	-8.60931
mon	-8.61109
▁Th	-8.61166
▁fa	-8.6128
▁So	-8.61312
▁came	-8.61315
▁role	-8.61456
tt	-8.61472
▁country	-8.61824
ell	-8.61866
▁father	-8.61918
int	-8.62096
▁By	-8.62103
▁top	-8.62108
▁again	-8.62153
▁High	-8.62419
▁total	-8.6262
▁often	-8.62701
▁Hu	-8.62761
tor	-8.62873
bu	-8.63089
▁House	-8.63229
side	-8.63239
▁When	-8.63252
▁Ja	-8.63358
ou	-8.63403
▁k	-8.63427
▁development	-8.6351
amp	-8.63695
▁region	-8.63751
▁given	-8.63757
▁announced	-8.63801
▁what	-8.63926
▁Cup	-8.64084
ee	-8.6426
red	-8.64334
▁business	-8.64732
rs	-8.64777
▁much	-8.65045
ating	-8.6517
ph	-8.65447
ure	-8.65576
ina	-8.65629
iv	-8.65632
▁England	-8.65635
▁International	-8.65726
pi	-8.65833
▁version	-8.66185
less	-8.66207
▁bi	-8.66399
▁Dr	-8.66628
▁la	-8.66646
▁Go	-8.66737
▁Jo	-8.66892
ya	-8.67355
▁established	-8.67372
▁X	-8.67402
▁-	-8.67461
▁church	-8.67466
pl	-8.67533
gg	-8.67692
ron	-8.67826
▁Da	-8.67974
▁games	-8.68087
▁present	-8.68108
tal	-8.68174
▁just	-8.68224
▁football	-8.68547
▁started	-8.68727
▁Fa	-8.68954
gar	-8.69099
▁office	-8.69136
▁take	-8.69355
▁described	-8.69581
▁field	-8.69758
ip	-8.69832
▁Church	-8.69897
▁Ru	-8.69996
▁general	-8.701
▁joined	-8.7014
▁hand	-8.70346
▁cl	-8.70478
ong	-8.70663
▁inter	-8.70783
▁Ni	-8.7084
han	-8.70981
▁result	-8.71103
▁formula	-8.71441
▁One	-8.71502
▁Col	-8.71608
▁worked	-8.7164
ise	-8.71804
▁se	-8.71985
cent	-8.71993
fa	-8.72083
▁Ko	-8.72118
▁player	-8.72334
▁went	-8.72495
ran	-8.72591
ay	-8.72713
▁King	-8.73184
▁produced	-8.73443
▁research	-8.73461
ts	-8.73515
▁These	-8.736
▁We	-8.73607
▁community	-8.73658
▁George	-8.73713
▁character	-8.73904
20	-8.73947
▁election	-8.7409
▁Bi	-8.74194
oc	-8.74308
ric	-8.74375
▁European	-8.74444
▁every	-8.74503
▁however	-8.74651
▁list	-8.74791
ward	-8.74871
ight	-8.74958
▁various	-8.75143
▁tr	-8.75148
▁24	-8.75344
▁students	-8.75381
▁using	-8.75673
▁point	-8.75688
▁married	-8.75743
▁we	-8.75845
ore	-8.75901
▁Bu	-8.75908
▁Tra	-8.76026
▁next	-8.76045
ile	-8.76178
▁Gra	-8.76223
king	-8.76237
▁From	-8.76311
▁international	-8.76349
▁production	-8.76413
▁East	-8.76413
▁2000	-8.76438
▁air	-8.76455
▁lead	-8.76516
▁returned	-8.76542
▁round	-8.76548
▁Air	-8.76559
ier	-8.7661
▁Council	-8.7665
▁match	-8.76666
▁coach	-8.76726
rt	-8.76761
▁debut	-8.76779
▁Lu	-8.76812
▁Pre	-8.76833
▁mo	-8.76918
▁France	-8.76993
ice	-8.77082
ome	-8.77114
▁political	-8.77158
▁Cor	-8.77282
ding	-8.7735
▁process	-8.77667
▁Street	-8.77874
ture	-8.77904
gue	-8.77945
▁refer	-8.78005
▁President	-8.78019
á	-8.78066
▁having	-8.78088
ren	-8.78168
ath	-8.7829
▁full	-8.78598
hu	-8.78857
▁wrote	-8.79007
▁21	-8.79294
▁cr	-8.794
field	-8.79472
sk	-8.79535
▁Roman	-8.7956
▁William	-8.79974
▁ten	-8.80163
ford	-8.80167
▁Cha	-8.80335
▁video	-8.80365
▁2005	-8.80487
port	-8.80513
tu	-8.80579
▁control	-8.8077
▁event	-8.80916
▁po	-8.80938
▁(20	-8.80954
▁According	-8.81103
▁Australia	-8.81139
ick	-8.81391
▁similar	-8.81421
▁2004	-8.81443
▁With	-8.81523
▁program	-8.81524
▁free	-8.81575
ev	-8.81588
▁run	-8.81708
lar	-8.81974
gi	-8.82246
▁human	-8.82308
▁Ch	-8.82604
ful	-8.82692
▁level	-8.82722
har	-8.82938
▁Per	-8.83035
▁go	-8.831
▁attack	-8.8312
car	-8.83121
▁recorded	-8.83134
▁continued	-8.83279
▁General	-8.83288
▁example	-8.83351
▁Te	-8.83448
▁created	-8.83456
let	-8.83472
▁professional	-8.83515
led	-8.83619
chi	-8.83721
▁few	-8.83824
▁vi	-8.83839
▁America	-8.83874
day	-8.83927
fe	-8.83968
fi	-8.84028
▁considered	-8.84081
ov	-8.84143
▁Si	-8.84271
▁Sch	-8.84458
▁fire	-8.84541
▁22	-8.84562
▁Party	-8.84577
▁Har	-8.84843
▁term	-8.84865
▁old	-8.84948
▁Sp	-8.84962
▁Mc	-8.85002
▁television	-8.85101
ium	-8.85112
▁right	-8.85217
▁ca	-8.85261
av	-8.85299
▁interest	-8.85367
ving	-8.8539
ville	-8.85573
▁Or	-8.85611
▁president	-8.85762
pp	-8.85873
10	-8.86032
▁2007	-8.86054
▁India	-8.862
▁Ju	-8.86237
▁Pe	-8.86353
ze	-8.86356
form	-8.86521
▁t	-8.8689
ator	-8.86939
▁h	-8.87088
▁written	-8.87176
year	-8.87282
▁eight	-8.87302
▁light	-8.87329
▁release	-8.87368
▁military	-8.8744
▁Division	-8.87451
ors	-8.87474
▁live	-8.87481
val	-8.87551
X	-8.87557
—	-8.8756
▁bar	-8.87594
▁bo	-8.87623
▁ba	-8.87751
▁Indian	-8.8778
ica	-8.87831
▁director	-8.87897
all	-8.88029
▁performance	-8.88248
pt	-8.88437
▁project	-8.8845
ual	-8.88493
ey	-8.88688
ult	-8.887
▁special	-8.88829
uc	-8.89009
▁Act	-8.89133
▁stage	-8.8928
▁average	-8.89378
ari	-8.89538
▁together	-8.89607
ney	-8.89694
▁brother	-8.89722
van	-8.899
og	-8.89941
▁Army	-8.89969
▁important	-8.90192
gan	-8.90265
▁Association	-8.90301
▁opened	-8.90358
▁elected	-8.90367
old	-8.90401
▁daughter	-8.90417
▁sa	-8.90534
▁appointed	-8.90766
▁addition	-8.90938
▁case	-8.90993
▁party	-8.91085
▁road	-8.91118
▁California	-8.91468
▁court	-8.91554
▁working	-8.91575
_	-8.91629
si	-8.91686
ash	-8.9171
▁reported	-8.91899
▁further	-8.91942
▁style	-8.91962
▁Canada	-8.92062
▁appeared	-8.92068
▁report	-8.92251
▁without	-8.92425
ea	-8.92454
▁education	-8.9253
▁episode	-8.9265
▁social	-8.92769
▁popular	-8.9283
ung	-8.92868
Y	-8.92895
▁23	-8.92936
▁author	-8.93123
res	-8.93132
low	-8.93144
bb	-8.93256
▁founded	-8.93463
ring	-8.93515
▁less	-8.9354
▁study	-8.93605
▁Ti	-8.93999
▁half	-8.94207
▁James	-8.94246
▁()	-8.94264
▁west	-8.94543
▁100	-8.94956
▁26	-8.95055
ji	-8.95445
▁formed	-8.95451
▁trans	-8.95455
▁view	-8.95464
▁open	-8.95592
▁th	-8.95713
▁2003	-8.9581
▁28	-8.95825
▁signed	-8.95899
▁start	-8.96056
ens	-8.961
▁making	-8.9619
▁east	-8.96226
▁close	-8.96246
▁cover	-8.96307
”	-8.96403
ctor	-8.9646
gn	-8.96504
▁works	-8.96908
ec	-8.96929
▁market	-8.96945
▁help	-8.96982
ade	-8.9718
▁Championship	-8.97226
▁Early	-8.97249
▁lost	-8.97256
jo	-8.97297
▁Union	-8.97483
▁wife	-8.9752
▁days	-8.97653
io	-8.97661
▁league	-8.9777
▁ne	-8.97794
▁Robert	-8.97794
▁Qu	-8.97944
tri	-8.97972
ough	-8.98089
act	-8.98137
▁great	-8.98162
uch	-8.98212
▁common	-8.98245
ition	-8.98259
▁seven	-8.98374
▁1990	-8.98408
▁While	-8.98523
▁sh	-8.98689
nt	-8.98761
▁arm	-8.98799
▁story	-8.98839
▁language	-8.99149
▁points	-8.9915
ration	-8.99171
je	-8.99326
▁Royal	-8.99538
▁1980	-8.99547
tter	-8.99553
ries	-8.99554
▁ground	-8.99593
▁Australian	-8.9962
ther	-8.99697
▁“	-8.9971
▁developed	-8.99719
ular	-8.9978
▁should	-8.99794
▁living	-8.99803
mal	-8.99958
▁Ad	-9.00121
off	-9.00129
▁l	-9.00264
▁Paul	-9.00264
ik	-9.00542
▁across	-9.00561
▁track	-9.00623
▁du	-9.00798
▁novel	-9.00861
ants	-9.00979
mm	-9.01185
▁Wa	-9.01211
▁anti	-9.01213
▁good	-9.01249
▁Hall	-9.01369
ological	-9.01485
ek	-9.01504
▁competition	-9.01594
▁Club	-9.01595
▁27	-9.01642
▁f	-9.01757
pro	-9.01867
wi	-9.02103
▁Han	-9.02129
▁Germany	-9.02171
istic	-9.02359
▁does	-9.02403
▁himself	-9.02516
▁1,	-9.02532
▁Can	-9.02548
▁class	-9.02838
▁al	-9.02874
▁times	-9.02897
str	-9.0304
▁Ed	-9.03246
50	-9.03344
ug	-9.03373
▁Y	-9.03463
▁Am	-9.03566
▁su	-9.0358
▁although	-9.03695
▁Charles	-9.03844
▁test	-9.03875
▁Music	-9.04014
▁Court	-9.04098
▁2002	-9.04119
ü	-9.04361
▁Ph	-9.04421
▁body	-9.04426
▁Mon	-9.04435
▁contract	-9.04495
▁Ya	-9.04508
▁vote	-9.04603
▁tour	-9.04646
▁sold	-9.04651
▁ship	-9.04682
▁cross	-9.05035
yl	-9.05133
cle	-9.05322
▁Christian	-9.05338
fer	-9.05735
▁travel	-9.05842
▁act	-9.05995
ization	-9.06066
▁Road	-9.06088
▁Du	-9.06093
▁low	-9.06115
▁return	-9.06188
▁Some	-9.06348
▁contribut	-9.06388
pri	-9.06435
▁Gi	-9.06464
▁range	-9.06512
hy	-9.06583
ib	-9.06691
▁though	-9.06738
▁degree	-9.06796
▁Award	-9.06856
▁Company	-9.0707
▁center	-9.07079
▁services	-9.07196
▁finished	-9.07237
▁turn	-9.07342
▁Other	-9.07419
▁modern	-9.07483
nk	-9.07491
▁space	-9.07552
▁call	-9.07584
▁Europe	-9.07632
ather	-9.07662
▁how	-9.07692
ef	-9.07747
▁black	-9.07767
▁Che	-9.07804
▁Tri	-9.07926
▁hit	-9.08153
rk	-9.0816
▁gave	-9.08197
▁First	-9.08313
tch	-9.08348
▁Shi	-9.08364
▁seat	-9.08412
▁date	-9.08423
–19	-9.08426
▁available	-9.08591
▁rock	-9.08607
▁practice	-9.08731
▁2001	-9.0876
can	-9.08789
▁see	-9.09103
▁strong	-9.09151
▁structure	-9.0916
▁imp	-9.09369
▁success	-9.09375
uff	-9.09464
▁events	-9.09603
▁pl	-9.09622
sen	-9.09735
ative	-9.09764
dic	-9.09776
ack	-9.09842
▁areas	-9.09858
▁completed	-9.09939
▁1970	-9.10149
tin	-9.10309
▁never	-9.10315
15	-9.10537
▁section	-9.10562
par	-9.10622
▁campaign	-9.10846
▁Art	-9.10976
▁health	-9.10999
▁ge	-9.11003
▁Ki	-9.11286
▁get	-9.11306
qua	-9.11373
ris	-9.11449
zi	-9.11488
▁Sc	-9.11504
▁Peter	-9.11619
▁action	-9.11664
▁my	-9.11679
▁Center	-9.11852
▁person	-9.12141
ks	-9.12376
rr	-9.12542
▁Em	-9.12625
▁China	-9.12654
▁Fe	-9.12712
aw	-9.12741
▁Ge	-9.12761
rit	-9.12839
▁Hi	-9.12903
nes	-9.13157
vis	-9.13158
▁current	-9.13168
ments	-9.13204
▁Thomas	-9.133
ible	-9.13315
▁Central	-9.13446
▁construction	-9.13468
▁playing	-9.13503
▁Ex	-9.13517
ns	-9.13583
tain	-9.13702
▁ran	-9.13715
▁29	-9.13799
▁mid	-9.13816
ö	-9.13885
▁function	-9.13969
▁white	-9.13978
▁followed	-9.14061
▁Island	-9.14118
▁ski	-9.1413
▁young	-9.1413
▁ti	-9.14147
▁remained	-9.14154
lea	-9.14202
ara	-9.14239
▁sent	-9.14258
kh	-9.14283
▁base	-9.14303
-19	-9.14376
dge	-9.14518
▁mother	-9.14636
▁official	-9.14875
vel	-9.14875
▁ha	-9.14892
if	-9.14949
ku	-9.14989
▁Institute	-9.15068
my	-9.15083
nce	-9.15195
▁Department	-9.15217
▁put	-9.15359
▁Although	-9.15366
▁standard	-9.15387
of	-9.15454
▁Mal	-9.15466
30	-9.15657
cra	-9.15718
▁significant	-9.15814
▁months	-9.15835
▁Mor	-9.15845
bor	-9.15849
cha	-9.15868
▁once	-9.16012
▁Canadian	-9.16114
▁seen	-9.16125
ino	-9.16145
ix	-9.16176
▁Black	-9.16228
▁Green	-9.16366
ral	-9.16385
0,000	-9.16415
art	-9.16483
▁board	-9.1653
ists	-9.16531
▁real	-9.16563
▁Service	-9.16566
▁Group	-9.16583
fo	-9.16614
▁Great	-9.16622
▁Force	-9.16633
ase	-9.16652
▁o	-9.16678
ified	-9.16695
tan	-9.16714
▁UK	-9.16797
▁David	-9.16879
long	-9.16904
▁taken	-9.17001
▁away	-9.17066
▁trade	-9.17242
▁Russian	-9.17261
tive	-9.17284
▁pe	-9.17348
well	-9.17465
▁designed	-9.17497
▁Lake	-9.17623
▁African	-9.1764
12	-9.1767
▁featured	-9.17751
▁river	-9.17786
▁change	-9.1786
▁forces	-9.18032
▁km	-9.18048
▁added	-9.18138
▁throughout	-9.18178
teen	-9.18308
vers	-9.18316
air	-9.18413
▁performed	-9.18485
▁size	-9.18566
▁Since	-9.18586
▁cor	-9.18671
iz	-9.18682
▁Min	-9.18687
▁division	-9.18718
▁largest	-9.18812
ep	-9.18861
▁Western	-9.18879
▁But	-9.18893
▁radio	-9.18949
▁saw	-9.18958
▁front	-9.18971
lit	-9.18979
▁bank	-9.19007
▁sea	-9.19116
▁model	-9.19123
▁must	-9.19139
▁teams	-9.19214
back	-9.19427
▁attempt	-9.19431
▁week	-9.1965
▁experience	-9.19943
▁originally	-9.20009
▁Hill	-9.20173
▁Ab	-9.20214
▁police	-9.20257
ett	-9.20329
row	-9.20374
shi	-9.20409
▁network	-9.20413
▁training	-9.20423
▁rest	-9.20498
ient	-9.20667
▁Society	-9.20727
▁En	-9.20729
▁medal	-9.20738
▁Sal	-9.20856
▁private	-9.20884
her	-9.20954
▁college	-9.21042
▁features	-9.21062
▁idea	-9.21126
▁(18	-9.21166
▁gene	-9.21238
▁Com	-9.21246
ake	-9.21448
▁replaced	-9.21453
▁Washington	-9.21517
▁course	-9.21639
▁0	-9.21733
▁li	-9.21835
house	-9.21896
▁Bur	-9.22048
▁island	-9.22084
▁location	-9.22154
▁awarded	-9.22158
▁personal	-9.22189
▁currently	-9.22297
▁host	-9.22625
▁Mac	-9.2278
now	-9.22789
▁leading	-9.22875
▁fall	-9.22902
▁train	-9.22933
▁lo	-9.22947
▁media	-9.22965
▁movement	-9.23051
▁2020	-9.23104
▁Minister	-9.2312
▁involved	-9.2323
▁central	-9.23277
▁countries	-9.23282
▁2017	-9.23351
▁players	-9.23356
▁Bay	-9.23503
▁fi	-9.23648
▁come	-9.23751
win	-9.23784
▁writing	-9.23865
▁Richard	-9.23925
▁1999	-9.23936
14	-9.23955
▁previous	-9.23972
for	-9.2401
▁information	-9.2409
▁Ver	-9.24103
▁fight	-9.24104
▁you	-9.24161
▁Pan	-9.24326
len	-9.24355
part	-9.24412
▁Hol	-9.24424
▁able	-9.24464
▁Ben	-9.24481
▁command	-9.24513
don	-9.2454
11	-9.24642
▁park	-9.24737
▁Education	-9.2474
▁route	-9.24745
head	-9.24758
Ma	-9.24895
zo	-9.25024
▁Cla	-9.25144
▁railway	-9.25241
eg	-9.2528
ious	-9.25318
bit	-9.25346
▁writer	-9.25365
▁Italian	-9.254
▁scored	-9.25417
▁Sha	-9.2578
ok	-9.25902
yn	-9.2592
az	-9.25968
bert	-9.25984
▁50	-9.2603
▁Star	-9.2603
ire	-9.26053
▁Chinese	-9.2606
▁songs	-9.261
▁need	-9.26153
▁provide	-9.26161
▁represent	-9.26188
▁Michael	-9.26225
▁subject	-9.26225
▁provided	-9.26293
▁collection	-9.26499
▁directed	-9.26517
▁Red	-9.26549
▁Grand	-9.26631
rea	-9.26695
▁past	-9.267
▁Ku	-9.26736
mark	-9.26771
▁stated	-9.2686
ves	-9.26874
▁Film	-9.26895
▁deal	-9.26907
▁Br	-9.27021
▁plant	-9.27127
pper	-9.27151
sky	-9.27185
usually	-9.27238
pan	-9.27242
orn	-9.27259
–1	-9.27278
▁Chi	-9.27368
▁others	-9.2738
▁Japan	-9.27404
▁includes	-9.27435
▁either	-9.2758
▁broadcast	-9.27736
▁annual	-9.27738
vin	-9.27783
▁Bro	-9.27829
su	-9.27913
▁eventually	-9.28071
▁tournament	-9.28071
▁toward	-9.28077
Z	-9.28126
net	-9.28494
ope	-9.28517
cul	-9.28528
▁Bas	-9.28541
▁Academy	-9.2858
▁1960	-9.28597
▁im	-9.28655
▁Bra	-9.28685
▁Un	-9.28752
▁Japanese	-9.28761
▁1997	-9.28764
unt	-9.28797
▁engine	-9.28806
▁TV	-9.28849
▁wide	-9.28867
▁separate	-9.29093
▁Saint	-9.29163
over	-9.29171
▁Africa	-9.29251
▁met	-9.29289
rom	-9.29328
▁sign	-9.29365
sta	-9.29384
▁Science	-9.29435
▁1996	-9.29621
▁access	-9.29632
col	-9.29725
▁decided	-9.29745
serv	-9.29759
▁red	-9.29776
▁natural	-9.29779
ue	-9.29792
▁Mu	-9.29909
ps	-9.29913
Ch	-9.29937
▁relationship	-9.29952
ker	-9.30076
▁killed	-9.301
berg	-9.30151
▁groups	-9.30296
▁find	-9.30377
▁active	-9.30428
▁Paris	-9.30456
q	-9.30518
▁break	-9.30586
▁upon	-9.30702
ize	-9.3073
ox	-9.3075
▁Cu	-9.30782
▁Spanish	-9.30992
▁capital	-9.30993
idae	-9.31025
atory	-9.3119
(	-9.31256
▁fourth	-9.31258
▁move	-9.31307
▁fact	-9.31315
▁studio	-9.31342
▁northern	-9.3154
▁Fi	-9.31542
▁traditional	-9.31589
▁Republic	-9.31755
▁ho	-9.31778
▁gra	-9.31803
▁31	-9.31808
▁rather	-9.32072
▁em	-9.32074
iff	-9.32176
lon	-9.32243
▁Day	-9.32311
lt	-9.32349
▁ta	-9.32724
▁1992	-9.32765
▁rate	-9.32767
▁fr	-9.32814
40	-9.32839
▁rights	-9.32839
▁reach	-9.3297
▁night	-9.32992
rate	-9.33041
ius	-9.33189
rop	-9.33222
tur	-9.33241
▁1998	-9.33299
vent	-9.33354
▁data	-9.33389
▁love	-9.33403
town	-9.33475
▁unit	-9.33673
▁introduced	-9.33706
▁chart	-9.33709
ability	-9.33757
▁goal	-9.33779
ble	-9.33851
ory	-9.33868
ised	-9.33933
▁sw	-9.33954
ez	-9.3412
▁My	-9.34196
▁schools	-9.34209
uk	-9.34224
▁Career	-9.34367
▁placed	-9.34379
▁Museum	-9.34542
▁Q	-9.34677
▁friend	-9.34684
▁key	-9.34902
ette	-9.34904
ita	-9.34944
ree	-9.34972
oph	-9.35079
▁above	-9.35087
▁organization	-9.35126
▁Henry	-9.35272
▁championship	-9.35283
▁farm	-9.35288
▁conf	-9.35318
mate	-9.35397
▁Gar	-9.35462
ces	-9.35495
▁previously	-9.35578
▁reached	-9.35594
▁Fu	-9.35631
▁listed	-9.35773
▁culture	-9.35815
▁value	-9.35815
ese	-9.35832
vest	-9.35849
ata	-9.35903
▁lower	-9.35928
▁app	-9.35975
▁battle	-9.35999
▁And	-9.36023
▁cap	-9.36072
▁Tu	-9.36141
▁defend	-9.36185
▁Ke	-9.36258
zz	-9.36261
NA	-9.36328
▁Football	-9.36365
war	-9.36398
sco	-9.36617
▁changed	-9.36663
▁industry	-9.36734
▁fe	-9.36763
ches	-9.36788
▁Fo	-9.36803
▁independent	-9.36871
▁approximately	-9.36872
wood	-9.36934
▁far	-9.36971
pon	-9.37013
sha	-9.37091
▁account	-9.37105
▁Men	-9.37214
▁female	-9.37214
▁states	-9.37272
▁Louis	-9.37292
▁sister	-9.37306
din	-9.37332
▁White	-9.37399
▁Second	-9.37476
ew	-9.37482
▁Year	-9.37545
▁attended	-9.37612
▁bl	-9.37644
▁magazine	-9.37661
▁method	-9.37662
▁beginning	-9.3767
13	-9.37785
▁text	-9.37792
▁aircraft	-9.37848
shire	-9.3802
▁look	-9.3806
▁books	-9.38083
▁Two	-9.38089
▁allowed	-9.38118
▁Later	-9.38144
ini	-9.38168
▁Yu	-9.38208
▁Catholic	-9.38222
▁least	-9.38235
ern	-9.38421
ington	-9.38609
ram	-9.3864
gra	-9.38749
af	-9.38765
▁month	-9.38766
▁Ken	-9.38777
▁1995	-9.38803
▁Life	-9.38842
rie	-9.38884
kin	-9.38953
▁summer	-9.38997
▁Bill	-9.39041
hen	-9.39103
▁na	-9.39118
ane	-9.39151
0%	-9.39215
▁families	-9.39298
▁cost	-9.39321
▁length	-9.3934
▁gun	-9.39427
ani	-9.39452
▁article	-9.39544
60	-9.39562
▁link	-9.39584
▁Pri	-9.39638
lia	-9.39814
▁score	-9.39824
▁commercial	-9.39924
▁Mary	-9.39974
▁Bal	-9.40113
▁economic	-9.4018
▁Ireland	-9.40306
▁Va	-9.40399
ography	-9.40447
ich	-9.40464
In	-9.40497
▁behind	-9.40498
▁regard	-9.40501
bar	-9.40574
▁successful	-9.40624
▁candidate	-9.40689
▁reason	-9.40692
▁Au	-9.4076
▁tax	-9.40774
▁instead	-9.40821
▁40	-9.40881
▁almost	-9.40889
▁Wi	-9.40952
▁regular	-9.40989
ned	-9.4116
rup	-9.41198
use	-9.41245
dis	-9.41269
▁centre	-9.41275
ju	-9.41286
iti	-9.41325
▁Sh	-9.41325
▁buildings	-9.41369
▁army	-9.41377
▁via	-9.41387
–0	-9.41485
▁winning	-9.41514
▁hard	-9.41522
rus	-9.41578
ria	-9.41652
▁approach	-9.41654
18	-9.41673
▁Ter	-9.41758
▁Za	-9.41921
ili	-9.41975
▁outside	-9.42005
▁brought	-9.42043
▁possible	-9.42043
▁cast	-9.42075
ets	-9.42079
like	-9.42222
▁studies	-9.42238
▁Summer	-9.42253
▁gold	-9.42313
▁type	-9.42316
▁Commission	-9.42443
ura	-9.42573
▁Par	-9.42661
▁i	-9.42712
▁semi	-9.42724
▁Following	-9.42825
tric	-9.42889
75	-9.42914
ins	-9.42924
ama	-9.42939
▁room	-9.43017
▁Government	-9.43218
▁Bel	-9.43331
▁visit	-9.43355
br	-9.43543
▁Awards	-9.43563
lay	-9.43583
▁complex	-9.43614
▁Kingdom	-9.43629
stone	-9.43787
▁Je	-9.43798
▁edition	-9.4382
▁review	-9.44075
▁Super	-9.44089
▁mission	-9.44106
▁tri	-9.44269
▁Dan	-9.44332
▁decision	-9.44408
▁letter	-9.44448
ena	-9.44566
▁occur	-9.44588
▁Ac	-9.4465
ole	-9.44687
bl	-9.44739
▁cut	-9.44818
▁1988	-9.44825
▁fund	-9.44967
mor	-9.4498
grad	-9.44987
▁Texas	-9.45008
cing	-9.45152
▁spent	-9.45183
▁border	-9.4521
▁represented	-9.45213
▁studied	-9.4541
16	-9.45435
▁Er	-9.45438
ye	-9.4547
▁force	-9.45509
▁Festival	-9.45611
▁1991	-9.45626
▁Ly	-9.4578
70	-9.45794
▁consist	-9.45815
▁Work	-9.45821
▁southern	-9.46041
▁shows	-9.46095
ates	-9.46097
xi	-9.46112
▁God	-9.46113
▁1993	-9.46236
ugh	-9.46326
▁matches	-9.4643
▁Best	-9.46499
▁ver	-9.4652
▁highest	-9.46552
▁Sun	-9.46588
light	-9.46617
▁create	-9.46634
cal	-9.46663
▁le	-9.46756
gal	-9.46917
▁required	-9.47102
ken	-9.47116
▁Los	-9.47163
▁Inter	-9.47173
▁Zealand	-9.47239
▁census	-9.47239
95	-9.4744
▁closed	-9.47493
▁contain	-9.47581
▁county	-9.47614
▁factor	-9.47639
▁child	-9.47772
▁Law	-9.47787
▁rank	-9.47911
cho	-9.47977
▁critic	-9.48054
nal	-9.48064
▁genus	-9.48066
tz	-9.48075
▁Pu	-9.48089
▁scene	-9.48089
▁Under	-9.4811
ola	-9.48176
▁dance	-9.48182
▁newspaper	-9.4827
▁clear	-9.48273
rac	-9.48285
▁1994	-9.48286
bra	-9.48339
La	-9.48346
dom	-9.48557
▁Don	-9.48557
▁Railway	-9.48685
▁science	-9.48686
▁Navy	-9.48703
aries	-9.48709
▁2.	-9.48815
▁Pat	-9.48895
▁defeated	-9.48918
▁arch	-9.48971
▁pass	-9.49043
▁Dar	-9.49071
▁2017,	-9.49073
burg	-9.49099
▁Committee	-9.49102
▁evidence	-9.49102
emp	-9.49243
▁earlier	-9.49312
▁little	-9.49312
▁soon	-9.49323
▁ever	-9.49526
ping	-9.4961
▁Ber	-9.49643
stan	-9.4972
▁Smith	-9.49734
▁property	-9.49745
▁Brown	-9.49746
▁whom	-9.49812
▁Most	-9.49835
▁below	-9.49846
▁runs	-9.49876
▁generally	-9.49926
pic	-9.49945
▁Port	-9.49959
die	-9.49979
▁artist	-9.49988
▁$1	-9.50041
▁Sir	-9.5008
▁Olympics	-9.50099
referred	-9.50112
▁Women	-9.50154
í	-9.5016
▁Russia	-9.5024
▁units	-9.50257
ose	-9.50295
lam	-9.50362
▁department	-9.50364
▁1989	-9.50378
▁relative	-9.50399
ax	-9.50411
hal	-9.50488
hr	-9.50542
▁Tom	-9.50572
▁related	-9.50592
▁receive	-9.50601
▁owned	-9.50653
hor	-9.50682
dra	-9.5074
▁primary	-9.50788
▁quarter	-9.50789
lli	-9.50796
▁nine	-9.50844
▁Mad	-9.50872
▁operation	-9.50906
▁honor	-9.50932
▁older	-9.50999
▁future	-9.51009
tru	-9.51116
▁Sea	-9.51156
▁focus	-9.51191
▁Chicago	-9.51215
▁minor	-9.5122
ó	-9.51252
terior	-9.51304
▁appear	-9.51304
▁plan	-9.51349
▁rule	-9.51374
▁according	-9.51428
▁food	-9.51461
▁thought	-9.5154
ump	-9.51547
spi	-9.51592
▁recording	-9.51608
▁Public	-9.51642
des	-9.51643
▁Rock	-9.51758
▁sound	-9.51831
▁defeat	-9.51834
▁launched	-9.51836
▁editor	-9.51861
▁Tur	-9.51931
SA	-9.51936
▁manager	-9.51946
▁legal	-9.51955
ston	-9.52011
▁Bre	-9.52069
▁numerous	-9.52072
▁Many	-9.52117
rated	-9.52209
east	-9.52284
▁especially	-9.52287
▁concern	-9.52288
▁influence	-9.52318
wan	-9.52336
work	-9.52383
ala	-9.52455
pha	-9.5246
▁surface	-9.52507
▁singer	-9.5252
▁color	-9.52528
▁increase	-9.52535
lk	-9.52601
▁individual	-9.52608
▁develop	-9.5262
▁Soviet	-9.5272
▁1987	-9.52736
bel	-9.52751
wn	-9.52765
▁para	-9.52767
88	-9.5279
▁increased	-9.52905
▁measure	-9.52937
tes	-9.52973
▁Northern	-9.52979
▁prevent	-9.52984
▁higher	-9.53107
▁concept	-9.53154
▁nation	-9.53155
▁require	-9.5318
▁charge	-9.53192
▁shot	-9.53221
press	-9.53331
▁super	-9.53337
▁student	-9.53506
▁Virginia	-9.5351
▁Cal	-9.53534
▁appearance	-9.53547
▁thus	-9.53553
ray	-9.53557
▁ended	-9.53579
▁store	-9.53631
ification	-9.53659
range	-9.53664
▁winner	-9.53689
▁leader	-9.53743
▁transport	-9.53836
▁label	-9.53857
nic	-9.53889
▁Kh	-9.53906
oo	-9.53951
–2	-9.54026
▁senior	-9.54029
93	-9.54049
▁Ser	-9.54102
▁results	-9.54118
▁Val	-9.54119
▁enter	-9.54269
ban	-9.54288
▁Over	-9.54421
90	-9.54458
▁staff	-9.54487
▁1950	-9.545
yo	-9.54543
▁Wal	-9.54586
ever	-9.5461
cus	-9.54647
ä	-9.54689
▁activities	-9.54689
▁victory	-9.54689
▁damage	-9.54711
▁teacher	-9.54768
▁entire	-9.54855
igh	-9.54859
based	-9.54922
ock	-9.54927
▁feature	-9.54934
▁issue	-9.54942
▁cause	-9.54977
▁protect	-9.54983
▁producer	-9.54988
▁material	-9.55119
▁goals	-9.55256
pur	-9.55365
▁money	-9.55387
▁becom	-9.55425
▁meeting	-9.55486
▁council	-9.55577
▁sometimes	-9.55582
fu	-9.55641
▁contains	-9.55672
▁extra	-9.55691
ald	-9.55699
▁Nor	-9.55703
▁Board	-9.55705
17	-9.55708
▁stand	-9.55747
▁province	-9.558
▁Pla	-9.55804
▁officer	-9.55826
▁block	-9.55835
▁itself	-9.55847
21	-9.55854
▁Bank	-9.55902
▁hu	-9.55939
▁You	-9.5596
48	-9.55998
▁taking	-9.56047
▁western	-9.5624
▁credit	-9.56246
▁Historic	-9.56253
▁Greek	-9.56261
80	-9.56277
▁systems	-9.56365
chan	-9.56394
ā	-9.56473
▁Parliament	-9.56473
▁entered	-9.56484
board	-9.56502
▁drama	-9.5674
▁tell	-9.56755
▁share	-9.56757
▁application	-9.56924
▁competed	-9.56946
▁keep	-9.56948
86	-9.56956
▁read	-9.56974
▁ball	-9.57003
▁Line	-9.57006
▁care	-9.57026
mission	-9.57033
▁associated	-9.57035
▁historical	-9.57075
tern	-9.57081
burn	-9.57147
lum	-9.57183
▁fo	-9.57347
▁street	-9.57378
▁Congress	-9.57397
▁Edward	-9.57405
-1	-9.57491
▁1984	-9.5762
ute	-9.57645
bound	-9.57673
so	-9.5773
=	-9.57734
"),	-9.57802
▁Sam	-9.57848
▁image	-9.57897
uck	-9.57915
▁going	-9.57919
▁produce	-9.58037
▁award	-9.58095
▁Records	-9.58112
▁bring	-9.5813
▁Martin	-9.58137
▁operations	-9.58183
▁lived	-9.58186
fin	-9.58252
▁Queen	-9.58289
▁politician	-9.58289
oy	-9.5832
worth	-9.58333
▁paper	-9.58355
85	-9.58457
▁Fri	-9.58468
▁employ	-9.58491
▁self	-9.58497
arch	-9.58508
▁serving	-9.58526
▁selected	-9.58562
▁cases	-9.58631
▁Gre	-9.58673
▁already	-9.58749
rat	-9.58773
ano	-9.58823
▁Mark	-9.58949
▁tu	-9.58962
▁couple	-9.58981
▁Land	-9.59046
▁screen	-9.59107
▁Pra	-9.59167
▁companies	-9.5921
▁running	-9.59256
ux	-9.59316
▁girl	-9.59443
▁prior	-9.59447
play	-9.59574
▁husband	-9.59674
▁painting	-9.59674
▁Italy	-9.59702
▁col	-9.5971
▁issues	-9.59712
▁Wales	-9.59724
ski	-9.59885
▁channel	-9.59906
▁mountain	-9.59906
▁retired	-9.59906
▁eastern	-9.6002
bre	-9.60037
▁noted	-9.60064
▁flow	-9.60116
▁chief	-9.60139
▁sale	-9.60172
bin	-9.60273
▁income	-9.60291
verse	-9.60292
cip	-9.60354
▁woman	-9.60374
mond	-9.60383
ional	-9.60408
▁Lord	-9.60462
St	-9.60469
▁serve	-9.60487
▁additional	-9.60507
▁lack	-9.60531
▁status	-9.60607
96	-9.60608
▁1986	-9.60627
▁loss	-9.60664
▁document	-9.60796
cro	-9.60799
▁initially	-9.60807
bird	-9.60864
▁Mil	-9.61024
▁champion	-9.61057
oid	-9.6107
pre	-9.61144
▁king	-9.61158
rist	-9.61253
49	-9.61329
▁caused	-9.61504
right	-9.61512
▁double	-9.6155
▁multi	-9.61629
▁operated	-9.61652
▁Angeles	-9.61686
▁Im	-9.61706
&	-9.61712
tar	-9.61727
▁pen	-9.61783
▁earned	-9.61788
▁Valley	-9.61822
▁partner	-9.61824
▁bus	-9.61844
▁wall	-9.61879
▁Championships	-9.61885
▁Kar	-9.61945
▁Old	-9.61963
▁purpose	-9.62024
wo	-9.62047
▁Tre	-9.6211
mann	-9.62238
cc	-9.62241
pec	-9.62246
▁Battle	-9.62262
▁Comp	-9.62361
▁treat	-9.62448
▁difficult	-9.625
▁response	-9.625
▁1979	-9.62517
rid	-9.6254
▁Mr	-9.62647
▁print	-9.62718
▁Del	-9.62733
▁Cre	-9.62739
▁Florida	-9.62742
▁tree	-9.62834
▁religious	-9.62983
▁better	-9.63086
▁movie	-9.63222
37	-9.63275
▁Pen	-9.63352
▁guitar	-9.63461
▁certain	-9.63461
▁native	-9.6348
▁Tour	-9.63489
▁mu	-9.63673
▁Research	-9.63702
▁particularly	-9.63707
77	-9.63733
▁Mag	-9.63899
▁question	-9.63945
▁Town	-9.63961
▁nu	-9.63998
25	-9.64035
▁majority	-9.64136
▁Mexico	-9.64187
▁comment	-9.64193
▁interview	-9.64199
illa	-9.64258
dor	-9.64273
▁Team	-9.643
▁give	-9.64344
point	-9.64399
▁energy	-9.64431
itz	-9.645
eu	-9.64513
▁Camp	-9.64567
▁exist	-9.64571
92	-9.64594
▁famous	-9.64675
med	-9.64675
▁artists	-9.64715
ero	-9.64761
▁wing	-9.64771
▁attend	-9.64772
▁believed	-9.64821
+	-9.64918
▁bomb	-9.6498
▁direct	-9.64997
▁opening	-9.65013
gon	-9.65014
94	-9.6519
▁Up	-9.65192
ei	-9.65236
").	-9.65298
ull	-9.65314
▁Vo	-9.65342
ept	-9.65375
▁hospital	-9.6541
▁mis	-9.65436
tribu	-9.65459
78	-9.65463
▁passed	-9.65466
▁effect	-9.655
97	-9.65517
mu	-9.65539
▁grow	-9.65649
▁stop	-9.65668
▁coast	-9.65678
TV	-9.65738
▁syn	-9.6575
▁say	-9.65768
▁List	-9.65778
rap	-9.65882
▁consider	-9.65934
Re	-9.65957
▁actor	-9.65983
▁If	-9.66054
ook	-9.66098
▁Games	-9.66114
▁amount	-9.66148
▁regional	-9.66149
▁contest	-9.6618
▁Wood	-9.66203
▁los	-9.66224
98	-9.66249
▁face	-9.663
▁pay	-9.66305
▁got	-9.66352
▁films	-9.66387
▁ob	-9.66396
▁App	-9.66501
vision	-9.66521
▁supported	-9.66573
▁That	-9.66592
cher	-9.6665
▁Middle	-9.66652
▁musical	-9.66709
awa	-9.66738
▁forced	-9.66746
▁starting	-9.66753
ging	-9.6676
▁cur	-9.66839
ula	-9.66844
▁complete	-9.66868
62	-9.6688
▁Assembly	-9.66897
▁distinct	-9.66897
▁2,	-9.66912
▁Southern	-9.6695
ua	-9.66961
▁word	-9.66978
mont	-9.66994
aging	-9.67008
▁marriage	-9.67147
▁job	-9.67149
▁photograph	-9.6715
▁changes	-9.67367
▁Final	-9.67367
▁financial	-9.67397
▁electric	-9.67411
▁1940	-9.67424
ene	-9.67431
▁Ve	-9.67434
▁claimed	-9.67531
▁sur	-9.67601
gre	-9.67635
▁leaving	-9.67649
▁Fort	-9.677
▁larger	-9.67764
Q	-9.67829
dia	-9.67863
▁vehicle	-9.679
▁attract	-9.67902
82	-9.67954
ob	-9.67996
▁Latin	-9.68029
39	-9.68029
cell	-9.6804
▁par	-9.68059
▁fish	-9.68069
▁Fr	-9.68136
▁policy	-9.68153
▁boy	-9.68167
yard	-9.68217
▁limited	-9.68264
ural	-9.68302
set	-9.68306
▁Ol	-9.68326
▁owner	-9.68413
▁Chief	-9.68424
▁1982	-9.68425
▁Eastern	-9.68431
▁plays	-9.68485
▁bridge	-9.68486
▁2020,	-9.68496
ave	-9.68521
▁Bor	-9.68606
▁Vol	-9.6864
▁Pacific	-9.6866
▁variety	-9.6866
▁fan	-9.68777
pped	-9.68878
▁means	-9.68884
▁Province	-9.68914
▁carried	-9.68917
▁middle	-9.68924
lock	-9.68973
▁remains	-9.68999
▁Ham	-9.69034
vil	-9.69115
sur	-9.69119
▁leg	-9.69173
▁Bla	-9.69197
▁source	-9.69212
▁peak	-9.69234
▁Plan	-9.69282
▁meet	-9.69312
under	-9.69399
▁speed	-9.69436
38	-9.69454
▁municipality	-9.69462
▁Boston	-9.69472
▁Director	-9.69494
▁Pol	-9.69525
▁Arts	-9.69529
▁sports	-9.69533
01	-9.69595
▁piece	-9.69654
oon	-9.69784
▁helped	-9.69787
gel	-9.69818
▁raised	-9.69835
rick	-9.69903
▁promoted	-9.69941
▁parents	-9.69942
▁specific	-9.69942
▁Britain	-9.69946
91	-9.69976
ost	-9.70025
▁subsequently	-9.70094
▁bat	-9.70118
nc	-9.70129
round	-9.70132
▁sell	-9.70156
▁Char	-9.70171
▁mostly	-9.70188
▁Pennsylvania	-9.70197
▁murder	-9.70197
▁vocal	-9.70197
▁Joseph	-9.70207
87	-9.70219
▁parts	-9.70255
▁seem	-9.70295
ify	-9.70338
ison	-9.70339
▁offered	-9.70421
▁1972	-9.70472
▁Biography	-9.70477
▁Democratic	-9.70507
▁programs	-9.70594
avi	-9.70596
▁perform	-9.70712
▁Radio	-9.70767
▁step	-9.70785
▁Van	-9.70793
att	-9.70917
ement	-9.70972
$	-9.70972
▁reference	-9.71047
▁stay	-9.71074
▁describ	-9.71087
▁Cra	-9.7117
▁gas	-9.7118
▁computer	-9.71235
▁always	-9.71237
▁troops	-9.71237
stra	-9.71258
▁presented	-9.71292
▁join	-9.71376
▁claim	-9.71401
▁mark	-9.71487
83	-9.71515
nie	-9.71519
▁settlement	-9.71545
ball	-9.71589
56	-9.71844
olog	-9.71879
▁university	-9.72019
era	-9.72071
RA	-9.72125
ery	-9.72178
phy	-9.72193
ato	-9.7222
west	-9.72234
▁professor	-9.72283
arm	-9.72294
▁1985	-9.72304
▁estate	-9.72317
matic	-9.72357
55	-9.72434
▁Jack	-9.72444
▁longer	-9.72466
▁nearly	-9.7248
▁square	-9.72547
▁failed	-9.72549
room	-9.7255
▁display	-9.72589
▁provides	-9.72609
ature	-9.72778
▁Christ	-9.72783
▁Empire	-9.72811
▁website	-9.72811
▁Ran	-9.72985
▁minutes	-9.7305
▁despite	-9.73099
mouth	-9.73119
char	-9.73154
▁poor	-9.73166
▁suggest	-9.73206
tta	-9.73213
▁forest	-9.73242
76	-9.73248
▁try	-9.73256
ille	-9.73275
▁Jewish	-9.73342
▁firm	-9.73344
▁deliver	-9.73348
▁proposed	-9.73361
▁mine	-9.73423
sis	-9.73447
An	-9.73477
▁2007,	-9.73486
rim	-9.7352
▁meaning	-9.73532
▁too	-9.73534
▁platform	-9.73609
▁=	-9.73723
lip	-9.73795
▁problems	-9.738
▁oil	-9.73815
▁weeks	-9.73841
▁multiple	-9.73877
▁medical	-9.73879
▁Carolina	-9.73884
▁Big	-9.73939
▁might	-9.7394
ably	-9.74025
▁technology	-9.74144
▁Blue	-9.74154
American	-9.74165
▁whole	-9.7421
ologist	-9.74219
▁civil	-9.74302
47	-9.74342
▁participated	-9.74349
▁Arch	-9.74352
▁star	-9.74389
▁Personal	-9.74414
▁voice	-9.74415
▁birth	-9.74415
▁1976	-9.74432
▁know	-9.74448
▁theory	-9.74485
Le	-9.74541
▁trial	-9.74578
nu	-9.7458
▁overall	-9.74603
▁Republican	-9.74606
▁CD	-9.74612
▁positive	-9.74683
▁themselves	-9.74683
▁disease	-9.74683
▁composed	-9.74684
▁1983	-9.74702
▁Carl	-9.74769
▁Sta	-9.74778
▁Prince	-9.74822
ón	-9.74833
▁graduated	-9.74879
81	-9.74927
▁Win	-9.74971
pen	-9.74989
▁crew	-9.75016
ali	-9.75049
▁Ram	-9.75067
ace	-9.75106
mmer	-9.75144
▁object	-9.75165
ros	-9.75195
▁camp	-9.75235
vid	-9.75263
class	-9.75265
▁shown	-9.75331
kar	-9.75417
▁publication	-9.75477
▁Post	-9.75478
▁particular	-9.7549
▁Irish	-9.75498
eo	-9.75564
rum	-9.75574
▁hours	-9.75581
▁build	-9.75653
▁custom	-9.75768
nam	-9.75806
▁effective	-9.75833
ically	-9.75841
▁Station	-9.75906
▁table	-9.75923
▁stone	-9.75986
▁target	-9.76042
lect	-9.76182
▁individuals	-9.76183
bon	-9.76221
▁federal	-9.76316
▁1974	-9.76334
▁Stra	-9.76383
itor	-9.76411
▁code	-9.76411
19	-9.7648
yer	-9.76523
cker	-9.76543
eng	-9.76558
▁allow	-9.76561
▁origin	-9.7658
▁Governor	-9.7659
▁1968	-9.76609
▁flight	-9.7666
▁Mer	-9.76699
84	-9.76715
▁Stan	-9.76722
ret	-9.76739
▁household	-9.76754
▁Times	-9.76764
▁metal	-9.76771
▁limit	-9.76784
▁blue	-9.76886
sol	-9.77055
ella	-9.77092
▁today	-9.77109
▁port	-9.77113
list	-9.77116
▁animal	-9.77148
▁brand	-9.77174
▁Gold	-9.77223
▁resid	-9.77292
tha	-9.77298
▁foreign	-9.77419
▁machine	-9.77419
72	-9.77427
▁deep	-9.77441
place	-9.77445
▁parish	-9.77455
espite	-9.77457
09	-9.77499
▁treatment	-9.77508
22	-9.77642
▁Tor	-9.77651
ō	-9.77697
▁institution	-9.77697
▁Dun	-9.77709
▁ju	-9.77719
▁pur	-9.77775
▁format	-9.77852
▁Home	-9.77877
▁Conference	-9.77975
▁People	-9.77975
▁prominent	-9.77975
▁concert	-9.77975
▁management	-9.77999
67	-9.78004
rew	-9.78023
rian	-9.78066
▁auto	-9.7809
74	-9.78115
42	-9.78149
tom	-9.78157
cia	-9.78262
pet	-9.78275
▁Young	-9.78294
▁pair	-9.78295
▁our	-9.78327
▁Hy	-9.78496
▁Office	-9.78531
yan	-9.78547
▁Will	-9.78547
▁Creek	-9.7855
▁Dutch	-9.78559
▁characters	-9.78616
▁ships	-9.78653
▁asked	-9.78764
▁Social	-9.78817
▁minister	-9.78839
▁Ali	-9.78976
▁del	-9.78985
▁publish	-9.78993
54	-9.79091
▁increasing	-9.79097
▁challenge	-9.79097
ators	-9.79101
▁1945	-9.79115
▁add	-9.79239
Ro	-9.79302
ink	-9.79338
De	-9.79376
▁Tro	-9.79456
▁covered	-9.79496
▁Trans	-9.7953
▁wood	-9.7964
68	-9.79646
itt	-9.79651
▁Mountain	-9.79664
61	-9.79737
▁grand	-9.79767
▁cities	-9.79801
▁Lee	-9.7992
▁cultural	-9.79942
▁potential	-9.79947
non	-9.79955
▁press	-9.79985
▁latter	-9.79996
▁Guard	-9.80082
run	-9.80094
ifi	-9.80112
▁constructed	-9.80208
▁Development	-9.80232
▁address	-9.80233
▁1978	-9.80254
▁wanted	-9.80307
▁Albert	-9.80337
mph	-9.80415
▁remaining	-9.80457
▁fifth	-9.80518
▁Spain	-9.8052
▁terms	-9.80546
▁65	-9.80559
▁product	-9.80577
▁names	-9.80707
▁Victoria	-9.80761
▁Asia	-9.80818
▁1977	-9.80827
▁mainly	-9.80838
rag	-9.80897
▁conditions	-9.80931
▁cell	-9.8096
▁Poland	-9.8103
▁issued	-9.81046
▁draw	-9.81047
▁master	-9.81048
▁male	-9.81053
rush	-9.81059
ped	-9.81076
▁executive	-9.81092
put	-9.8124
79	-9.81246
▁pra	-9.81343
Co	-9.81355
gy	-9.81374
23	-9.81379
▁basketball	-9.8138
▁Frank	-9.81405
41	-9.81458
▁appears	-9.81474
99	-9.81479
▁recent	-9.81511
poli	-9.81748
▁tradition	-9.81839
▁likely	-9.81887
eep	-9.82193
▁academic	-9.82249
▁Sur	-9.8225
án	-9.82283
▁agreement	-9.8229
▁musician	-9.82306
oma	-9.8231
gin	-9.82368
ges	-9.82384
▁arrived	-9.82414
▁Book	-9.82443
▁Is	-9.82485
ima	-9.82493
wing	-9.82496
▁Johnson	-9.82533
▁primari	-9.82541
▁conflict	-9.82541
▁Of	-9.82557
gent	-9.82564
▁managed	-9.82727
▁acquired	-9.82833
ç	-9.82833
▁Both	-9.82861
▁kind	-9.82862
ctic	-9.83041
71	-9.83048
rich	-9.83078
▁user	-9.83111
▁society	-9.83127
▁content	-9.83134
▁1981	-9.83147
▁1930	-9.83165
ians	-9.83236
57	-9.83253
▁Hor	-9.83261
action	-9.83277
▁forms	-9.83301
▁Part	-9.83305
final	-9.83313
▁More	-9.83405
▁horse	-9.83425
▁Coast	-9.83429
▁1969	-9.83439
▁III	-9.83485
▁recover	-9.83497
▁Boy	-9.83511
▁Inc	-9.83516
▁(1	-9.83553
▁households	-9.83559
▁extended	-9.83566
CA	-9.83599
▁disc	-9.83623
▁learn	-9.8366
▁extensive	-9.83716
▁conference	-9.83716
▁demand	-9.83726
▁reform	-9.83781
▁Sol	-9.83787
▁appearances	-9.83822
▁grade	-9.83959
▁festival	-9.84012
▁temperature	-9.84012
▁1975	-9.8404
46	-9.84046
▁era	-9.84068
▁Fin	-9.84095
von	-9.8424
-20	-9.84258
bal	-9.84259
ł	-9.84308
▁instrument	-9.84308
▁discovered	-9.84326
▁1971	-9.84327
▁operate	-9.84329
▁products	-9.84382
ith	-9.84447
lla	-9.84456
24	-9.84494
▁Reg	-9.84564
▁floor	-9.84608
ude	-9.84625
▁enough	-9.84658
bro	-9.84769
wer	-9.84775
▁want	-9.84818
▁drive	-9.84848
ographic	-9.85052
▁Open	-9.85058
▁Gal	-9.85172
▁retain	-9.85191
▁Theatre	-9.85214
ae	-9.85228
▁Gro	-9.85251
gor	-9.85253
▁Main	-9.8538
ada	-9.85398
▁workers	-9.85441
▁Jim	-9.85457
▁cat	-9.85458
▁recently	-9.85494
▁Civil	-9.85509
▁continue	-9.85528
▁nearby	-9.8559
rio	-9.85645
▁signal	-9.85658
Ar	-9.85711
08	-9.85724
▁turned	-9.85773
ines	-9.858
▁Scotland	-9.85805
▁demonstrat	-9.85805
▁fellow	-9.85832
▁Jackson	-9.85861
▁alongside	-9.85887
ncy	-9.85928
▁finish	-9.85987
▁Ye	-9.86015
▁Also	-9.86027
▁consists	-9.86032
var	-9.86059
▁adult	-9.86123
▁1967	-9.86128
mat	-9.86223
▁Series	-9.86225
nan	-9.86299
▁Mill	-9.86343
▁accept	-9.86345
▁Master	-9.86352
▁box	-9.86404
▁responsible	-9.8641
▁passenger	-9.86411
35	-9.86411
▁Earth	-9.86415
73	-9.86418
▁Game	-9.8642
▁youth	-9.86456
aka	-9.86462
izing	-9.86466
▁60	-9.86517
▁trip	-9.86594
law	-9.86677
▁Ten	-9.86682
▁done	-9.86685
▁draft	-9.86715
▁needed	-9.86735
▁pressure	-9.86741
▁Jones	-9.86771
▁follow	-9.86782
▁Rob	-9.86818
▁Order	-9.86819
▁leave	-9.86902
▁Santa	-9.87006
▁situation	-9.8702
▁Major	-9.8702
▁Cho	-9.87125
▁pick	-9.872
rad	-9.87203
▁Nu	-9.8723
▁Four	-9.87255
▁Spring	-9.87368
onic	-9.87452
▁Bell	-9.87486
▁told	-9.87509
▁Its	-9.87524
▁citizen	-9.87632
▁hold	-9.87636
Mo	-9.8765
▁carry	-9.87668
▁directly	-9.87673
cap	-9.877
▁finally	-9.87728
▁agent	-9.87746
ware	-9.87787
▁plans	-9.87872
▁Ohio	-9.8794
▁distance	-9.87941
▁Another	-9.87963
▁Os	-9.88035
▁FC	-9.88052
▁assist	-9.88064
pat	-9.88172
▁maintain	-9.88245
▁transferred	-9.88267
▁think	-9.88268
▁nature	-9.8828
▁talk	-9.88286
BA	-9.88286
▁foot	-9.88296
arian	-9.88298
del	-9.88317
dan	-9.88332
▁Mont	-9.88337
▁Song	-9.88388
89	-9.88403
▁Yo	-9.88411
bury	-9.88433
gro	-9.88449
▁Born	-9.88465
lies	-9.88467
lem	-9.88536
▁Ger	-9.88544
▁spread	-9.88558
ira	-9.88601
zy	-9.88617
MA	-9.88726
58	-9.88757
▁Health	-9.88886
▁heavy	-9.88897
▁Play	-9.88953
▁mass	-9.8902
▁assigned	-9.8918
▁museum	-9.8918
▁captain	-9.89199
▁Arab	-9.89214
kov	-9.89247
▁fit	-9.89367
▁Class	-9.89434
▁ill	-9.89487
▁Hospital	-9.89492
▁committee	-9.89492
▁respect	-9.89493
▁Georgia	-9.89501
▁journal	-9.89513
▁representative	-9.89513
▁45	-9.8953
▁lines	-9.89629
clo	-9.89645
hin	-9.89673
64	-9.89695
▁ordered	-9.89807
▁Senate	-9.89808
▁direction	-9.89809
▁1963	-9.89821
▁1973	-9.89825
69	-9.89829
▁grew	-9.89859
rin	-9.89906
45	-9.89912
▁notable	-9.89922
kins	-9.89941
eb	-9.90021
▁administrative	-9.9012
▁whether	-9.9012
cast	-9.90148
▁Fran	-9.90211
▁immediately	-9.90227
▁Massachusetts	-9.90436
▁residents	-9.90439
▁transfer	-9.90448
▁Love	-9.90449
▁gr	-9.90514
mina	-9.90553
▁uses	-9.90676
not	-9.90707
▁officially	-9.90709
▁walk	-9.90779
▁Ag	-9.90813
▁saying	-9.90965
▁prison	-9.90968
BC	-9.90972
▁Ven	-9.91019
▁#	-9.91021
wal	-9.91061
▁drug	-9.9107
▁Three	-9.91103
hold	-9.91137
dale	-9.91154
▁elections	-9.9117
We	-9.91186
▁Free	-9.91218
▁organized	-9.9122
▁pitch	-9.91303
▁Pakistan	-9.91388
app	-9.91408
▁spoke	-9.91421
▁equal	-9.91426
▁revealed	-9.91457
▁quickly	-9.9147
▁suit	-9.91566
▁union	-9.91573
▁capacity	-9.91708
▁renamed	-9.91709
meter	-9.91733
▁decade	-9.91791
▁request	-9.91793
▁collect	-9.91806
▁conduct	-9.91818
▁Show	-9.91858
hood	-9.91861
▁Alex	-9.91903
dent	-9.91932
▁combined	-9.91989
▁technique	-9.92028
▁promotion	-9.92028
▁organ	-9.92036
▁judge	-9.92041
▁rural	-9.92057
▁heart	-9.92066
▁1920	-9.9209
27	-9.92119
▁Each	-9.92125
▁Mel	-9.92211
▁architect	-9.92325
▁upper	-9.92356
▁sexual	-9.92363
▁houses	-9.92395
▁Hon	-9.92422
▁log	-9.92504
▁pop	-9.9259
▁ban	-9.9259
▁vol	-9.9264
▁Secretary	-9.92683
▁normal	-9.92686
▁impact	-9.92702
▁Francisco	-9.92711
▁2021	-9.92714
mun	-9.9272
52	-9.92725
bri	-9.9274
▁elements	-9.92754
▁Olympic	-9.92755
▁demo	-9.9278
its	-9.92784
pul	-9.92869
▁teaching	-9.92916
▁Asian	-9.92951
mid	-9.92968
▁Prime	-9.9299
tel	-9.93004
Lo	-9.93005
▁Mur	-9.93008
▁tele	-9.93036
aya	-9.93052
▁joint	-9.9312
▁$2	-9.93129
Do	-9.93137
ona	-9.93167
▁sum	-9.93203
07	-9.93249
59	-9.93275
▁scholar	-9.933
53	-9.93316
▁experiment	-9.93321
probably	-9.93325
▁discover	-9.93336
▁commonly	-9.93388
▁Wil	-9.93534
▁beat	-9.93542
cht	-9.93588
▁wa	-9.93639
▁explain	-9.93646
▁dedicated	-9.93646
▁Centre	-9.93649
▁occurred	-9.93678
▁takes	-9.93682
met	-9.93689
▁Place	-9.93703
▁initial	-9.9371
▁Luc	-9.93776
▁gain	-9.93973
▁Egypt	-9.93973
▁Regiment	-9.93973
▁patient	-9.93974
▁stories	-9.93974
▁ancient	-9.93975
▁Scottish	-9.94003
▁Corps	-9.94018
▁da	-9.94047
▁divided	-9.94085
51	-9.94122
ien	-9.94234
▁Federal	-9.94302
more	-9.94304
▁green	-9.94304
▁operating	-9.94323
rant	-9.9433
31	-9.94354
gress	-9.94381
▁Water	-9.94469
▁tracks	-9.94522
▁strength	-9.9463
▁temple	-9.9463
▁Muslim	-9.9463
▁Stadium	-9.9463
▁explor	-9.94631
▁Operation	-9.94646
▁progress	-9.94666
ender	-9.94771
itch	-9.94832
zar	-9.94854
cious	-9.95014
▁Sar	-9.9506
▁lies	-9.95076
▁females	-9.95094
▁Cross	-9.95122
ties	-9.95134
och	-9.95134
28	-9.9514
▁card	-9.95162
duction	-9.95247
ique	-9.95248
sch	-9.95271
▁Sydney	-9.95291
roll	-9.95322
ora	-9.9534
▁assistant	-9.95367
▁Joe	-9.95405
▁Cam	-9.95414
ency	-9.95549
▁types	-9.95588
▁featuring	-9.95623
▁security	-9.95648
▁percent	-9.95674
▁accepted	-9.95695
▁mini	-9.95721
▁Ray	-9.95724
▁branch	-9.9575
▁Out	-9.95803
▁winter	-9.95893
▁provid	-9.95926
▁contact	-9.95957
▁Polish	-9.95997
▁Arm	-9.96119
▁Top	-9.96166
▁purchased	-9.96198
è	-9.9625
adi	-9.96257
▁solo	-9.96258
▁administration	-9.96291
▁physical	-9.96291
▁commander	-9.96421
▁fly	-9.96491
-2	-9.96529
night	-9.96562
▁1942	-9.96648
▁protest	-9.96656
▁Route	-9.96685
count	-9.96688
zh	-9.9679
▁median	-9.96857
▁growth	-9.96882
▁Columbia	-9.96963
▁planned	-9.9698
▁Mid	-9.97017
▁Duke	-9.97051
▁bill	-9.971
▁makes	-9.97125
state	-9.97135
▁Son	-9.9715
▁Sto	-9.97171
aga	-9.97184
stein	-9.97218
▁fast	-9.97222
EC	-9.9726
▁exchange	-9.97301
▁miles	-9.97378
▁matter	-9.97389
▁establish	-9.97408
ground	-9.97408
▁campus	-9.97442
▁inside	-9.9763
ø	-9.9764
▁benefit	-9.9764
▁traffic	-9.9764
▁intended	-9.97641
▁attention	-9.97641
▁avoid	-9.97645
▁activity	-9.9765
▁Long	-9.97685
▁Sk	-9.97703
▁Cro	-9.97723
▁doctor	-9.97725
umber	-9.97744
▁Ban	-9.97761
He	-9.97839
▁agreed	-9.97848
▁device	-9.97982
03	-9.98014
▁Wall	-9.98042
graph	-9.98051
▁environment	-9.98061
▁Sever	-9.98077
▁governor	-9.98115
▁boat	-9.98118
▁lake	-9.98146
32	-9.98168
▁Far	-9.98206
▁Williams	-9.98227
▁Tan	-9.98244
ati	-9.98267
▁Bob	-9.98307
▁Illinois	-9.98322
▁Professor	-9.98322
▁Bishop	-9.98322
▁price	-9.98346
▁Harris	-9.98422
▁forward	-9.98426
▁shop	-9.98517
Al	-9.98547
▁Jan	-9.98547
▁portion	-9.98639
▁Champion	-9.98644
▁micro	-9.98667
▁guest	-9.98669
▁BC	-9.98685
▁counter	-9.98742
▁fill	-9.98745
▁reserve	-9.98753
▁footballer	-9.98791
nov	-9.98802
▁removed	-9.98836
–18	-9.98917
▁—	-9.98985
late	-9.9899
▁Michigan	-9.99008
▁1964	-9.99029
▁Scott	-9.99062
▁Cur	-9.99131
▁typically	-9.99173
zu	-9.99192
AC	-9.99224
06	-9.99247
II	-9.99254
gh	-9.99334
▁fine	-9.99349
▁speak	-9.9935
▁depict	-9.99364
▁wind	-9.9937
▁historic	-9.99474
▁ph	-9.99583
43	-9.9962
▁quality	-9.99699
▁Member	-9.99701
▁Alexander	-9.99702
▁strike	-9.99704
▁1944	-9.99717
▁spring	-9.99763
view	-9.99817
▁save	-9.99843
▁soldiers	-9.99854
▁programme	-9.99901
▁founder	-10.0001
▁records	-10.0002
▁highly	-10.0002
▁broad	-10.0004
▁1966	-10.0005
▁giving	-10.0005
▁believe	-10.0019
▁Adam	-10.0024
IS	-10.0028
profit	-10.0031
▁Jersey	-10.0039
▁weapon	-10.0039
▁creation	-10.004
▁commission	-10.0042
▁window	-10.0043
▁conducted	-10.0043
▁am	-10.0044
▁words	-10.0048
pot	-10.0049
▁friends	-10.0059
Pa	-10.006
▁smaller	-10.0061
top	-10.0066
position	-10.0071
anda	-10.0074
ñ	-10.0074
▁communities	-10.0074
▁hundred	-10.0074
▁basis	-10.0077
▁yet	-10.0078
▁Sub	-10.0078
▁Berlin	-10.0079
▁Jean	-10.008
▁officers	-10.0083
water	-10.0096
▁rise	-10.0099
▁bra	-10.0103
▁Iran	-10.0108
▁System	-10.0109
▁suffered	-10.0109
▁surname	-10.0109
▁levels	-10.0113
AA	-10.0115
with	-10.0126
isation	-10.0133
▁Andr	-10.0134
▁Hunt	-10.0139
▁facilities	-10.0145
▁audience	-10.0145
▁silver	-10.0145
▁pilot	-10.0145
▁therefore	-10.0145
▁Andrew	-10.0147
▁launch	-10.0148
▁relat	-10.015
▁lives	-10.0154
▁sit	-10.0154
▁Not	-10.0163
qual	-10.0163
▁widely	-10.0167
▁80	-10.0168
▁loan	-10.0174
stead	-10.0179
▁1956	-10.0182
▁slow	-10.0189
▁problem	-10.0191
▁ice	-10.0193
eh	-10.0195
▁200	-10.0197
▁Para	-10.02
sey	-10.0203
▁Brazil	-10.021
▁resulted	-10.0215
Ba	-10.0217
PA	-10.0226
▁follows	-10.0231
gam	-10.0233
Mar	-10.0234
04	-10.0235
▁prepar	-10.0237
TA	-10.024
▁journalist	-10.0249
▁pattern	-10.0251
▁moving	-10.0256
▁Lar	-10.0261
sburg	-10.0262
cord	-10.0262
▁leaders	-10.0263
▁spa	-10.0284
▁adopted	-10.0287
▁Atlantic	-10.0287
▁taught	-10.0288
▁felt	-10.0289
▁risk	-10.0289
▁identified	-10.0294
▁declared	-10.0294
▁fell	-10.0299
gram	-10.0309
▁Angel	-10.031
▁70	-10.0312
▁seek	-10.0316
▁occasion	-10.032
▁territory	-10.0323
▁vessel	-10.0323
▁Phil	-10.0327
▁mentioned	-10.033
▁destroyed	-10.0331
▁Mus	-10.0336
▁recognized	-10.0337
gr	-10.0341
▁paid	-10.0346
reg	-10.0348
▁critical	-10.0351
ked	-10.0351
▁protein	-10.0359
▁escape	-10.0359
▁1965	-10.036
▁Mat	-10.0364
▁scale	-10.0368
▁Korea	-10.037
▁figure	-10.0376
▁kill	-10.0383
▁tower	-10.0385
assi	-10.0392
▁phase	-10.0398
▁leadership	-10.0398
▁ability	-10.0408
▁35	-10.0408
▁effects	-10.0409
▁spot	-10.0416
▁option	-10.0416
mus	-10.0416
▁Hal	-10.0419
fil	-10.0425
▁Sho	-10.0426
▁poet	-10.0428
▁wave	-10.0429
▁Way	-10.0429
▁distribution	-10.0431
▁reflect	-10.0431
dle	-10.0434
▁Bon	-10.0439
AR	-10.044
▁condition	-10.0451
▁mixed	-10.0452
▁32	-10.0462
▁indicat	-10.0463
26	-10.0466
▁Background	-10.0467
▁equipment	-10.0467
▁Military	-10.0467
▁rival	-10.0468
style	-10.0468
▁Rome	-10.0473
▁Mount	-10.0474
ava	-10.0476
▁stations	-10.0477
▁Light	-10.0485
ecause	-10.0502
▁Ty	-10.0503
▁association	-10.0504
▁hill	-10.0504
▁threat	-10.0504
elle	-10.0517
dol	-10.0526
▁exhibition	-10.0527
▁path	-10.0531
hn	-10.0536
▁remain	-10.0539
▁surrounding	-10.054
▁convention	-10.0541
▁volume	-10.0541
▁Foundation	-10.0545
▁Raj	-10.0548
New	-10.0548
▁compete	-10.0555
▁Maria	-10.0561
▁Tal	-10.0564
▁...	-10.0577
▁Corporation	-10.0577
▁Philippine	-10.0577
▁crime	-10.0578
▁Police	-10.058
▁write	-10.0582
rot	-10.0585
pel	-10.0585
▁driver	-10.0586
▁Den	-10.0596
▁4,	-10.0596
▁weight	-10.0597
▁chance	-10.06
nar	-10.0605
pu	-10.0609
▁Francis	-10.061
▁sail	-10.0613
▁knowledge	-10.0614
▁Sports	-10.0616
▁digital	-10.0632
FC	-10.0633
pping	-10.0635
02	-10.0643
▁languages	-10.0644
▁indicate	-10.0646
▁Kong	-10.0651
▁Avenue	-10.0651
lly	-10.0652
▁projects	-10.0655
▁3,	-10.0655
▁coming	-10.0656
▁Like	-10.0664
▁hall	-10.0667
MS	-10.0678
▁flu	-10.0678
▁eye	-10.0679
!	-10.0684
▁formation	-10.0687
▁door	-10.0687
▁industrial	-10.0688
▁principal	-10.0688
▁Revolution	-10.069
▁reduced	-10.069
▁unique	-10.0694
lift	-10.0694
▁Bridge	-10.0699
life	-10.07
▁alone	-10.0701
▁epi	-10.0703
▁parties	-10.0704
pho	-10.0705
▁aim	-10.0708
▁respectively	-10.0726
▁Premier	-10.0726
▁compared	-10.0726
▁connect	-10.0727
▁tank	-10.073
▁rare	-10.073
44	-10.0734
▁estimated	-10.0743
▁connection	-10.0753
▁Family	-10.0763
▁dead	-10.0764
▁generation	-10.0789
tress	-10.079
▁squad	-10.0799
imp	-10.0799
▁accident	-10.0801
▁confirmed	-10.0801
▁thousand	-10.0801
▁nominated	-10.0801
▁sand	-10.0802
▁awards	-10.0805
▁serves	-10.0807
▁Time	-10.082
hel	-10.0827
▁Rose	-10.0836
ida	-10.0836
▁eliminat	-10.0838
▁scoring	-10.0839
?	-10.0841
▁expanded	-10.0841
CC	-10.0841
borough	-10.0842
▁Clark	-10.0843
▁opt	-10.0849
▁Castle	-10.0852
29	-10.086
▁End	-10.0867
▁USA	-10.0868
▁buried	-10.0876
▁contemporary	-10.0876
▁Little	-10.0876
▁Daniel	-10.0877
▁1939	-10.0879
▁Cat	-10.088
▁obtained	-10.088
▁labor	-10.0881
▁poem	-10.0885
hara	-10.09
05	-10.0903
▁sources	-10.0908
▁2011.	-10.0909
▁Arthur	-10.0914
▁trail	-10.0915
▁Bri	-10.0916
▁1943	-10.0916
▁1958	-10.0917
▁search	-10.0917
▁depend	-10.093
rov	-10.0932
▁Hong	-10.0932
▁plants	-10.0944
FL	-10.0946
rib	-10.0948
bul	-10.0951
▁blood	-10.0953
▁page	-10.0957
table	-10.0962
▁Highway	-10.0963
slav	-10.0972
▁growing	-10.0978
▁acting	-10.0989
century	-10.0989
▁Athletic	-10.0991
▁peace	-10.0992
▁don	-10.1002
▁stars	-10.1003
▁Head	-10.1004
š	-10.1029
▁decline	-10.1029
▁Program	-10.1032
▁1948	-10.1032
▁leaves	-10.1046
face	-10.1052
▁here	-10.1056
▁males	-10.1057
▁twice	-10.1068
atic	-10.107
ood	-10.107
▁1959	-10.107
▁rain	-10.1071
▁Tim	-10.1071
▁lot	-10.1082
▁Fair	-10.1096
ila	-10.1099
▁mean	-10.1099
No	-10.1105
▁Between	-10.1107
▁Oxford	-10.1107
▁regiment	-10.1107
▁sense	-10.1108
▁flood	-10.1109
▁dark	-10.1109
▁reviews	-10.1109
▁relations	-10.1109
▁Israel	-10.1113
▁efforts	-10.1115
▁Met	-10.1135
▁Nations	-10.1141
▁Elizabeth	-10.1146
▁Jr	-10.1156
▁sun	-10.1159
▁marked	-10.117
▁Tru	-10.1173
▁offers	-10.1181
▁Dom	-10.1182
▁symbol	-10.1185
▁climate	-10.1185
▁permanent	-10.1185
▁photo	-10.1186
▁1947	-10.1187
▁1962	-10.1188
▁split	-10.1189
▁sector	-10.119
36	-10.119
▁Cle	-10.1195
▁BBC	-10.1197
Po	-10.1205
▁44	-10.1205
▁Korean	-10.1215
▁correspond	-10.1224
▁Field	-10.1224
▁offer	-10.1225
▁gained	-10.1226
▁Sand	-10.1231
▁titled	-10.1244
fall	-10.1248
mir	-10.1253
otic	-10.1258
▁literature	-10.1263
▁situated	-10.1263
▁survey	-10.1263
▁applied	-10.1263
▁global	-10.1264
▁switch	-10.1264
▁1946	-10.1266
nell	-10.1266
▁online	-10.1272
▁rules	-10.1274
▁oldest	-10.1276
AM	-10.1279
▁models	-10.128
▁highway	-10.128
▁!	-10.1292
▁integrat	-10.1303
rack	-10.1305
▁90	-10.1313
ova	-10.1313
▁visited	-10.1318
▁Earl	-10.1319
bol	-10.1335
To	-10.1341
▁Representative	-10.1342
▁promote	-10.1343
▁Serbia	-10.1345
▁sat	-10.1349
▁hosted	-10.1351
▁secondary	-10.1353
▁theatre	-10.1354
▁count	-10.1356
▁Pur	-10.136
▁bought	-10.1382
▁Before	-10.1382
▁housing	-10.1382
▁1961	-10.1385
▁true	-10.139
▁iron	-10.1393
▁Count	-10.1395
dict	-10.1397
▁comes	-10.1397
200	-10.1397
▁Ann	-10.1404
▁Mul	-10.1411
▁Human	-10.1414
33	-10.1419
▁(17	-10.1421
▁Library	-10.1422
▁sequence	-10.1422
▁simple	-10.1422
▁wound	-10.1422
▁fiction	-10.1422
▁seasons	-10.1425
▁map	-10.1425
▁Ze	-10.1428
▁corner	-10.1431
▁ranked	-10.1433
▁Dor	-10.1434
iya	-10.1436
!"	-10.1437
▁Due	-10.144
hand	-10.1441
▁Band	-10.1445
▁Islands	-10.1449
▁captured	-10.1449
63	-10.145
▁actual	-10.1454
▁slave	-10.1454
new	-10.1458
▁necessary	-10.1462
▁scientific	-10.1462
▁sponsor	-10.1462
▁cricket	-10.1462
▁proceed	-10.1463
▁Justice	-10.1464
▁showed	-10.1464
▁watch	-10.1464
▁statement	-10.1465
▁repeat	-10.1466
▁colour	-10.1467
ister	-10.147
▁shape	-10.1481
ridge	-10.1485
▁settled	-10.1486
▁500	-10.149
IC	-10.1497
▁sport	-10.1498
▁Vietnam	-10.1503
▁portray	-10.1504
▁difference	-10.1504
▁except	-10.1504
▁architecture	-10.1505
▁Airport	-10.1509
raw	-10.1511
.5%	-10.152
▁suggested	-10.1523
▁Ak	-10.1524
▁gives	-10.1528
▁protection	-10.153
▁2017.	-10.1535
ST	-10.1537
hol	-10.1543
▁twenty	-10.1543
▁component	-10.1543
▁creating	-10.1543
▁incident	-10.1543
▁Register	-10.1544
▁detect	-10.1545
▁Among	-10.1549
▁fu	-10.1556
▁height	-10.1564
▁Kal	-10.1565
vy	-10.157
▁spec	-10.1573
▁secret	-10.1579
▁van	-10.1583
▁Toronto	-10.1584
▁enjoy	-10.1584
▁shift	-10.1584
▁historian	-10.1584
▁engineer	-10.1586
▁grant	-10.1586
▁kept	-10.1587
▁Wild	-10.1588
cade	-10.159
▁defined	-10.1602
▁(2	-10.1604
fla	-10.1621
▁facility	-10.1625
▁mono	-10.1625
▁Geography	-10.1627
▁1941	-10.1627
▁analysis	-10.1628
▁roles	-10.1633
ić	-10.1652
Sa	-10.1653
tsu	-10.1654
▁opera	-10.1655
ika	-10.1662
▁favor	-10.1665
▁picture	-10.1666
▁column	-10.1666
phone	-10.1669
▁chairman	-10.1672
ograph	-10.1672
tag	-10.1677
▁communication	-10.1677
▁effort	-10.1698
▁feet	-10.17
▁Community	-10.1707
▁Stephen	-10.1707
▁happen	-10.1707
down	-10.1708
which	-10.1711
▁Power	-10.1711
vor	-10.1719
▁determined	-10.1721
▁Cast	-10.1727
▁etc	-10.1734
▁organizations	-10.174
Li	-10.1743
▁expected	-10.1744
▁Building	-10.1748
▁serious	-10.1748
▁urban	-10.1748
▁session	-10.1748
▁hotel	-10.1755
▁newly	-10.177
▁organisation	-10.1773
▁Area	-10.1774
ched	-10.1777
▁Sel	-10.1777
▁succeeded	-10.1781
▁connected	-10.1781
▁Tar	-10.1789
▁density	-10.179
▁bad	-10.1792
▁foundation	-10.1793
▁internal	-10.1798
▁discuss	-10.18
▁Max	-10.1802
▁allowing	-10.1806
▁officials	-10.1808
▁fer	-10.1809
print	-10.181
star	-10.181
▁Forest	-10.1822
LA	-10.1823
▁feed	-10.1829
SC	-10.1829
▁defense	-10.1831
via	-10.184
▁news	-10.184
▁Sil	-10.1844
bell	-10.185
kan	-10.1856
▁flower	-10.1856
▁injury	-10.1873
▁Norway	-10.1878
▁yards	-10.1879
▁Player	-10.188
▁sentence	-10.1881
▁compris	-10.1882
▁rating	-10.1885
▁Dam	-10.1889
▁64	-10.1891
onym	-10.1895
▁Even	-10.1898
▁existing	-10.1903
▁mayor	-10.1907
▁Region	-10.191
▁1957	-10.1918
▁authorities	-10.1922
▁organis	-10.1926
▁exhibit	-10.193
SR	-10.1944
western	-10.1946
▁Miss	-10.1955
▁Prior	-10.1957
▁Ministry	-10.1957
▁Special	-10.1957
▁Taylor	-10.1957
▁Studio	-10.1957
▁speech	-10.1957
▁big	-10.1958
▁Chan	-10.1963
▁plate	-10.1964
▁ride	-10.1967
▁Kur	-10.1973
▁edge	-10.198
▁scheduled	-10.198
▁allows	-10.1993
ID	-10.1999
▁simply	-10.2
▁roof	-10.2
▁steel	-10.2
▁presence	-10.2001
band	-10.2001
▁Anti	-10.2003
▁fully	-10.2007
▁younger	-10.2009
Ju	-10.201
▁sla	-10.2017
rig	-10.2023
▁mix	-10.2025
▁solution	-10.2034
abad	-10.2034
tori	-10.2039
cat	-10.204
▁Marine	-10.204
▁Infantry	-10.2042
▁investigation	-10.2042
▁software	-10.2042
▁Junior	-10.2042
▁ethnic	-10.2042
▁transform	-10.2047
season	-10.205
▁establishment	-10.2054
▁stream	-10.2065
▁achieved	-10.207
▁Press	-10.2074
▁municipal	-10.2079
ike	-10.2083
▁Melbourne	-10.2085
▁supply	-10.2085
▁habitat	-10.2085
▁claims	-10.2089
▁arrested	-10.209
member	-10.2092
▁Well	-10.2092
▁rear	-10.2096
▁Khan	-10.2101
▁broke	-10.2102
▁setting	-10.2104
▁ring	-10.2107
▁Hay	-10.2117
▁Ci	-10.2117
ivity	-10.2118
CO	-10.2123
▁restaurant	-10.2128
▁rapid	-10.2128
▁Jeff	-10.2129
▁wild	-10.2129
turn	-10.213
▁focused	-10.2134
▁holding	-10.2135
▁task	-10.2135
align	-10.2138
zer	-10.214
▁holds	-10.2148
▁continues	-10.2154
▁tend	-10.2158
▁reading	-10.2167
▁commissioned	-10.2168
▁Bat	-10.217
▁alternative	-10.2171
▁daily	-10.2171
▁Cambridge	-10.2171
morph	-10.2172
▁Var	-10.2173
▁materials	-10.2174
▁bit	-10.2187
▁cells	-10.2188
▁reaction	-10.2191
▁script	-10.2194
▁Kan	-10.2197
▁Ana	-10.2197
get	-10.2211
▁Brook	-10.2213
▁retirement	-10.2214
▁technical	-10.2214
▁Through	-10.2214
▁priest	-10.2215
▁opposition	-10.2215
▁emerge	-10.2216
▁Transport	-10.2217
▁1952	-10.2217
▁Death	-10.2234
▁killing	-10.225
▁Indonesia	-10.2258
▁composer	-10.2258
▁lecture	-10.2258
▁garden	-10.2258
▁zone	-10.2259
▁severe	-10.226
▁Gene	-10.2266
▁tribe	-10.2267
▁billion	-10.2274
IA	-10.2283
▁Swedish	-10.2301
▁religion	-10.2301
▁qualify	-10.2301
▁Network	-10.2301
▁royal	-10.2301
▁1953	-10.2304
▁Fall	-10.2321
▁poll	-10.2326
tte	-10.2326
organ	-10.2331
▁poly	-10.2331
▁Gri	-10.2334
▁returning	-10.2338
chu	-10.234
▁refused	-10.2344
▁Technology	-10.2345
▁bronze	-10.2345
▁Euro	-10.2345
▁library	-10.2345
▁1949	-10.2349
▁learning	-10.2355
mbo	-10.2356
▁mode	-10.2366
▁Ash	-10.2368
▁figures	-10.2368
▁authority	-10.2368
▁tried	-10.2372
▁Ky	-10.2373
▁advanced	-10.2384
č	-10.2389
▁Iraq	-10.2389
▁memory	-10.2389
▁neighborhood	-10.239
▁Command	-10.239
▁invited	-10.239
▁something	-10.2391
▁lay	-10.2391
▁decorat	-10.2394
▁Week	-10.2396
▁Kim	-10.2396
▁Point	-10.2405
▁elect	-10.2406
▁Whit	-10.241
▁adapt	-10.2414
most	-10.2415
▁Lady	-10.2416
▁bear	-10.2423
▁aged	-10.2425
▁fleet	-10.2434
▁Plot	-10.2434
▁baseball	-10.2435
▁1951	-10.2436
▁Production	-10.2437
▁Pop	-10.2438
known	-10.2439
▁Kra	-10.2441
▁36	-10.2451
▁northeast	-10.2452
▁Roger	-10.2453
▁govern	-10.2455
▁granted	-10.2463
▁Ron	-10.2474
▁headquarters	-10.2478
▁Ontario	-10.2478
▁composition	-10.2478
▁honour	-10.2478
.3%	-10.248
▁Short	-10.2481
▁Op	-10.2496
wich	-10.2499
▁Night	-10.2504
maker	-10.2505
lov	-10.251
▁shared	-10.2513
dar	-10.2523
▁Minnesota	-10.2523
▁behavior	-10.2523
▁victim	-10.2523
▁license	-10.2523
▁morning	-10.2523
▁narrow	-10.2523
▁Ford	-10.2526
▁Medal	-10.2527
▁motor	-10.2531
▁‘	-10.2532
▁hunt	-10.2533
▁fuel	-10.2533
▁nor	-10.2536
DP	-10.2536
▁/	-10.2536
chen	-10.2553
other	-10.2558
▁castle	-10.2565
vol	-10.2566
▁Mexican	-10.2568
▁Netherlands	-10.2568
▁Supreme	-10.2568
▁politics	-10.2568
.4%	-10.2569
▁cycl	-10.2571
▁planning	-10.2572
▁Down	-10.2576
lain	-10.2577
▁extend	-10.2591
▁Good	-10.2592
▁element	-10.2601
▁failure	-10.2613
▁safety	-10.2616
▁background	-10.2616
take	-10.2629
eva	-10.263
▁advance	-10.263
▁Lau	-10.2631
▁opposed	-10.2637
▁Norwegian	-10.2658
▁approved	-10.2658
Un	-10.2661
but	-10.2663
▁aired	-10.2664
▁Eli	-10.2665
▁meant	-10.2666
▁finishing	-10.2666
ado	-10.2666
▁flag	-10.2667
▁rob	-10.2668
cel	-10.267
▁$3	-10.2671
pend	-10.2677
▁classes	-10.2684
▁ni	-10.2689
▁occupied	-10.2703
▁Business	-10.2703
▁restrict	-10.2704
▁storm	-10.2704
▁Shar	-10.2704
▁Anna	-10.2718
▁Sin	-10.2724
Da	-10.2729
▁Brad	-10.2732
▁implement	-10.2732
▁Stone	-10.2735
▁maximum	-10.2749
▁literary	-10.2749
had	-10.2752
bur	-10.2755
TC	-10.2767
▁Media	-10.2768
▁fun	-10.277
▁wear	-10.2771
atter	-10.2772
▁Comm	-10.2773
▁Clo	-10.2786
▁mm	-10.2791
▁slightly	-10.2795
▁1914	-10.28
▁begins	-10.2804
▁things	-10.2805
▁Flor	-10.281
key	-10.2811
▁subsequent	-10.2813
▁33	-10.2814
vari	-10.2816
▁sixth	-10.2816
US	-10.2817
▁weak	-10.283
▁MP	-10.2835
▁fair	-10.2837
▁inspired	-10.2841
▁goes	-10.2841
.2%	-10.2843
▁frame	-10.2843
▁Mike	-10.2845
▁flat	-10.2847
▁Lin	-10.2849
▁Labor	-10.2853
see	-10.2855
also	-10.2856
▁successfully	-10.2862
agh	-10.2864
▁VI	-10.2867
▁greater	-10.2868
▁Oak	-10.2872
▁environmental	-10.2876
▁resources	-10.2883
▁Lincoln	-10.2887
▁Project	-10.2887
▁diploma	-10.2887
▁receiving	-10.2887
▁Moscow	-10.2887
▁sought	-10.2887
▁chair	-10.2887
▁Medical	-10.2888
▁actress	-10.2888
▁1918	-10.2892
▁Matt	-10.2894
▁powerful	-10.2896
▁Chart	-10.2902
▁begin	-10.2908
▁chosen	-10.2909
▁heat	-10.2913
▁standing	-10.2931
▁respond	-10.2934
ibility	-10.2934
▁visual	-10.2934
▁chain	-10.2935
▁1929	-10.2936
▁Rod	-10.2948
▁acid	-10.295
▁moment	-10.2955
▁formerly	-10.296
last	-10.2963
logy	-10.2967
▁Sweden	-10.298
▁Queensland	-10.2981
▁trust	-10.2982
▁unknown	-10.2986
▁dog	-10.2996
▁tie	-10.3
aught	-10.3005
heim	-10.3006
34	-10.3025
▁Ji	-10.3026
▁centuries	-10.3027
▁extension	-10.3027
▁yellow	-10.3027
▁scientist	-10.3027
▁Captain	-10.3028
▁electronic	-10.3028
▁existence	-10.3033
test	-10.3035
gate	-10.3042
break	-10.305
▁shortly	-10.305
oke	-10.3052
▁collaborat	-10.3055
Con	-10.3057
hard	-10.3071
É	-10.3075
▁expansion	-10.3075
▁Design	-10.3075
▁cancer	-10.3076
▁1955	-10.3078
ander	-10.3078
▁Monte	-10.3085
▁stating	-10.3095
mount	-10.3101
▁pack	-10.3121
▁rail	-10.3122
For	-10.3122
▁sex	-10.3123
▁comedy	-10.3129
▁Live	-10.3136
hl	-10.3139
▁bass	-10.3141
▁secure	-10.3142
▁Regional	-10.3152
hir	-10.3158
▁send	-10.316
▁vice	-10.3162
▁appointment	-10.317
ă	-10.317
▁suburb	-10.317
▁passes	-10.3172
▁starring	-10.3172
▁Ball	-10.3175
▁plot	-10.3185
▁Beach	-10.3188
quite	-10.3192
▁performing	-10.3195
▁Dy	-10.3195
▁Journal	-10.3217
▁favour	-10.3217
▁buy	-10.322
▁Vice	-10.3229
▁fear	-10.3243
▁Pass	-10.3265
▁Philadelphia	-10.3265
▁Federation	-10.3266
▁inaugura	-10.3266
▁Jane	-10.3266
▁steam	-10.3266
▁Hart	-10.3275
▁cannot	-10.3276
▁stock	-10.328
▁Miller	-10.3281
ogen	-10.3282
▁Ross	-10.3303
▁Manchester	-10.3314
▁advantage	-10.3314
▁entrance	-10.3314
▁Swiss	-10.3314
▁dropped	-10.3314
▁1938	-10.3317
▁Hav	-10.3318
▁1917	-10.3318
▁diver	-10.332
▁Fire	-10.332
▁Though	-10.3321
▁roll	-10.3336
▁affect	-10.3344
posed	-10.3362
▁economy	-10.3362
▁Ocean	-10.3363
▁properties	-10.3363
▁reign	-10.3364
▁Philip	-10.3365
▁mind	-10.3366
▁collaboration	-10.3383
▁designated	-10.3384
▁correct	-10.3384
bot	-10.3385
▁Glen	-10.3388
jan	-10.3402
▁basic	-10.3405
▁Description	-10.3411
▁entitled	-10.3411
▁Channel	-10.3411
▁Census	-10.3411
▁affair	-10.3411
▁Gen	-10.3418
▁NFL	-10.3419
cio	-10.3422
▁Hotel	-10.3422
▁drop	-10.3423
hill	-10.3427
▁southeast	-10.3437
cut	-10.3442
where	-10.3443
▁someone	-10.3448
▁phone	-10.346
▁monument	-10.346
▁choice	-10.346
▁wealth	-10.346
▁guide	-10.3461
▁fighting	-10.3462
▁Qua	-10.3464
▁lap	-10.3466
aff	-10.3469
▁|	-10.3469
▁comic	-10.3471
▁spell	-10.3473
▁selection	-10.3479
▁tall	-10.348
dio	-10.3486
pass	-10.3487
OS	-10.3506
â	-10.3509
ú	-10.3509
▁abandoned	-10.3509
▁distinguish	-10.3509
▁domestic	-10.3509
▁wheel	-10.3509
▁copies	-10.351
▁appeal	-10.351
▁Television	-10.351
word	-10.3511
▁Zo	-10.3512
▁1954	-10.3513
▁lawyer	-10.3515
▁preserve	-10.3518
▁documentary	-10.3519
▁Pope	-10.3522
▁contained	-10.3522
▁Fred	-10.3523
riot	-10.3529
▁34	-10.3533
▁[	-10.3543
▁Fox	-10.3548
▁converted	-10.3548
▁(16	-10.3549
▁exception	-10.3557
▁Reception	-10.3559
▁qualified	-10.3559
▁NCAA	-10.3559
▁straight	-10.3559
▁contrast	-10.3559
▁proved	-10.3559
▁root	-10.356
▁Chris	-10.356
▁folk	-10.3561
▁Sunday	-10.3563
▁observ	-10.3565
▁reduce	-10.3569
▁Today	-10.3572
▁hope	-10.3574
▁Golden	-10.3579
▁hydro	-10.3587
tten	-10.3593
▁lit	-10.3605
▁moth	-10.3607
ı	-10.3609
▁Tennessee	-10.3609
▁principle	-10.3609
▁struggle	-10.3609
▁causing	-10.3609
▁Kansas	-10.3609
ão	-10.3611
▁instance	-10.3611
▁1926	-10.3611
▁throw	-10.3614
▁decide	-10.3619
book	-10.3623
▁bin	-10.3623
▁frequently	-10.3624
▁Sound	-10.3627
▁Single	-10.3628
enberg	-10.3635
▁Just	-10.3649
▁influenced	-10.3652
▁criminal	-10.3659
▁Emperor	-10.3659
▁bodies	-10.3659
▁Lewis	-10.366
▁Jews	-10.366
▁prize	-10.366
▁mile	-10.3662
▁1937	-10.3663
▁debate	-10.3664
▁metres	-10.3664
▁Maryland	-10.367
▁uncle	-10.3677
▁Six	-10.3682
]	-10.3709
▁segment	-10.3709
▁rescue	-10.3711
▁partnership	-10.3713
▁completely	-10.3715
▁airport	-10.3717
▁Davis	-10.3717
▁Glo	-10.3725
wide	-10.3742
post	-10.3748
Billboard	-10.375
Me	-10.3752
▁crown	-10.3757
▁Arizona	-10.3759
▁stadium	-10.3759
▁Liberal	-10.3759
▁painter	-10.376
▁educational	-10.376
▁exam	-10.3768
▁drawing	-10.3774
▁Fame	-10.3774
▁joining	-10.3786
Star	-10.3793
▁employed	-10.3805
hom	-10.3806
▁recruit	-10.381
▁beyond	-10.381
▁enemy	-10.381
▁repair	-10.381
wick	-10.3815
▁expressed	-10.3819
pher	-10.382
▁attempted	-10.3825
stream	-10.3834
▁Nick	-10.3835
script	-10.3836
▁Age	-10.3849
▁Allen	-10.3859
▁Constitution	-10.3861
▁constitution	-10.3861
▁sustain	-10.3861
▁safe	-10.3862
▁maintained	-10.387
▁Winter	-10.3874
▁mill	-10.3882
power	-10.3893
▁premier	-10.3897
▁Magazine	-10.3912
▁category	-10.3912
▁Political	-10.3912
▁Square	-10.3913
▁solid	-10.3914
▁Officer	-10.3915
▁1931	-10.3916
▁specifically	-10.3917
▁1912	-10.3919
▁Garden	-10.3919
▁Austria	-10.3933
5%	-10.3949
▁Honor	-10.3956
▁neighbour	-10.3964
▁derived	-10.3964
▁racing	-10.3966
▁1922	-10.3968
▁Prize	-10.3968
elli	-10.3969
▁attacked	-10.3972
▁passing	-10.3972
▁Danish	-10.3973
▁mining	-10.3973
▁poetry	-10.3974
▁Mun	-10.3995
▁consul	-10.3996
▁Nazi	-10.4007
▁hockey	-10.4016
▁ultimately	-10.4016
▁Bulgaria	-10.4016
▁Studies	-10.4016
▁margin	-10.4016
▁expert	-10.4016
▁Wilson	-10.4024
▁Kat	-10.4048
▁Cap	-10.4064
▁electro	-10.4066
▁Switzerland	-10.4068
▁reception	-10.4068
▁recognition	-10.4068
▁bishop	-10.4068
▁constant	-10.4068
▁nomination	-10.4068
▁combat	-10.4068
▁1933	-10.407
▁Wolf	-10.4077
▁Ren	-10.4079
▁kick	-10.4079
▁Tam	-10.4087
▁Native	-10.4102
ér	-10.4112
▁psycho	-10.4117
▁consecutive	-10.412
▁residence	-10.4126
▁weather	-10.4127
lio	-10.4131
▁participate	-10.4133
▁Brian	-10.4136
▁shall	-10.4143
5,000	-10.4146
quest	-10.4153
▁laid	-10.4154
▁let	-10.4167
gui	-10.4168
▁Memorial	-10.4173
▁affiliate	-10.4173
▁guard	-10.4173
▁Girl	-10.4173
▁installed	-10.4174
▁importance	-10.4175
▁1924	-10.4176
▁brick	-10.4179
▁spin	-10.418
▁1910	-10.4182
65	-10.4188
▁funding	-10.4188
▁tail	-10.4206
▁seed	-10.4214
▁proposal	-10.4226
▁Puerto	-10.4226
▁Labour	-10.4226
▁Turkey	-10.4227
▁entry	-10.4227
▁Township	-10.423
▁1916	-10.4231
▁About	-10.4234
▁Islamic	-10.4234
▁premiered	-10.4242
▁Gor	-10.4244
who	-10.4251
▁Democrat	-10.4268
▁improve	-10.4271
▁formal	-10.4271
▁independence	-10.4276
▁Executive	-10.4279
▁distributed	-10.4279
▁exclusive	-10.4279
▁introduction	-10.4279
▁relocat	-10.4279
▁valley	-10.4279
▁Denmark	-10.428
▁worldwide	-10.4281
▁Hawk	-10.4286
viv	-10.4292
actually	-10.4298
▁FM	-10.4299
▁Motor	-10.4301
▁EP	-10.4308
▁Israeli	-10.4324
cca	-10.4326
▁rich	-10.4329
titude	-10.433
°	-10.4332
▁Singapore	-10.4332
▁opportunity	-10.4332
▁venue	-10.4333
▁crowd	-10.4333
▁Front	-10.4334
▁Cape	-10.4336
ER	-10.4337
▁trained	-10.4339
▁Bull	-10.4345
▁strip	-10.4351
cover	-10.4352
fford	-10.4356
▁proper	-10.4358
▁pin	-10.4362
▁engineering	-10.4367
▁400	-10.4368
▁registered	-10.4372
▁engaged	-10.4372
udi	-10.4373
▁Colorado	-10.4386
▁Wisconsin	-10.4386
▁ceremony	-10.4386
▁rugby	-10.4386
▁marine	-10.4388
empt	-10.4391
▁1915	-10.4393
▁playoff	-10.4396
▁concluded	-10.44
▁Syria	-10.4403
▁incorporated	-10.4403
Mi	-10.4408
▁destroy	-10.4427
▁understanding	-10.4432
▁Kentucky	-10.444
▁activist	-10.444
▁Turkish	-10.444
▁junior	-10.444
▁touchdown	-10.444
▁fought	-10.444
▁glass	-10.444
gli	-10.4442
▁1936	-10.4443
▁collected	-10.4445
▁engage	-10.4455
later	-10.4459
▁Bab	-10.4459
▁observed	-10.446
▁Lind	-10.446
▁pull	-10.4472
ould	-10.4472
▁Merc	-10.4482
▁charged	-10.4486
▁deposit	-10.4489
▁Professional	-10.4495
▁constituency	-10.4495
▁nuclear	-10.4495
▁Missouri	-10.4495
▁translation	-10.4495
▁Christmas	-10.4495
▁inhabitants	-10.4495
▁dispute	-10.4498
▁row	-10.4525
flu	-10.4536
▁finding	-10.4539
▁admitted	-10.4549
▁Tournament	-10.4549
▁coordinat	-10.4549
▁apparent	-10.4549
▁drink	-10.4549
▁withdraw	-10.4552
▁Ferr	-10.4563
osis	-10.4564
▁duty	-10.4564
▁meta	-10.4565
▁Sky	-10.457
▁panel	-10.4573
▁brief	-10.4576
RC	-10.4579
▁Exp	-10.4582
▁file	-10.4593
fri	-10.4596
▁bio	-10.4596
*	-10.4604
▁Administration	-10.4604
▁instruction	-10.4604
▁Communist	-10.4604
▁chapter	-10.4604
▁negative	-10.4604
▁sample	-10.4604
▁fur	-10.461
▁Review	-10.4613
▁closely	-10.4618
▁1900	-10.4618
▁graduate	-10.4619
▁expression	-10.4623
▁your	-10.4624
▁sole	-10.4628
path	-10.4639
▁classic	-10.4648
▁reveal	-10.4648
Man	-10.465
▁Farm	-10.4656
▁possibly	-10.4659
▁Hamilton	-10.466
▁description	-10.466
▁minute	-10.466
▁fresh	-10.466
agan	-10.466
▁pursue	-10.4662
▁Howard	-10.4672
▁purchase	-10.4675
▁motion	-10.4678
▁Jay	-10.4679
▁wait	-10.4684
including	-10.4698
▁Legislati	-10.4715
▁occupation	-10.4715
appropriate	-10.4715
▁jazz	-10.4715
▁Oregon	-10.4715
▁1928	-10.4718
▁Syn	-10.472
▁hat	-10.4722
▁Bowl	-10.4724
,500	-10.473
▁pot	-10.4732
▁Walter	-10.4732
▁mention	-10.4732
▁Simon	-10.4739
election	-10.4746
▁hair	-10.4747
▁feel	-10.475
fold	-10.4751
▁Key	-10.4751
▁harm	-10.4752
▁glo	-10.4754
ello	-10.4756
media	-10.4768
ía	-10.4771
▁accompani	-10.4771
▁locomotive	-10.4771
▁provincial	-10.4771
▁merged	-10.4771
▁scheme	-10.4771
▁Senior	-10.4771
▁copy	-10.4772
▁Reserve	-10.4772
▁Gordon	-10.4772
▁1919	-10.4775
▁Silver	-10.4776
▁originat	-10.4777
▁snow	-10.4782
▁combination	-10.4785
▁Jen	-10.4786
▁Naval	-10.4788
▁shut	-10.4788
master	-10.4811
▁Argentina	-10.4827
▁identity	-10.4827
▁volunteer	-10.4827
dynamic	-10.4827
▁jump	-10.4827
▁investment	-10.4828
▁Thus	-10.4831
▁secretary	-10.4833
aki	-10.4838
▁involve	-10.4839
▁manufacture	-10.4843
▁catch	-10.4852
▁wish	-10.4852
▁lock	-10.4854
▁Brand	-10.4858
General	-10.4862
▁Steven	-10.4862
earn	-10.4864
▁Sri	-10.4871
▁grave	-10.4876
eastern	-10.4877
▁cycle	-10.4881
▁Economic	-10.4884
▁Battalion	-10.4884
▁parallel	-10.4884
▁heritage	-10.4884
▁fruit	-10.4884
▁Disney	-10.4884
▁Buck	-10.4887
▁IV	-10.4893
▁Country	-10.4893
roughly	-10.4898
nik	-10.4905
▁seventh	-10.4911
▁Web	-10.4911
duced	-10.4928
weight	-10.4935
▁resigned	-10.4939
▁Security	-10.494
▁circuit	-10.494
▁producing	-10.494
▁regulation	-10.494
▁Fellow	-10.494
▁developing	-10.4943
▁legend	-10.4946
▁desire	-10.4949
▁Morris	-10.4951
▁Kin	-10.4951
▁express	-10.4975
osa	-10.4978
box	-10.4995
▁resistance	-10.4998
▁twelve	-10.4998
▁Chamber	-10.4998
▁danger	-10.4998
▁quant	-10.4998
▁intention	-10.4998
▁evolution	-10.4999
▁transition	-10.5003
finite	-10.5005
ović	-10.5008
▁Wind	-10.5014
▁Norman	-10.5016
▁runner	-10.5017
called	-10.5017
▁affected	-10.502
▁Trust	-10.5021
–3	-10.5028
_1	-10.5034
▁faced	-10.5035
▁chose	-10.5035
▁soil	-10.5038
▁hop	-10.5047
host	-10.5054
▁agricultural	-10.5055
▁violence	-10.5055
▁encounter	-10.5055
▁Montreal	-10.5055
▁fashion	-10.5055
▁Samuel	-10.5055
▁Shan	-10.5057
▁donat	-10.5057
▁1934	-10.5057
▁Express	-10.5058
▁Commander	-10.5059
▁herself	-10.5062
▁Prix	-10.507
▁representation	-10.5074
▁Unit	-10.5076
▁dam	-10.5084
▁Anne	-10.5084
▁briefly	-10.5084
▁typical	-10.5085
▁Harry	-10.5091
gie	-10.5091
▁Hot	-10.5098
▁expedition	-10.5113
▁Bureau	-10.5113
▁personnel	-10.5113
▁variation	-10.5113
▁dress	-10.5113
▁breed	-10.5115
▁1921	-10.5118
▁entirely	-10.5128
▁argued	-10.5144
▁Track	-10.5157
▁Mayor	-10.516
▁offering	-10.5161
▁pan	-10.5163
▁Commonwealth	-10.5171
▁Communication	-10.5171
▁earliest	-10.5171
▁Cardinal	-10.5171
▁Management	-10.5171
▁Student	-10.5171
▁initiative	-10.5171
▁Modern	-10.5172
▁praised	-10.5173
▁singing	-10.5176
▁crash	-10.5179
▁Iron	-10.518
▁notice	-10.5183
▁Malaysia	-10.5185
–17	-10.5186
▁Indiana	-10.5195
Pro	-10.52
▁plane	-10.5202
▁Seven	-10.5204
▁select	-10.5206
tech	-10.5223
▁Foreign	-10.5229
▁educated	-10.5229
▁opinion	-10.5229
▁landscape	-10.5229
▁push	-10.523
▁Mol	-10.5231
▁Alb	-10.5233
▁Classic	-10.5238
▁controlled	-10.5238
▁criticism	-10.5239
▁ratio	-10.5247
000	-10.5248
▁Disc	-10.5248
▁Heart	-10.5259
▁pool	-10.5259
▁southwest	-10.5259
rang	-10.5264
▁mental	-10.5267
friend	-10.5271
▁voted	-10.5287
▁Hungarian	-10.5288
▁Oklahoma	-10.5288
▁adjacent	-10.5288
▁committed	-10.5288
▁essential	-10.5288
▁opponent	-10.5288
▁brown	-10.5288
▁Greece	-10.5288
▁Space	-10.5292
▁Common	-10.5312
▁1890	-10.5321
▁core	-10.5342
▁Palm	-10.5343
▁determine	-10.5346
▁Connecticut	-10.5347
▁Lieutenant	-10.5347
▁eleven	-10.5347
▁Senator	-10.5348
▁ensure	-10.535
▁prime	-10.535
▁Thor	-10.5356
person	-10.5364
▁Mission	-10.5368
▁Now	-10.537
▁vary	-10.5386
hop	-10.5391
▁really	-10.5396
▁UN	-10.5398
▁bull	-10.5406
▁budget	-10.5407
▁perfect	-10.5407
▁DVD	-10.5407
▁injured	-10.5407
▁error	-10.5407
▁heavily	-10.5407
▁hired	-10.5408
▁1927	-10.5411
▁Test	-10.542
▁cold	-10.5424
▁successor	-10.5424
▁load	-10.5426
▁survived	-10.5438
▁apply	-10.544
▁alter	-10.5447
▁Pet	-10.5447
▁shooting	-10.5467
ī	-10.5467
▁Anthony	-10.5467
▁Douglas	-10.5467
▁Brigade	-10.5467
▁involving	-10.5467
▁Temple	-10.5467
▁piano	-10.5467
▁agency	-10.5473
▁tea	-10.5475
All	-10.5487
800	-10.5487
mpton	-10.5505
stall	-10.5521
▁fee	-10.5524
▁shell	-10.5526
▁Quebec	-10.5527
▁Ukraine	-10.5527
▁dynasty	-10.5527
▁Frederick	-10.5527
▁Jacob	-10.5528
▁talent	-10.5528
▁raid	-10.5529
▁1908	-10.5531
Com	-10.5541
▁assumed	-10.5545
▁hour	-10.5547
▁supervis	-10.5555
▁accused	-10.557
active	-10.5576
▁specializ	-10.5579
▁arrest	-10.5581
▁Belgium	-10.5588
▁medicine	-10.5588
▁chemical	-10.5588
▁medium	-10.5588
▁emotion	-10.5588
▁northwest	-10.5593
▁Palace	-10.5593
RI	-10.5611
▁capture	-10.5614
core	-10.5619
▁Note	-10.5626
▁improved	-10.5634
▁discussion	-10.5635
▁classical	-10.5643
▁losses	-10.5645
▁Record	-10.5645
▁obtain	-10.5645
▁Cemetery	-10.5649
▁tropical	-10.5649
▁bottom	-10.5649
▁Rhode	-10.5649
▁cinema	-10.565
▁Chu	-10.5655
▁items	-10.5655
▁provision	-10.5657
▁Local	-10.5658
▁Additionally	-10.5659
▁camera	-10.566
▁Cooper	-10.5663
▁Tony	-10.5676
▁Youth	-10.57
▁Run	-10.5703
▁Affairs	-10.571
▁Engineering	-10.571
▁arrangement	-10.571
▁arrival	-10.571
▁mechanism	-10.571
▁knock	-10.571
▁Standard	-10.571
://	-10.571
http	-10.5711
▁opposite	-10.5711
▁1923	-10.5714
▁exact	-10.5715
body	-10.5718
▁why	-10.572
▁feeling	-10.5725
▁Steve	-10.5735
type	-10.5742
▁audit	-10.5745
▁Chang	-10.5746
▁manufacturer	-10.5754
cott	-10.5756
▁Mah	-10.5762
ín	-10.577
▁substantial	-10.5772
▁circle	-10.5772
▁Anderson	-10.5772
▁invasion	-10.5772
▁Hindu	-10.5772
▁Third	-10.5772
▁programming	-10.5772
▁genre	-10.5774
▁migrat	-10.5774
▁gate	-10.5775
▁caught	-10.5777
▁hot	-10.5786
▁Burn	-10.5806
story	-10.5808
design	-10.5818
▁ruled	-10.5825
▁Cleveland	-10.5834
▁manuscript	-10.5834
▁substitute	-10.5834
▁Rugby	-10.5834
▁domain	-10.5834
▁CEO	-10.5834
bank	-10.5835
▁stopped	-10.5836
▁operator	-10.5837
▁achieve	-10.5837
▁reader	-10.5842
▁prisoners	-10.5854
▁McG	-10.5867
▁tries	-10.5871
▁Dick	-10.5872
▁planet	-10.5885
direct	-10.5886
▁expand	-10.5892
▁submarine	-10.5896
▁Detroit	-10.5896
▁Croatia	-10.5898
▁Ltd	-10.5899
▁revolution	-10.5903
bach	-10.5932
▁lib	-10.5938
?"	-10.5955
▁Origin	-10.5957
▁COVID	-10.5959
ū	-10.5959
▁Conservative	-10.5959
▁franchise	-10.5959
▁Hollywood	-10.5959
▁equation	-10.5959
arrow	-10.5962
▁1932	-10.5963
▁nothing	-10.5964
▁1911	-10.5967
▁Hugh	-10.5978
high	-10.5986
▁Grant	-10.599
bridge	-10.5991
▁curve	-10.5992
▁manage	-10.5993
▁enable	-10.5998
▁possess	-10.6001
claim	-10.6007
▁tourist	-10.6021
▁elevation	-10.6023
▁extremely	-10.6023
▁philosophy	-10.6023
▁Chairman	-10.6023
▁athlete	-10.6023
▁alleged	-10.6023
▁depth	-10.6023
▁tennis	-10.6023
▁childhood	-10.6024
▁bowl	-10.6025
▁cup	-10.603
▁highlight	-10.6031
▁Finland	-10.6032
▁Fund	-10.6042
▁Notabl	-10.6046
▁web	-10.6049
▁Lang	-10.6083
▁spirit	-10.6085
▁Squadron	-10.6086
▁Challenge	-10.6086
▁athletic	-10.6086
▁Taiwan	-10.6086
▁penalty	-10.6086
▁reputation	-10.6086
▁uniform	-10.6086
▁check	-10.6088
▁thick	-10.6095
▁march	-10.6099
fort	-10.6106
▁Coach	-10.6124
▁delay	-10.6126
▁meters	-10.6134
▁Karl	-10.6136
▁Bush	-10.6139
▁filed	-10.6141
▁alcohol	-10.615
▁collapse	-10.615
▁exercise	-10.615
▁belief	-10.615
▁speaker	-10.6151
▁mobile	-10.6152
▁1935	-10.6154
▁Lev	-10.6157
▁plain	-10.6161
▁Season	-10.6166
▁regularly	-10.6179
▁replace	-10.6212
▁coastal	-10.6213
▁Demographics	-10.6215
▁easily	-10.6215
▁battalion	-10.6215
▁residential	-10.6215
▁Gulf	-10.6215
▁Iowa	-10.6216
▁clean	-10.6216
▁Ottoman	-10.6218
▁complain	-10.6219
▁starred	-10.622
▁Tamil	-10.6228
▁listen	-10.6236
▁Stock	-10.6242
▁Metro	-10.6256
liga	-10.6264
▁Petr	-10.6265
▁parliament	-10.6275
▁Architect	-10.628
▁Liverpool	-10.628
▁Orchestra	-10.628
▁Portuguese	-10.628
▁diagnos	-10.628
▁nickname	-10.628
▁Hockey	-10.628
▁message	-10.628
▁Miami	-10.628
▁1925	-10.6285
▁missing	-10.6287
▁stood	-10.6287
▁output	-10.6295
ów	-10.6297
▁greatest	-10.6298
▁achievement	-10.6299
▁Independent	-10.63
ntil	-10.633
level	-10.6331
▁drawn	-10.634
▁Mississippi	-10.6345
▁Saturday	-10.6345
▁argument	-10.6345
▁artillery	-10.6345
▁intelligence	-10.6345
▁Hawaii	-10.6345
▁witness	-10.6345
▁Baseball	-10.6345
▁Hungary	-10.6345
▁continuous	-10.6345
▁translated	-10.6345
▁Colonel	-10.6345
▁tackle	-10.6345
▁architectural	-10.6347
▁Doctor	-10.6356
▁getting	-10.6358
▁Knight	-10.6359
▁Pap	-10.6374
▁brain	-10.6381
▁rejected	-10.6385
▁pit	-10.6394
▁Peru	-10.6397
▁Entertainment	-10.6411
▁pioneer	-10.6411
▁Matthew	-10.6411
▁crisis	-10.6411
▁shoot	-10.6411
▁context	-10.6414
▁theater	-10.6415
▁assistance	-10.6418
▁adaptation	-10.644
▁observation	-10.6448
▁Austrian	-10.6451
|	-10.6465
related	-10.6466
feld	-10.6476
comp	-10.6476
▁advocate	-10.6477
▁Robinson	-10.6477
▁biggest	-10.6477
▁Current	-10.6477
▁Louisiana	-10.6477
▁Eagle	-10.6478
▁Children	-10.6478
▁Jesus	-10.6479
▁Bear	-10.6479
▁Patrick	-10.6479
▁Album	-10.6486
continu	-10.649
▁mob	-10.65
▁Victor	-10.6502
▁Beau	-10.6513
▁Juan	-10.6517
gio	-10.6527
à	-10.6544
▁commune	-10.6544
▁equivalent	-10.6544
▁investigate	-10.6544
▁colonial	-10.6544
▁Jordan	-10.6544
▁racial	-10.6544
songwriter	-10.6545
▁automatic	-10.6545
▁replacement	-10.6551
▁Berg	-10.6558
▁membership	-10.6567
▁announce	-10.6571
▁reality	-10.6573
▁XI	-10.6587
stad	-10.66
wise	-10.6602
▁Marie	-10.6606
▁hole	-10.6609
▁Metropolitan	-10.6611
▁definition	-10.6611
▁railroad	-10.6611
▁orchestra	-10.6611
▁consumer	-10.6611
▁dialect	-10.6611
▁variant	-10.6611
▁dry	-10.6612
▁adopt	-10.6612
▁debt	-10.6615
▁faith	-10.6615
▁Brazilian	-10.6622
▁passage	-10.6626
▁Armenian	-10.6628
▁settle	-10.6638
▁raise	-10.6639
▁rose	-10.6649
▁Race	-10.6653
▁unusual	-10.6675
▁Railroad	-10.6679
▁controversy	-10.6679
▁journey	-10.6679
▁procedure	-10.6679
▁Antonio	-10.6679
▁assassin	-10.6679
▁portrait	-10.6679
▁refuge	-10.6679
▁Heritage	-10.6679
▁defence	-10.6679
▁Nelson	-10.6679
▁Johann	-10.6679
▁preced	-10.6682
▁Village	-10.669
▁abuse	-10.669
▁civilian	-10.6707
▁Beat	-10.6717
▁broken	-10.6721
▁Box	-10.6723
▁sac	-10.673
▁layer	-10.674
▁memorial	-10.6747
▁recognis	-10.6747
▁responsibility	-10.6747
▁patent	-10.6747
▁resign	-10.6748
–16	-10.6749
▁drum	-10.6751
▁Bengal	-10.6753
stroke	-10.6753
▁elder	-10.6764
▁export	-10.6765
▁genetic	-10.6768
▁township	-10.6769
▁coverage	-10.6773
▁interaction	-10.6774
▁irr	-10.679
▁Roll	-10.6797
▁replac	-10.6803
▁Carol	-10.6807
▁celebrated	-10.6807
▁Off	-10.6813
▁Edinburgh	-10.6815
▁disappear	-10.6815
▁sculpture	-10.6815
▁unsuccessful	-10.6815
▁Convention	-10.6815
▁Czech	-10.6815
▁balance	-10.6815
▁restored	-10.6816
▁Campbell	-10.6816
▁José	-10.6816
▁kingdom	-10.6817
▁1904	-10.6819
▁Singh	-10.682
▁ownership	-10.6821
▁1913	-10.6822
▁predict	-10.6823
▁Yorkshire	-10.6825
▁Tele	-10.6829
▁Jose	-10.6834
open	-10.684
▁Epi	-10.6868
unda	-10.6873
▁formally	-10.6873
▁Chen	-10.6878
▁legislation	-10.6884
▁virtual	-10.6884
▁policies	-10.6884
▁tunnel	-10.6884
▁revenue	-10.6884
▁calculat	-10.6884
▁Deputy	-10.6884
▁Dublin	-10.6884
▁assault	-10.6884
▁patrol	-10.6884
▁Bernard	-10.6887
▁1905	-10.6888
▁illness	-10.6889
▁Lower	-10.6891
▁gender	-10.6892
▁Shu	-10.6901
▁tube	-10.6904
▁bond	-10.691
▁improvement	-10.6912
▁Call	-10.6915
▁popularity	-10.692
▁Round	-10.6924
▁eat	-10.6942
therapy	-10.6948
▁Thompson	-10.6953
▁monitor	-10.6953
▁Vienna	-10.6954
▁venture	-10.6954
▁refus	-10.6963
▁Auto	-10.6966
▁Morgan	-10.6971
▁Moore	-10.6977
▁dating	-10.6979
▁notably	-10.6985
▁Report	-10.6991
▁Alabama	-10.7023
▁Harvard	-10.7023
▁palace	-10.7023
▁Sultan	-10.7024
▁Gallery	-10.7024
▁squadron	-10.7027
aceae	-10.7027
space	-10.7032
▁Villa	-10.7034
stock	-10.7035
▁string	-10.7051
▁agree	-10.7054
▁Ent	-10.7058
▁encouraged	-10.7058
▁1880	-10.7062
shaped	-10.7068
enburg	-10.7076
▁artistic	-10.7077
▁Gill	-10.7083
▁Islam	-10.7087
cession	-10.709
▁150	-10.7093
▁competitive	-10.7094
▁satellite	-10.7094
▁Colombia	-10.7094
▁prosecut	-10.7094
▁surviving	-10.7094
▁minimum	-10.7094
▁Houston	-10.7094
▁1907	-10.7098
sphere	-10.7113
▁$5	-10.7117
▁Market	-10.712
▁arrive	-10.7125
▁Reform	-10.713
▁branches	-10.7138
▁somewhat	-10.7165
▁suspect	-10.7165
▁Charlotte	-10.7165
▁driving	-10.7165
▁Alfred	-10.7165
▁attached	-10.7165
▁Welsh	-10.7165
▁Trump	-10.7165
▁Rights	-10.7166
Qu	-10.7169
▁scholarship	-10.7169
▁freedom	-10.717
▁stress	-10.7172
▁twin	-10.7172
▁bone	-10.7185
▁Cathedral	-10.7236
▁Meanwhile	-10.7236
▁Diego	-10.7236
▁trading	-10.7237
▁apartment	-10.7237
▁Global	-10.7237
▁criticized	-10.7243
▁Steel	-10.7244
▁Sign	-10.7252
▁Dave	-10.7269
▁manner	-10.7271
▁Pala	-10.7272
▁Bomb	-10.7275
100	-10.728
present	-10.7289
▁Range	-10.73
fire	-10.7304
▁anniversary	-10.7308
▁merchant	-10.7308
▁utiliz	-10.7308
▁prompt	-10.7308
▁edited	-10.7308
▁Walker	-10.7311
▁confront	-10.7312
▁carbon	-10.7315
▁resolution	-10.7318
umble	-10.7346
▁sort	-10.7354
▁innings	-10.737
emia	-10.7376
▁defensive	-10.7381
▁Margaret	-10.7381
▁compound	-10.7381
▁fixed	-10.7381
▁climb	-10.7381
▁symp	-10.7383
▁promise	-10.7385
▁stable	-10.7387
▁Tower	-10.7389
▁Racing	-10.7394
▁Staff	-10.74
▁trace	-10.74
▁sight	-10.7403
You	-10.7406
▁Orthodox	-10.7454
▁faculty	-10.7454
▁sufficient	-10.7454
▁completion	-10.7454
▁threatened	-10.7454
▁amateur	-10.7454
▁graphic	-10.7456
▁duties	-10.7457
▁magic	-10.746
▁Julia	-10.7482
▁Know	-10.7487
▁Cook	-10.7492
▁audio	-10.7497
▁Bern	-10.7517
▁Ukrainian	-10.7527
▁assembly	-10.7527
▁opportunities	-10.7527
▁prince	-10.7527
▁abroad	-10.7527
▁competing	-10.7528
▁cousin	-10.7528
▁Crown	-10.7529
elected	-10.7531
▁Kevin	-10.7531
▁1909	-10.7532
▁Henri	-10.7535
▁hip	-10.7535
▁downtown	-10.7536
either	-10.7541
▁Jam	-10.756
▁schedule	-10.7561
▁Row	-10.7592
▁immigrant	-10.7601
▁retreat	-10.7601
▁dollar	-10.7601
▁visible	-10.7601
▁unlike	-10.762
▁argue	-10.7638
▁cook	-10.7648
▁Shah	-10.7667
ș	-10.7676
▁Basketball	-10.7676
▁Glasgow	-10.7676
▁Organization	-10.7676
▁executed	-10.7676
▁universities	-10.7676
▁Atlanta	-10.7676
▁poverty	-10.7676
▁Nigeria	-10.7677
▁import	-10.7677
▁cited	-10.7678
▁moral	-10.7691
▁useful	-10.7698
▁Wright	-10.77
▁consistent	-10.7701
▁possession	-10.7701
ensis	-10.7712
owski	-10.7727
▁Zone	-10.7729
▁celebrat	-10.7732
▁grass	-10.7741
jun	-10.7748
▁graduating	-10.7751
▁identify	-10.7751
▁intersection	-10.7751
▁supposed	-10.7751
▁Electric	-10.7751
▁deputy	-10.7751
▁Fleet	-10.7751
▁merger	-10.7751
▁earth	-10.7752
600	-10.7754
▁classification	-10.7755
group	-10.7756
▁naval	-10.7757
▁visitors	-10.7759
▁expect	-10.7759
▁justice	-10.7764
▁youngest	-10.7769
▁concentration	-10.7772
owned	-10.7801
▁construct	-10.7824
▁Defense	-10.7827
▁influential	-10.7827
▁strategy	-10.7827
▁modified	-10.7827
▁retail	-10.7827
▁Nova	-10.7858
▁survive	-10.7863
▁combin	-10.7896
▁controversial	-10.7903
▁manufacturing	-10.7903
▁Finnish	-10.7903
▁statue	-10.7903
▁gift	-10.7904
▁answer	-10.7906
▁Internet	-10.7907
▁Sarah	-10.7909
▁drew	-10.791
▁counties	-10.7911
▁client	-10.7911
▁considerable	-10.7916
▁objective	-10.792
▁recall	-10.7934
ë	-10.798
▁Construction	-10.798
▁Imperial	-10.798
▁decrease	-10.798
▁pandemic	-10.798
▁participation	-10.798
▁rebuilt	-10.798
▁widespread	-10.798
▁arranged	-10.798
▁Russell	-10.798
▁sudden	-10.798
▁struck	-10.798
▁disorder	-10.798
▁restoration	-10.798
▁storage	-10.798
▁earning	-10.7981
▁Leader	-10.7981
▁spiritual	-10.7982
▁1902	-10.7984
▁1906	-10.7984
▁understand	-10.7991
▁tape	-10.7992
▁assert	-10.8003
▁Bryan	-10.801
▁1889	-10.8011
▁Opera	-10.8012
▁Princess	-10.8022
national	-10.8041
▁Bangladesh	-10.8057
▁commemorat	-10.8057
▁entertainment	-10.8057
▁offensive	-10.8058
▁cancelled	-10.8058
sexual	-10.8058
▁infectio	-10.8059
▁Originally	-10.806
▁reproduc	-10.8061
▁exile	-10.8066
▁huge	-10.8071
▁massive	-10.8072
▁Baker	-10.8072
▁capable	-10.8076
▁noble	-10.8079
▁wooden	-10.8087
tempo	-10.8093
▁payment	-10.8104
▁qualification	-10.8136
ambigu	-10.8136
▁Information	-10.8136
▁Donald	-10.8139
▁monk	-10.8144
▁modul	-10.8146
▁Iranian	-10.8149
▁1899	-10.817
▁stem	-10.8187
▁interpret	-10.8195
▁cave	-10.8198
public	-10.8209
▁approval	-10.8214
▁medieval	-10.8214
▁temporary	-10.8214
▁chamber	-10.8214
▁Natural	-10.8215
▁partially	-10.8215
▁drain	-10.8215
▁Peace	-10.8219
▁transmission	-10.8219
▁Lanka	-10.822
▁otherwise	-10.8224
▁preparation	-10.8268
▁Maha	-10.8271
▁handle	-10.8281
▁Pittsburgh	-10.8294
▁soundtrack	-10.8294
€	-10.8294
▁Tokyo	-10.8294
▁ruling	-10.8294
cultural	-10.8296
▁truck	-10.8299
▁involvement	-10.8301
▁weekend	-10.8305
▁Artist	-10.8309
▁characterized	-10.831
▁neuro	-10.8331
▁remove	-10.8336
chlor	-10.8363
å	-10.8374
▁intellectual	-10.8374
▁surrender	-10.8374
▁perhaps	-10.8374
▁electoral	-10.8374
▁convince	-10.8374
▁injuries	-10.8374
▁finance	-10.8374
▁loyal	-10.8375
▁denied	-10.8375
▁particle	-10.8375
▁afterwards	-10.8376
▁classified	-10.838
▁NBA	-10.839
▁interpretation	-10.8394
▁encourage	-10.8414
▁McCa	-10.8431
▁Arkansas	-10.8454
▁Azerbaijan	-10.8454
▁Voivodeship	-10.8454
▁concrete	-10.8454
▁lieutenant	-10.8454
▁suicide	-10.8454
▁wrong	-10.8454
▁absence	-10.8454
▁dream	-10.8454
▁Prussia	-10.8455
▁Control	-10.8455
▁craft	-10.8455
credit	-10.8461
▁Type	-10.8461
▁tenure	-10.8474
▁implementation	-10.8484
▁secur	-10.8497
▁differ	-10.8526
▁deployed	-10.8536
▁jurisdiction	-10.8536
▁Portugal	-10.8536
▁accomplish	-10.8536
▁advice	-10.8536
▁illegal	-10.8536
▁Draft	-10.8536
▁false	-10.8536
▁$4	-10.8562
▁lease	-10.8568
▁realize	-10.8568
▁associate	-10.8577
trans	-10.8586
▁immediate	-10.859
▁Rosa	-10.8617
▁neighbor	-10.8617
▁FIFA	-10.8618
▁administer	-10.8618
▁indigenous	-10.8618
▁Belgian	-10.8618
▁behalf	-10.8618
▁enhance	-10.8618
▁Treaty	-10.8618
▁changing	-10.8618
▁Michel	-10.862
▁leaf	-10.8622
▁hearing	-10.8626
This	-10.8629
▁Model	-10.8631
▁NBC	-10.8633
▁Portland	-10.8634
▁Food	-10.8649
▁Stewart	-10.87
▁equipped	-10.87
▁mathematics	-10.87
▁monastery	-10.87
▁significance	-10.87
▁Critical	-10.87
▁intercept	-10.87
▁Movement	-10.87
▁relief	-10.87
▁ticket	-10.87
▁stretch	-10.87
▁Limited	-10.8701
▁Kelly	-10.8704
▁occasionally	-10.8706
▁Judge	-10.8708
▁1863	-10.8726
▁brigade	-10.8784
▁suspended	-10.8784
▁Medicine	-10.8784
▁Orleans	-10.8784
▁Thailand	-10.8784
ń	-10.8784
▁Seattle	-10.8784
▁choose	-10.8784
▁variable	-10.8784
▁valid	-10.8784
▁installation	-10.8784
▁mounted	-10.8785
▁Guinea	-10.8785
▁Agency	-10.8786
▁ongoing	-10.879
scale	-10.8792
activate	-10.8834
née	-10.8836
▁gradually	-10.8868
▁physician	-10.8868
▁yield	-10.8868
▁worship	-10.8868
▁endemic	-10.8868
▁cluster	-10.8868
▁NHL	-10.8868
▁ninth	-10.8868
▁Dallas	-10.8868
▁Tibet	-10.8869
▁Nepal	-10.887
▁Albania	-10.8872
▁Estonia	-10.8872
▁1903	-10.8873
▁speculat	-10.8873
length	-10.8874
▁1901	-10.8874
▁grey	-10.8874
▁Graham	-10.8887
▁Horse	-10.8912
▁Malay	-10.8929
▁regime	-10.8951
▁UEFA	-10.8952
▁agriculture	-10.8952
▁militia	-10.8952
▁divorce	-10.8952
▁Cricket	-10.8952
▁Utah	-10.8953
▁terminal	-10.8953
▁Abdul	-10.8955
▁Persian	-10.8955
▁altitude	-10.8955
▁percentage	-10.8965
▁1865	-10.8972
▁trap	-10.8986
▁whil	-10.8996
▁rod	-10.8999
▁soldier	-10.9011
ô	-10.9038
▁Baltimore	-10.9038
▁predecessor	-10.9038
▁destination	-10.9038
▁Capital	-10.9038
▁Alliance	-10.9038
▁proportion	-10.9038
▁acclaim	-10.9038
▁Bruce	-10.9038
▁continuing	-10.9039
▁belonging	-10.9039
▁shelter	-10.9039
▁everything	-10.9039
▁vast	-10.904
▁remainder	-10.9046
release	-10.9049
▁salt	-10.9052
▁succeed	-10.9057
▁Ryan	-10.9059
▁drag	-10.9064
▁wire	-10.9064
▁cabinet	-10.9124
▁conclusion	-10.9124
▁illustrate	-10.9124
▁infantry	-10.9124
▁possibility	-10.9124
▁swimming	-10.9124
▁Soccer	-10.9124
▁emperor	-10.9124
▁surprise	-10.9124
▁battery	-10.9124
▁disaster	-10.9124
▁radical	-10.9125
writer	-10.9131
▁employment	-10.9143
▁convert	-10.9145
▁moderate	-10.9156
▁estimate	-10.9171
structur	-10.9204
self	-10.9206
▁Child	-10.9211
▁Birmingham	-10.9211
▁cultivat	-10.9211
▁discipline	-10.9211
▁Admiral	-10.9211
▁Lawrence	-10.9211
▁surgery	-10.9211
▁Austin	-10.9211
▁Trophy	-10.9213
▁drummer	-10.9214
▁Evans	-10.9215
dependence	-10.9217
minute	-10.9232
▁loop	-10.9249
▁Esp	-10.9267
▁teach	-10.9278
▁Distribution	-10.9299
▁beautiful	-10.9299
▁execution	-10.9299
▁junction	-10.9299
▁reinforce	-10.9299
▁Hampshire	-10.9299
▁departure	-10.9299
▁erected	-10.9299
▁specimen	-10.9299
rchaeological	-10.9299
▁essay	-10.9299
▁voting	-10.9299
▁strict	-10.93
▁marry	-10.93
▁anything	-10.9301
▁parliamentary	-10.9305
▁clock	-10.9319
▁celebration	-10.9331
▁Storm	-10.9345
▁Century	-10.9387
▁Muhammad	-10.9387
▁Venezuela	-10.9387
▁acquisition	-10.9387
▁veteran	-10.9387
▁circulat	-10.9387
cylinder	-10.9387
▁surrounded	-10.9387
▁Culture	-10.9387
▁Defence	-10.9387
▁Election	-10.9387
▁Writing	-10.9388
▁Derby	-10.9388
▁Speed	-10.9391
▁inspect	-10.9393
▁Monday	-10.9397
piece	-10.9398
▁Found	-10.941
dvisory	-10.9431
▁frequent	-10.9449
▁Further	-10.9476
▁Broadcasting	-10.9477
▁accommodate	-10.9477
▁destruction	-10.9477
▁Publish	-10.9477
▁Marshall	-10.9477
▁extinct	-10.9477
▁Kennedy	-10.9477
▁coalition	-10.9477
▁wedding	-10.9477
▁remote	-10.9477
▁Saudi	-10.9483
▁Franklin	-10.9484
▁descendant	-10.9492
▁concentrat	-10.9542
▁YouTube	-10.9567
▁competitor	-10.9567
▁frequency	-10.9567
а	-10.9567
▁Oblast	-10.9567
▁excavat	-10.9567
▁Vincent	-10.9567
▁outstanding	-10.9567
▁beetle	-10.9569
▁dimension	-10.9574
▁render	-10.9575
▁Arabia	-10.9607
ß	-10.9658
continental	-10.9658
▁circumstances	-10.9658
▁exploit	-10.9658
▁suppress	-10.9658
▁prohibit	-10.9658
▁creative	-10.9658
▁monarch	-10.9658
▁Brooklyn	-10.9658
▁resort	-10.9658
▁extent	-10.9658
www	-10.9658
▁alliance	-10.9658
▁Dream	-10.9659
▁Munich	-10.9659
▁desert	-10.966
▁knew	-10.9662
hawk	-10.9663
▁Gall	-10.9671
▁register	-10.9682
ž	-10.9749
▁Amsterdam	-10.9749
▁Assistant	-10.9749
▁Benjamin	-10.9749
▁adjust	-10.9749
▁recreation	-10.9749
▁reconstruct	-10.9749
▁Iceland	-10.9749
▁Windows	-10.9749
▁vertical	-10.975
▁Phillip	-10.9751
▁analog	-10.9768
▁angle	-10.9792
▁define	-10.9804
omination	-10.9837
▁Adelaide	-10.9842
▁consequence	-10.9842
▁supplies	-10.9842
▁slope	-10.9842
▁missile	-10.9842
▁colony	-10.9842
▁inhibit	-10.9842
▁CBS	-10.9843
▁jail	-10.9843
▁emergency	-10.9843
▁Rabbi	-10.9844
▁Municipality	-10.9847
#	-10.9856
▁subsidiary	-10.9935
▁holiday	-10.9935
▁dominated	-10.9935
▁thirty	-10.9935
▁easy	-10.9936
▁Release	-10.9936
▁workshop	-10.9938
▁facing	-10.9945
▁bright	-10.9947
▁Theater	-10.9952
▁accus	-10.9964
▁dense	-10.9969
issue	-10.9996
utonomous	-11.003
▁Byzantine	-11.003
▁Digital	-11.003
▁absorb	-11.003
▁infrastructure	-11.003
▁Attorney	-11.003
▁Bristol	-11.003
▁Abbey	-11.003
▁tribute	-11.003
▁eggs	-11.0031
ennial	-11.0032
▁basin	-11.0103
▁inhabit	-11.0124
▁Mediterranean	-11.0125
▁constitute	-11.0125
▁fundamental	-11.0125
▁inducted	-11.0125
▁institute	-11.0125
▁perspective	-11.0125
▁Broadway	-11.0125
▁Mitchell	-11.0125
▁romantic	-11.0125
▁trouble	-11.0125
▁sleep	-11.0125
▁counsel	-11.0125
▁superior	-11.0125
▁throne	-11.0125
▁outdoor	-11.0125
▁Ghana	-11.0125
▁Furthermore	-11.0125
▁nurse	-11.0126
▁giant	-11.0126
▁Keith	-11.0128
▁Rangers	-11.0129
▁ruin	-11.0129
▁missed	-11.0135
▁solve	-11.0151
▁Buddhist	-11.0221
▁expensive	-11.0221
▁wrestling	-11.0221
×	-11.0221
▁Protestant	-11.0221
▁maintenance	-11.0221
▁promoting	-11.0221
▁fragment	-11.0221
▁Gabriel	-11.0221
▁chapel	-11.0221
▁examination	-11.0221
▁cattle	-11.0221
▁Source	-11.0221
▁exceed	-11.0222
▁crystal	-11.0223
▁Murray	-11.0223
solution	-11.0225
▁favorite	-11.0226
magnetic	-11.0293
α	-11.0318
▁lawsuit	-11.0318
▁Urban	-11.0318
▁snail	-11.0318
▁vector	-11.0319
▁Branch	-11.0319
▁zero	-11.0319
▁acres	-11.0321
▁Allied	-11.0322
▁exposed	-11.0324
▁shock	-11.0324
▁aggregate	-11.0416
▁Associate	-11.0416
▁adventure	-11.0416
▁advertise	-11.0416
▁corporate	-11.0416
▁hybrid	-11.0416
▁agencies	-11.0416
▁closure	-11.0416
▁excellent	-11.0416
▁Energy	-11.0416
▁Nevada	-11.0416
▁liquid	-11.0416
▁practical	-11.0416
▁Results	-11.0416
▁ritual	-11.0416
▁Clinton	-11.0416
▁external	-11.0416
▁Section	-11.0417
▁sharp	-11.0417
▁golf	-11.0418
▁carrier	-11.0418
▁patron	-11.0418
▁organize	-11.0482
▁analys	-11.0515
▁Afghanistan	-11.0515
▁Brisbane	-11.0515
▁Confederate	-11.0515
▁Nicholas	-11.0515
▁Wrestling	-11.0515
▁accurate	-11.0515
▁demolished	-11.0515
▁legislature	-11.0515
▁territories	-11.0515
▁conservation	-11.0515
▁labour	-11.0515
▁inspiration	-11.0515
▁timber	-11.0515
▁Oliver	-11.0516
▁inscription	-11.0516
▁Fisher	-11.0517
▁immun	-11.0519
▁Virgin	-11.0552
▁£1	-11.0615
▁Academic	-11.0615
▁abolished	-11.0615
▁categories	-11.0615
▁fifteen	-11.0615
▁guilty	-11.0615
▁Dakota	-11.0615
▁freight	-11.0615
▁ocean	-11.0615
▁Support	-11.0615
▁Therefore	-11.0615
▁truth	-11.0616
▁Again	-11.0616
▁loose	-11.0621
▁recognize	-11.0676
▁determin	-11.0684
dependent	-11.0694
▁Video	-11.0705
▁Bachelor	-11.0716
▁Environment	-11.0716
▁Ethiopia	-11.0716
▁Technical	-11.0716
▁Territory	-11.0716
▁grandfather	-11.0716
▁supplement	-11.0716
▁suspension	-11.0716
▁kidnap	-11.0716
▁Initially	-11.0716
▁Peninsula	-11.0716
▁Survey	-11.0716
▁Barbara	-11.0716
▁chronic	-11.0716
▁belonged	-11.0717
▁Madrid	-11.072
▁Chapel	-11.0725
operative	-11.0754
brook	-11.077
▁urge	-11.0793
Á	-11.0818
▁Jonathan	-11.0818
▁narrative	-11.0818
▁receptor	-11.0818
▁Christopher	-11.0818
▁Language	-11.0818
▁Similar	-11.0818
▁symptoms	-11.0818
▁conversion	-11.0818
▁soccer	-11.0818
▁rifle	-11.0818
▁hyper	-11.0819
▁Article	-11.0819
▁blind	-11.0819
▁Freedom	-11.0821
▁Anglo	-11.0821
course	-11.0872
▁interact	-11.0875
▁conservative	-11.0921
▁earthquake	-11.0921
▁statistics	-11.0921
▁strategic	-11.0921
▁Subsequent	-11.0921
▁encompass	-11.0921
▁interchange	-11.0921
▁recipient	-11.0921
▁comparison	-11.0921
▁gauge	-11.0921
▁Jamaica	-11.0921
▁compilation	-11.0922
▁closing	-11.0922
▁Warrior	-11.0922
▁Woman	-11.0922
▁Athens	-11.0923
▁anchor	-11.0925
▁riding	-11.0925
scribed	-11.0988
▁Phoenix	-11.1026
▁algorithm	-11.1026
▁arriving	-11.1026
▁physics	-11.1026
▁Conservation	-11.1026
▁Legacy	-11.1026
▁Baptist	-11.1026
▁diameter	-11.1026
▁tissue	-11.1027
▁Golf	-11.1028
▁Algeria	-11.1029
▁indoor	-11.1032
▁Cycl	-11.1042
language	-11.1052
▁Direct	-11.1103
Connor	-11.111
•	-11.1131
▁Caribbean	-11.1131
▁Faculty	-11.1131
▁ambassador	-11.1131
ş	-11.1131
▁simultaneous	-11.1131
▁Together	-11.1131
▁thirteen	-11.1131
▁Catherine	-11.1131
▁depression	-11.1131
▁terminus	-11.1131
▁liberal	-11.1131
▁excess	-11.1132
▁animation	-11.1132
▁bonus	-11.1132
▁worse	-11.1134
▁elde	-11.1223
▁Beijing	-11.1237
ê	-11.1237
▁Universal	-11.1237
▁accelerat	-11.1237
▁molecule	-11.1237
▁motorcycle	-11.1237
▁rhythm	-11.1237
▁Simpson	-11.1237
▁expense	-11.1237
▁ministry	-11.1237
▁sequel	-11.1237
▁siege	-11.1237
▁legacy	-11.1237
▁beauty	-11.1237
▁ignor	-11.1237
▁theatrical	-11.1237
▁afternoon	-11.1238
▁Manager	-11.1238
▁withdrew	-11.1238
▁framework	-11.1239
▁else	-11.1241
▁finger	-11.1244
front	-11.1264
▁quick	-11.132
▁Agriculture	-11.1345
▁Circuit	-11.1345
▁congregation	-11.1345
▁enterprise	-11.1345
▁escort	-11.1345
▁legislative	-11.1345
▁relegated	-11.1345
▁supplied	-11.1345
▁victories	-11.1345
▁dominant	-11.1345
▁modification	-11.1345
▁raising	-11.1345
▁removal	-11.1345
▁fossil	-11.1345
▁theoretical	-11.1345
▁insurance	-11.1345
▁Warsaw	-11.1346
▁Small	-11.1347
▁mistake	-11.1347
▁knee	-11.1347
▁Slav	-11.1372
о	-11.1453
▁Eventually	-11.1453
▁Vancouver	-11.1453
▁communist	-11.1453
▁condemn	-11.1453
▁eligible	-11.1453
▁evolved	-11.1453
▁explanation	-11.1453
▁Cultural	-11.1453
▁Richmond	-11.1453
▁cavalry	-11.1453
▁survivor	-11.1453
▁delegate	-11.1453
▁hypo	-11.1454
▁Next	-11.1455
ftermath	-11.1462
▁mandate	-11.1476
honorary	-11.149
▁advertising	-11.1563
▁efficient	-11.1563
▁Pradesh	-11.1563
▁Population	-11.1563
▁Gregory	-11.1563
▁Newcastle	-11.1563
▁academy	-11.1563
▁database	-11.1563
▁attorney	-11.1563
▁phrase	-11.1563
▁renovation	-11.1563
▁Computer	-11.1563
▁initiated	-11.1564
▁enforcement	-11.1564
▁isolated	-11.1564
▁pseudo	-11.1567
▁Bavaria	-11.1568
families	-11.1596
court	-11.1604
▁reject	-11.1607
▁Municipal	-11.1668
−	-11.1674
▁Norfolk	-11.1674
▁boundaries	-11.1674
▁coincid	-11.1674
▁widow	-11.1674
▁Dragon	-11.1674
▁Primary	-11.1674
Š	-11.1787
ا	-11.2015
[	-11.217
æ	-11.2368
Ö	-11.3244
и	-11.3375
е	-11.3509
ğ	-11.392
ð	-11.4203
μ	-11.4348
н	-11.4796
ο	-11.495
ï	-11.5106
ε	-11.5265
к	-11.559
λ	-11.5926
с	-11.6099
­	-11.6453
ν	-11.6453
Č	-11.6635
ś	-11.682
ς	-11.682
′	-11.7009
р	-11.7009
ą	-11.7201
İ	-11.7201
β	-11.7201
>	-11.7597
в	-11.7597
ř	-11.7801
·	-11.7801
л	-11.8009
“	-11.8143
т	-11.8222
ț	-11.8222
{	-11.8439
Ž	-11.8439
ा	-11.8439
ι	-11.8662
्	-11.8662
Å	-11.8889
ل	-11.8889
ý	-11.9604
ʼ	-11.9604
õ	-11.9854
τ	-11.9854
@	-11.9854
ρ	-11.9854
î	-12.011
Ø	-12.011
<	-12.0373
م	-12.0373
ő	-12.0643
Ō	-12.0921
κ	-12.0921
ر	-12.0921
ʻ	-12.0921
}	-12.1207
ə	-12.1207
ė	-12.1207
~	-12.1207
ć	-12.1247
у	-12.1501
ż	-12.1804
Ó	-12.2117
ò	-12.2117
ě	-12.2117
र	-12.2117
→	-12.2117
ن	-12.2117
đ	-12.2439
ʿ	-12.2772
Ü	-12.2772
ư	-12.3117
ē	-12.3117
π	-12.3117
न	-12.3117
σ	-12.3117
Ş	-12.3845
ơ	-12.3845
ṭ	-12.3845
ό	-12.3845
و	-12.3845
‘	-12.415
Ú	-12.4229
Ś	-12.4229
д	-12.4229
ệ	-12.4629
§	-12.4629
η	-12.4629
ω	-12.4629
ì	-12.5046
υ	-12.5046
«	-12.5481
ã	-12.5916
±	-12.5935
»	-12.5935
ễ	-12.5935
ي	-12.5935
त	-12.5935
м	-12.6412
َ	-12.6412
ạ	-12.6412
й	-12.6912
γ	-12.7438
ṣ	-12.7438
δ	-12.7438
х	-12.7438
ы	-12.7993
क	-12.7993
Æ	-12.8582
Ā	-12.8582
ň	-12.8582
س	-12.8582
ه	-12.8582
ی	-12.8582
э	-12.8582
я	-12.8582
`	-12.8582
ि	-12.8582
า	-12.8582
د	-12.9207
ù	-12.9207
ு	-12.9207
Î	-12.9207
έ	-12.9207
θ	-12.9207
ḥ	-12.9207
з	-12.9207
ị	-12.9207
े	-12.9873
ί	-12.9873
स	-12.9873
́	-12.9873
ف	-12.9873
ṇ	-12.9873
‐	-12.9873
А	-12.9873
்	-12.9873
ं	-13.0588
œ	-13.0588
ţ	-13.0588
С	-13.0588
ồ	-13.0588
б	-13.0588
ч	-13.1357
п	-13.1357
व	-13.1357
Δ	-13.1357
ت	-13.1357
û	-13.1357
י	-13.1357
द	-13.1357
ו	-13.1357
म	-13.219
中	-13.219
М	-13.219
ế	-13.219
ب	-13.219
ả	-13.219
Í	-13.219
ר	-13.219
ь	-13.3099
і	-13.3099
Þ	-13.3099
ح	-13.3099
ो	-13.3099
ộ	-13.3099
夷	-13.3099
州	-13.3099
ה	-13.3099
ज	-13.3099
ḩ	-13.3099
प	-13.3099
ת	-13.3099
ш	-13.3099
ա	-13.4099
ض	-13.4099
\	-13.4099
г	-13.4099
ל	-13.4099
ق	-13.4099
ầ	-13.4099
ב	-13.4099
ِ	-13.4099
щ	-13.4099
य	-13.4099
ी	-13.4099
ग	-13.4099
ά	-13.4099
נ	-13.4099
ท	-13.4099
ร	-13.41
Ț	-13.521
ة	-13.521
ớ	-13.521
ز	-13.521
„	-13.521
小	-13.521
வ	-13.521
大	-13.521
්	-13.646
þ	-13.646
ť	-13.646
ր	-13.646
®	-13.646
ÿ	-13.646
ψ	-13.646
ṅ	-13.646
ắ	-13.646
天	-13.646
川	-13.646
水	-13.646
^	-13.646
ħ	-13.646
ŋ	-13.646
Κ	-13.646
ж	-13.646
ع	-13.646
Μ	-13.646
Σ	-13.646
ή	-13.646
ξ	-13.646
่	-13.6461
ว	-13.6461
บ	-13.6461
ン	-13.7889
ม	-13.7889
У	-13.7889
ु	-13.7889
த	-13.7889
ி	-13.7889
平	-13.7889
À	-13.7889
ك	-13.7889
ố	-13.7889
山	-13.7889
भ	-13.7889
門	-13.7889
ע	-13.7889
ج	-13.7889
ல	-13.7889
ි	-13.7889
の	-13.7889
ъ	-13.7889
φ	-13.7889
ד	-13.7889
光	-13.7889
ְ	-13.7889
ե	-13.9556
ර	-13.9556
ා	-13.9556
イ	-13.9556
ύ	-13.9556
க	-13.9556
ු	-13.9556
書	-13.9556
ů	-13.9556
Ω	-13.9556
א	-13.9556
ى	-13.9556
ُ	-13.9556
ْ	-13.9556
ủ	-13.9556
ỹ	-13.9556
♭	-13.9556
ッ	-13.9556
ト	-13.9556
成	-13.9556
이	-13.9556
Α	-13.9556
ζ	-13.9556
گ	-13.9556
ன	-13.9556
ம	-13.9556
ය	-13.9556
太	-13.9556
花	-13.9556
ா	-13.9556
Τ	-13.9556
О	-13.9556
च	-13.9556
া	-13.9556
아	-13.9556
ब	-13.9556
ˁ	-13.9556
ַ	-13.9556
ง	-13.9556
น	-13.9556
̣	-14.1556
ම	-14.1556
ड	-14.1556
ව	-14.1556
二	-14.1556
ꞌ	-14.1556
ũ	-14.1556
ւ	-14.1556
آ	-14.1556
ர	-14.1556
ெ	-14.1556
ั	-14.1556
ờ	-14.1556
。	-14.1556
ビ	-14.1556
下	-14.1556
学	-14.1556
И	-14.1556
≥	-14.1556
安	-14.1556
ش	-14.1556
ल	-14.1556
子	-14.1556
新	-14.1556
明	-14.1556
В	-14.1556
്	-14.1556
道	-14.1556
나	-14.1556
Г	-14.1556
Н	-14.1556
پ	-14.1556
ส	-14.1556
合	-14.1556
ष	-14.1556
文	-14.1556
ट	-14.1556
ก	-14.1556
ิ	-14.1556
さ	-14.4055
ත	-14.4056
ප	-14.4056
ャ	-14.4056
分	-14.4056
⋅	-14.4056
チ	-14.4056
Т	-14.4056
た	-14.4056
ア	-14.4056
シ	-14.4056
ľ	-14.4056
Π	-14.4056
ս	-14.4056
ய	-14.4056
න	-14.4056
東	-14.4056
¡	-14.4056
重	-14.4056
Â	-14.4056
Ñ	-14.4056
ɪ	-14.4056
Ο	-14.4056
І	-14.4056
Б	-14.4056
П	-14.4056
ո	-14.4056
ק	-14.4056
श	-14.4056
ू	-14.4056
४	-14.4056
ค	-14.4056
ấ	-14.4056
ậ	-14.4056
ề	-14.4056
ữ	-14.4056
ự	-14.4056
›	-14.4056
★	-14.4056
ち	-14.4056
リ	-14.4056
ー	-14.4056
世	-14.4056
保	-14.4056
南	-14.4056
拳	-14.4056
行	-14.4056
ĭ	-14.4056
̀	-14.4056
‹	-14.4056
サ	-14.4056
島	-14.4056
景	-14.4056
石	-14.4056
문	-14.4056
Ε	-14.4056
ф	-14.4056
ש	-14.4056
خ	-14.4056
ை	-14.4056
全	-14.4056
國	-14.4056
心	-14.4056
武	-14.4056
리	-14.4056
도	-14.4056
ʔ	-14.4056
Β	-14.4056
Е	-14.4056
מ	-14.4056
ئ	-14.4056
ध	-14.4056
ച	-14.4056
西	-14.4056
Ф	-14.4056
ह	-14.4056
ָ	-14.4056
ุ	-14.7389
ˈ	-14.7389
ス	-14.7389
ル	-14.7389
ロ	-14.7389
報	-14.7389
章	-14.7389
航	-14.7389
Ν	-14.7389
ण	-14.7389
ⲃ	-14.7389
市	-14.7389
情	-14.7389
李	-14.7389
野	-14.7389
ǁ	-14.7389
ḍ	-14.7389
는	-14.7389
Ő	-14.7389
ű	-14.7389
ǃ	-14.7389
ʾ	-14.7389
ː	-14.7389
χ	-14.7389
З	-14.7389
ю	-14.7389
ի	-14.7389
ն	-14.7389
ח	-14.7389
ן	-14.7389
ط	-14.7389
ު	-14.7389
ः	-14.7389
आ	-14.7389
उ	-14.7389
थ	-14.7389
দ	-14.7389
ਸ	-14.7389
ட	-14.7389
ල	-14.7389
ස	-14.7389
ด	-14.7389
ย	-14.7389
ა	-14.7389
Ṣ	-14.7389
ặ	-14.7389
ử	-14.7389
≈	-14.7389
ⲁ	-14.7389
》	-14.7389
い	-14.7389
が	-14.7389
ど	-14.7389
ば	-14.7389
び	-14.7389
り	-14.7389
ク	-14.7389
・	-14.7389
久	-14.7389
仁	-14.7389
信	-14.7389
夫	-14.7389
定	-14.7389
得	-14.7389
德	-14.7389
有	-14.7389
本	-14.7389
永	-14.7389
海	-14.7389
漢	-14.7389
田	-14.7389
盧	-14.7389
省	-14.7389
社	-14.7389
空	-14.7389
見	-14.7389
郎	-14.7389
青	-14.7389
香	-14.7389
단	-14.7389
당	-14.7389
방	-14.7389
사	-14.7389
스	-14.7389
帝	-14.7389
ď	-14.7389
ɹ	-14.7389
次	-14.7389
제	-14.7389
지	-14.7389
Ə	-14.7389
ɛ	-14.7389
כ	-14.7389
ौ	-14.7389
ব	-14.7389
ச	-14.7389
园	-14.7389
士	-14.7389
夏	-14.7389
宫	-14.7389
江	-14.7389
王	-14.7389
矢	-14.7389
高	-14.7389
우	-14.7389
‧	-14.7389
徐	-14.7389
ช	-14.7389
お	-14.7389
に	-14.7389
用	-14.7389
神	-14.7389
部	-14.7389
อ	-14.7389
정	-14.7389
จ	-14.7389
号	-14.7389
符	-14.7389
馬	-14.7389
แ	-14.7389
ׁ	-14.7389
ּ	-14.7389
ล	-14.7389
ห	-14.7389
ต	-14.7389
も	-15.2389
ず	-15.2389
̪	-15.2389
ද	-15.2389
ෙ	-15.2389
报	-15.2389
督	-15.2389
ರ	-15.2389
್	-15.2389
ේ	-15.2389
ⲣ	-15.2389
れ	-15.2389
テ	-15.2389
マ	-15.2389
學	-15.2389
浦	-15.2389
軍	-15.2389
集	-15.2389
年	-15.2389
ベ	-15.2389
ュ	-15.2389
常	-15.2389
월	-15.2389
ǝ	-15.2389
ỗ	-15.2389
Ý	-15.2389
ġ	-15.2389
ĩ	-15.2389
ų	-15.2389
ŷ	-15.2389
ɒ	-15.2389
ˇ	-15.2389
ˋ	-15.2389
Ц	-15.2389
ү	-15.2389
Վ	-15.2389
Ւ	-15.2389
գ	-15.2389
ک	-15.2389
ں	-15.2389
ާ	-15.2389
ँ	-15.2389
ै	-15.2389
হ	-15.2389
ள	-15.2389
ം	-15.2389
ධ	-15.2389
ශ	-15.2389
้	-15.2389
ი	-15.2389
ይ	-15.2389
ጨ	-15.2389
ḗ	-15.2389
ẫ	-15.2389
ằ	-15.2389
ợ	-15.2389
ἰ	-15.2389
ὀ	-15.2389
‰	-15.2389
₩	-15.2389
↑	-15.2389
⇒	-15.2389
∈	-15.2389
∞	-15.2389
∨	-15.2389
☆	-15.2389
♥	-15.2389
➔	-15.2389
う	-15.2389
け	-15.2389
こ	-15.2389
せ	-15.2389
て	-15.2389
と	-15.2389
な	-15.2389
る	-15.2389
を	-15.2389
カ	-15.2389
ダ	-15.2389
ハ	-15.2389
不	-15.2389
事	-15.2389
亜	-15.2389
侍	-15.2389
公	-15.2389
兵	-15.2389
北	-15.2389
区	-15.2389
千	-15.2389
博	-15.2389
县	-15.2389
向	-15.2389
品	-15.2389
城	-15.2389
宋	-15.2389
寶	-15.2389
寺	-15.2389
工	-15.2389
已	-15.2389
師	-15.2389
戰	-15.2389
振	-15.2389
方	-15.2389
族	-15.2389
時	-15.2389
月	-15.2389
柏	-15.2389
榮	-15.2389
樂	-15.2389
殺	-15.2389
泉	-15.2389
法	-15.2389
片	-15.2389
相	-15.2389
磊	-15.2389
移	-15.2389
立	-15.2389
給	-15.2389
義	-15.2389
翼	-15.2389
臨	-15.2389
良	-15.2389
華	-15.2389
術	-15.2389
語	-15.2389
谷	-15.2389
豹	-15.2389
趙	-15.2389
郡	-15.2389
陽	-15.2389
音	-15.2389
順	-15.2389
饅	-15.2389
麦	-15.2389
黒	-15.2389
드	-15.2389
라	-15.2389
무	-15.2389
버	-15.2389
상	-15.2389
새	-15.2389
의	-15.2389
자	-15.2389
학	-15.2389
Œ	-15.2389
√	-15.2389
∴	-15.2389
ま	-15.2389
京	-15.2389
何	-15.2389
元	-15.2389
單	-15.2389
老	-15.2389
脩	-15.2389
荒	-15.2389
萬	-15.2389
貴	-15.2389
邪	-15.2389
陳	-15.2389
대	-15.2389
역	-15.2389
영	-15.2389
오	-15.2389
원	-15.2389
Д	-15.2389
Ч	-15.2389
ص	-15.2389
ނ	-15.2389
ކ	-15.2389
ং	-15.2389
ন	-15.2389
ু	-15.2389
ে	-15.2389
ৰ	-15.2389
ਪ	-15.2389
క	-15.2389
ට	-15.2389
ል	-15.2389
ῶ	-15.2389
之	-15.2389
代	-15.2389
參	-15.2389
哥	-15.2389
四	-15.2389
地	-15.2389
姚	-15.2389
尚	-15.2389
張	-15.2389
框	-15.2389
猛	-15.2389
獅	-15.2389
百	-15.2389
里	-15.2389
長	-15.2389
여	-15.2389
최	-15.2389
치	-15.2389
타	-15.2389
환	-15.2389
ǵ	-15.2389
五	-15.2389
昭	-15.2389
桃	-15.2389
秦	-15.2389
鳥	-15.2389
ɾ	-15.2389
Ι	-15.2389
ё	-15.2389
জ	-15.2389
ப	-15.2389
ത	-15.2389
滚	-15.2389
謀	-15.2389
조	-15.2389
한	-15.2389
宝	-15.2389
後	-15.2389
ป	-15.2389
번	-16.2277
訳	-16.2278
藤	-16.2279
聖	-16.228
約	-16.2281
界	-16.2282
瑟	-16.2283
牡	-16.2284
津	-16.2285
比	-16.2286
極	-16.2287
棋	-16.2288
染	-16.2289
教	-16.229
換	-16.2291
授	-16.2292
必	-16.2293
将	-16.2294
同	-16.2295
利	-16.2296
個	-16.2297
交	-16.2298
丹	-16.2299
ラ	-16.23
ブ	-16.2301
ズ	-16.2302
や	-16.2303
Ⲡ	-16.2304
■	-16.2305
₹	-16.2306
ῥ	-16.2307
ὐ	-16.2308
ἀ	-16.2309
ẵ	-16.231
Ṭ	-16.2311
ვ	-16.2312
เ	-16.2313
ศ	-16.2314
හ	-16.2315
අ	-16.2316
െ	-16.2317
ു	-16.2318
ര	-16.2319
പ	-16.232
ृ	-16.2321
ळ	-16.2322
ऋ	-16.2323
इ	-16.2324
ء	-16.2325
յ	-16.2326
Ե	-16.2327
ў	-16.2328
ћ	-16.2329
ώ	-16.233
Ψ	-16.2331
̊	-16.2332
˩	-16.2333
˥	-16.2334
ɐ	-16.2335
Ř	-16.2336
육	-16.2337
原	-16.2338
ノ	-16.2339
デ	-16.234
《	-16.2341
●	-16.2342
ํ	-16.2343
ന	-16.2344
ञ	-16.2345
ّ	-16.2346
פ	-16.2347
ם	-16.2348
Մ	-16.2349
ї	-16.235
Л	-16.2351
Θ	-16.2352
Γ	-16.2353
ǂ	-16.2354
Ţ	-16.2355
¿	-16.2356
¢	-16.2357
∗	-16.2358
ற	-16.2359
अ	-16.236
Χ	-16.2361
ǫ	-16.2362
ꜣ	-16.2363
₱	-16.2364
Ḩ	-16.2365
ј	-16.2366
ǎ	-16.2367
Ū	-16.2368
ŏ	-16.2369
ṃ	-16.237
Ć	-16.2371
Р	-16.2372
ņ	-16.2373
ӏ	-16.2374
ц	-16.2375
‡	-16.2376
¥	-16.2377
Ä	-16.2378
Ș	-16.2379
†	-16.238
Ż	-16.2381
Ḥ	-16.2382
ź	-16.2383
Ç	-16.2384
⁄	-16.2385
Ł	-16.2386
Đ	-16.2387
、	-16.2388
հ	-16.2388
ֲ	-16.2388
升	-16.2388
ę	-16.2388
ɫ	-16.2389
Λ	-16.2389
բ	-16.2389
տ	-16.2389
ಕ	-16.2389
ಗ	-16.2389
ತ	-16.2389
ⲏ	-16.2389
ⲓ	-16.2389
「	-16.2389
わ	-16.2389
オ	-16.2389
ピ	-16.2389
フ	-16.2389
业	-16.2389
动	-16.2389
单	-16.2389
基	-16.2389
奪	-16.2389
少	-16.2389
屏	-16.2389
席	-16.2389
戸	-16.2389
挑	-16.2389
日	-16.2389
标	-16.2389
港	-16.2389
画	-16.2389
第	-16.2389
Ğ	-16.2389
Ј	-16.2389
շ	-16.2389
ழ	-16.2389
സ	-16.2389
Ἄ	-16.2389
Ⲁ	-16.2389
任	-16.2389
实	-16.2389
庆	-16.2389
氏	-16.2389
祿	-16.2389
验	-16.2389
비	-16.2389
Õ	-16.2389
ƒ	-16.2389
ʹ	-16.2389
Ш	-16.2389
Ḍ	-16.2389
⊗	-16.2389
潘	-16.2389
竹	-16.2389
菊	-16.2389
외	-16.2389
𖬀	-16.2389
Ã	-16.2389
È	-16.2389
Ë	-16.2389
Ð	-16.2389
ċ	-16.2389
Ī	-16.2389
ĺ	-16.2389
Ľ	-16.2389
ǐ	-16.2389
ǣ	-16.2389
ǹ	-16.2389
ȟ	-16.2389
ɑ	-16.2389
ɣ	-16.2389
ʽ	-16.2389
ˊ	-16.2389
̧	-16.2389
̯	-16.2389
͡	-16.2389
Η	-16.2389
Ρ	-16.2389
ϣ	-16.2389
ϥ	-16.2389
К	-16.2389
Ю	-16.2389
Қ	-16.2389
Ҳ	-16.2389
ӯ	-16.2389
Է	-16.2389
Ո	-16.2389
դ	-16.2389
է	-16.2389
կ	-16.2389
ղ	-16.2389
ց	-16.2389
փ	-16.2389
ֹ	-16.2389
ג	-16.2389
ט	-16.2389
צ	-16.2389
أ	-16.2389
ث	-16.2389
ذ	-16.2389
غ	-16.2389
ٍ	-16.2389
ڠ	-16.2389
ۋ	-16.2389
ے	-16.2389
۠	-16.2389
ރ	-16.2389
ދ	-16.2389
ތ	-16.2389
ޫ	-16.2389
ई	-16.2389
ऊ	-16.2389
ऌ	-16.2389
ए	-16.2389
ओ	-16.2389
ख	-16.2389
ङ	-16.2389
ऽ	-16.2389
চ	-16.2389
ঞ	-16.2389
ট	-16.2389
ণ	-16.2389
ম	-16.2389
য	-16.2389
শ	-16.2389
়	-16.2389
ਘ	-16.2389
ਰ	-16.2389
ਲ	-16.2389
ਾ	-16.2389
ਿ	-16.2389
ੰ	-16.2389
ચ	-16.2389
ந	-16.2389
ூ	-16.2389
ொ	-16.2389
అ	-16.2389
ర	-16.2389
ಪ	-16.2389
ಯ	-16.2389
ಳ	-16.2389
ವ	-16.2389
ಿ	-16.2389
ು	-16.2389
ഗ	-16.2389
ദ	-16.2389
മ	-16.2389
വ	-16.2389
േ	-16.2389
ං	-16.2389
ක	-16.2389
ග	-16.2389
ජ	-16.2389
ණ	-16.2389
ෂ	-16.2389
ณ	-16.2389
ภ	-16.2389
ษ	-16.2389
ู	-16.2389
ไ	-16.2389
ზ	-16.2389
რ	-16.2389
ს	-16.2389
ჯ	-16.2389
ላ	-16.2389
ራ	-16.2389
ሳ	-16.2389
ነ	-16.2389
ን	-16.2389
ኣ	-16.2389
ገ	-16.2389
ḵ	-16.2389
ḷ	-16.2389
ḿ	-16.2389
ṉ	-16.2389
ṫ	-16.2389
ṯ	-16.2389
Ẋ	-16.2389
ẓ	-16.2389
ẩ	-16.2389
ể	-16.2389
ọ	-16.2389
ụ	-16.2389
ứ	-16.2389
ἴ	-16.2389
Ἰ	-16.2389
ὅ	-16.2389
Ὄ	-16.2389
ὴ	-16.2389
ὸ	-16.2389
ῆ	-16.2389
‒	-16.2389
―	-16.2389
‚	-16.2389
※	-16.2389
∎	-16.2389
∘	-16.2389
∼	-16.2389
≠	-16.2389
≡	-16.2389
≤	-16.2389
─	-16.2389
☯	-16.2389
♠	-16.2389
♪	-16.2389
✓	-16.2389
ⲉ	-16.2389
ⲙ	-16.2389
ⲥ	-16.2389
ⲱ	-16.2389
」	-16.2389
【	-16.2389
】	-16.2389
あ	-16.2389
し	-16.2389
す	-16.2389
そ	-16.2389
ぞ	-16.2389
ふ	-16.2389
へ	-16.2389
み	-16.2389
ょ	-16.2389
ろ	-16.2389
ィ	-16.2389
エ	-16.2389
ギ	-16.2389
ジ	-16.2389
セ	-16.2389
タ	-16.2389
ツ	-16.2389
ナ	-16.2389
パ	-16.2389
プ	-16.2389
ホ	-16.2389
ボ	-16.2389
ミ	-16.2389
ヤ	-16.2389
ョ	-16.2389
ヨ	-16.2389
レ	-16.2389
ㄍ	-16.2389
ㄖ	-16.2389
ㄛ	-16.2389
ㄨ	-16.2389
ㄩ	-16.2389
一	-16.2389
三	-16.2389
上	-16.2389
丸	-16.2389
九	-16.2389
书	-16.2389
乾	-16.2389
云	-16.2389
亭	-16.2389
人	-16.2389
什	-16.2389
仇	-16.2389
仔	-16.2389
仲	-16.2389
伏	-16.2389
位	-16.2389
住	-16.2389
佑	-16.2389
佳	-16.2389
俊	-16.2389
倫	-16.2389
倭	-16.2389
傳	-16.2389
僧	-16.2389
億	-16.2389
兆	-16.2389
先	-16.2389
冀	-16.2389
冷	-16.2389
凉	-16.2389
凡	-16.2389
刀	-16.2389
別	-16.2389
剌	-16.2389
劃	-16.2389
劉	-16.2389
力	-16.2389
加	-16.2389
勇	-16.2389
勒	-16.2389
化	-16.2389
卐	-16.2389
去	-16.2389
又	-16.2389
及	-16.2389
司	-16.2389
吴	-16.2389
和	-16.2389
唱	-16.2389
商	-16.2389
喀	-16.2389
喜	-16.2389
团	-16.2389
図	-16.2389
圀	-16.2389
團	-16.2389
圜	-16.2389
土	-16.2389
培	-16.2389
堀	-16.2389
塔	-16.2389
声	-16.2389
处	-16.2389
多	-16.2389
奉	-16.2389
奖	-16.2389
娥	-16.2389
字	-16.2389
孟	-16.2389
宅	-16.2389
宏	-16.2389
宜	-16.2389
客	-16.2389
富	-16.2389
寧	-16.2389
寿	-16.2389
專	-16.2389
尸	-16.2389
居	-16.2389
岡	-16.2389
岭	-16.2389
峰	-16.2389
峴	-16.2389
左	-16.2389
巴	-16.2389
帯	-16.2389
帳	-16.2389
広	-16.2389
库	-16.2389
庭	-16.2389
廬	-16.2389
建	-16.2389
式	-16.2389
录	-16.2389
往	-16.2389
復	-16.2389
徵	-16.2389
徽	-16.2389
忠	-16.2389
怒	-16.2389
懿	-16.2389
戀	-16.2389
我	-16.2389
戲	-16.2389
戶	-16.2389
手	-16.2389
才	-16.2389
技	-16.2389
抜	-16.2389
拉	-16.2389
揮	-16.2389
政	-16.2389
敏	-16.2389
敵	-16.2389
斎	-16.2389
斬	-16.2389
斷	-16.2389
易	-16.2389
星	-16.2389
春	-16.2389
晴	-16.2389
曲	-16.2389
望	-16.2389
朝	-16.2389
木	-16.2389
术	-16.2389
朵	-16.2389
村	-16.2389
杜	-16.2389
杞	-16.2389
杰	-16.2389
极	-16.2389
架	-16.2389
柳	-16.2389
核	-16.2389
根	-16.2389
楊	-16.2389
楚	-16.2389
榎	-16.2389
標	-16.2389
樹	-16.2389
機	-16.2389
死	-16.2389
殿	-16.2389
母	-16.2389
汜	-16.2389
沙	-16.2389
治	-16.2389
注	-16.2389
洋	-16.2389
浙	-16.2389
浩	-16.2389
浮	-16.2389
涼	-16.2389
淮	-16.2389
淵	-16.2389
温	-16.2389
滄	-16.2389
满	-16.2389
濤	-16.2389
火	-16.2389
灵	-16.2389
炭	-16.2389
烈	-16.2389
煮	-16.2389
爭	-16.2389
牛	-16.2389
物	-16.2389
珍	-16.2389
琅	-16.2389
琵	-16.2389
琶	-16.2389
璉	-16.2389
生	-16.2389
男	-16.2389
町	-16.2389
疏	-16.2389
疵	-16.2389
登	-16.2389
皇	-16.2389
皮	-16.2389
盘	-16.2389
盛	-16.2389
直	-16.2389
眞	-16.2389
真	-16.2389
祭	-16.2389
禽	-16.2389
禿	-16.2389
科	-16.2389
秒	-16.2389
稚	-16.2389
童	-16.2389
策	-16.2389
築	-16.2389
类	-16.2389
紅	-16.2389
經	-16.2389
网	-16.2389
美	-16.2389
羽	-16.2389
翔	-16.2389
聲	-16.2389
肉	-16.2389
脉	-16.2389
脳	-16.2389
臣	-16.2389
與	-16.2389
舒	-16.2389
舟	-16.2389
船	-16.2389
茂	-16.2389
葉	-16.2389
葵	-16.2389
蒸	-16.2389
蕎	-16.2389
藍	-16.2389
虎	-16.2389
號	-16.2389
虹	-16.2389
蠢	-16.2389
街	-16.2389
被	-16.2389
裕	-16.2389
裴	-16.2389
褔	-16.2389
襄	-16.2389
計	-16.2389
記	-16.2389
詩	-16.2389
詹	-16.2389
譜	-16.2389
话	-16.2389
豐	-16.2389
貘	-16.2389
貞	-16.2389
賊	-16.2389
賢	-16.2389
賦	-16.2389
贊	-16.2389
货	-16.2389
踏	-16.2389
辭	-16.2389
辯	-16.2389
辰	-16.2389
農	-16.2389
通	-16.2389
進	-16.2389
遇	-16.2389
遭	-16.2389
邑	-16.2389
那	-16.2389
郝	-16.2389
都	-16.2389
鄉	-16.2389
鄭	-16.2389
金	-16.2389
針	-16.2389
釣	-16.2389
銀	-16.2389
鋼	-16.2389
鑑	-16.2389
開	-16.2389
閻	-16.2389
阜	-16.2389
降	-16.2389
限	-16.2389
院	-16.2389
隊	-16.2389
障	-16.2389
雅	-16.2389
雪	-16.2389
雲	-16.2389
韻	-16.2389
頌	-16.2389
領	-16.2389
頭	-16.2389
餅	-16.2389
饼	-16.2389
首	-16.2389
駿	-16.2389
马	-16.2389
鬼	-16.2389
魚	-16.2389
鮮	-16.2389
鱷	-16.2389
鶴	-16.2389
鸞	-16.2389
麗	-16.2389
麺	-16.2389
黄	-16.2389
같	-16.2389
것	-16.2389
공	-16.2389
과	-16.2389
궁	-16.2389
권	-16.2389
기	-16.2389
눈	-16.2389
뉴	-16.2389
돌	-16.2389
동	-16.2389
들	-16.2389
래	-16.2389
랜	-16.2389
량	-16.2389
레	-16.2389
련	-16.2389
롱	-16.2389
류	-16.2389
만	-16.2389
말	-16.2389
목	-16.2389
미	-16.2389
보	-16.2389
복	-16.2389
붙	-16.2389
빈	-16.2389
빛	-16.2389
서	-16.2389
선	-16.2389
수	-16.2389
순	-16.2389
양	-16.2389
어	-16.2389
운	-16.2389
울	-16.2389
웃	-16.2389
유	-16.2389
은	-16.2389
장	-16.2389
전	-16.2389
절	-16.2389
좋	-16.2389
청	-16.2389
틱	-16.2389
파	-16.2389
팡	-16.2389
플	-16.2389
피	-16.2389
헌	-16.2389
회	-16.2389
훈	-16.2389
희	-16.2389
𖬶	-16.2389
ļ	-16.2389
ǒ	-16.2389
ɞ	-16.2389
Я	-16.2389
ባ	-16.2389
አ	-16.2389
Ḫ	-16.2389
ỳ	-16.2389
ὡ	-16.2389
か	-16.2389
ㄅ	-16.2389
ㄠ	-16.2389
乃	-16.2389
井	-16.2389
亳	-16.2389
伯	-16.2389
健	-16.2389
兗	-16.2389
壽	-16.2389
奇	-16.2389
嬪	-16.2389
崇	-16.2389
弋	-16.2389
憲	-16.2389
映	-16.2389
束	-16.2389
栗	-16.2389
毕	-16.2389
淘	-16.2389
湘	-16.2389
潁	-16.2389
玉	-16.2389
甘	-16.2389
白	-16.2389
秀	-16.2389
綿	-16.2389
耿	-16.2389
芦	-16.2389
范	-16.2389
营	-16.2389
萨	-16.2389
蒲	-16.2389
蔡	-16.2389
蘭	-16.2389
蚣	-16.2389
訓	-16.2389
諸	-16.2389
謙	-16.2389
郤	-16.2389
陝	-16.2389
鵩	-16.2389
구	-16.2389
김	-16.2389
내	-16.2389
성	-16.2389
천	-16.2389
충	-16.2389
Ġ	-16.2389
ȝ	-16.2389
ɔ	-16.2389
ʃ	-16.2389
ʊ	-16.2389
ʌ	-16.2389
Х	-16.2389
ә	-16.2389
Ա	-16.2389
ס	-16.2389
ފ	-16.2389
ލ	-16.2389
ަ	-16.2389
ެ	-16.2389
ޮ	-16.2389
ঘ	-16.2389
ত	-16.2389
প	-16.2389
ল	-16.2389
ি	-16.2389
ী	-16.2389
ূ	-16.2389
ো	-16.2389
্	-16.2389
ਖ	-16.2389
ਨ	-16.2389
ੁ	-16.2389
ੇ	-16.2389
அ	-16.2389
ஸ	-16.2389
్	-16.2389
ญ	-16.2389
ึ	-16.2389
โ	-16.2389
๋	-16.2389
ም	-16.2389
ግ	-16.2389
ጹ	-16.2389
ጽ	-16.2389
ῖ	-16.2389
⊂	-16.2389
キ	-16.2389
东	-16.2389
主	-16.2389
也	-16.2389
了	-16.2389
于	-16.2389
他	-16.2389
侯	-16.2389
兒	-16.2389
命	-16.2389
在	-16.2389
女	-16.2389
季	-16.2389
宗	-16.2389
巳	-16.2389
幹	-16.2389
強	-16.2389
惡	-16.2389
房	-16.2389
拜	-16.2389
指	-16.2389
撒	-16.2389
朱	-16.2389
杨	-16.2389
果	-16.2389
槻	-16.2389
歷	-16.2389
民	-16.2389
泣	-16.2389
洩	-16.2389
渾	-16.2389
潮	-16.2389
然	-16.2389
玆	-16.2389
的	-16.2389
睡	-16.2389
絲	-16.2389
總	-16.2389
维	-16.2389
耳	-16.2389
胡	-16.2389
自	-16.2389
英	-16.2389
薬	-16.2389
蘇	-16.2389
蜈	-16.2389
血	-16.2389
谈	-16.2389
路	-16.2389
輔	-16.2389
迷	-16.2389
逝	-16.2389
釧	-16.2389
长	-16.2389
雙	-16.2389
饮	-16.2389
魏	-16.2389
鸡	-16.2389
黃	-16.2389
黎	-16.2389
국	-16.2389
근	-16.2389
니	-16.2389
다	-16.2389
민	-16.2389
산	-16.2389
일	-16.2389
있	-16.2389
코	-16.2389
호	-16.2389
황	-16.2389
Φ	-16.2389
ڑ	-16.2389
は	-16.2389
儀	-16.2389
势	-16.2389
延	-16.2389
悪	-16.2389
暦	-16.2389
様	-16.2389
说	-16.2389
£	-16.2389
ִ	-16.2389
ֽ	-16.2389
ہ	-16.2389
ฒ	-16.2389
ถ	-16.2389
ะ	-16.2389
์	-16.2389
恨	-16.2389
輩	-16.2389
