[PAD]	0
[UNK]	0
[BOS]	0
[EOS]	0
[SEP]	0
[CLS]	0
[MASK]	0
▁the	-3.0849
,	-3.23589
.	-3.26222
▁of	-3.6822
▁and	-3.83273
s	-3.84128
▁in	-3.95072
▁a	-4.167
▁to	-4.18502
▁was	-4.66089
▁"	-4.82123
-	-4.87591
▁The	-4.93746
▁is	-4.94499
▁for	-5.09015
'	-5.11978
▁on	-5.18659
"	-5.22387
▁as	-5.23261
▁with	-5.24512
▁by	-5.28556
▁(	-5.40622
▁	-5.44909
ing	-5.4561
▁that	-5.46359
▁at	-5.54875
▁from	-5.58498
▁his	-5.69343
ed	-5.72475
▁In	-5.73758
)	-5.86308
▁he	-5.86923
▁an	-5.87125
▁were	-5.99211
▁He	-6.10663
▁are	-6.11247
▁which	-6.12229
▁it	-6.16604
▁be	-6.23469
e	-6.24142
▁had	-6.29379
▁also	-6.30875
▁has	-6.36287
▁or	-6.38807
▁first	-6.39885
:	-6.41106
▁A	-6.43617
▁It	-6.5093
d	-6.51746
▁who	-6.53647
▁their	-6.54745
a	-6.57398
ly	-6.58135
y	-6.62051
▁not	-6.62415
▁its	-6.63651
▁one	-6.63718
▁but	-6.67243
",	-6.67681
▁her	-6.69044
▁have	-6.70943
▁this	-6.72564
▁two	-6.7431
th	-6.75604
▁been	-6.76482
er	-6.79678
;	-6.79773
t	-6.80515
".	-6.86197
▁after	-6.90149
al	-6.96842
▁other	-6.98488
n	-7.01145
▁time	-7.02807
),	-7.0333
▁into	-7.03981
▁they	-7.04149
▁she	-7.0993
).	-7.1003
▁over	-7.10663
▁On	-7.12711
i	-7.12974
▁all	-7.13038
o	-7.13088
S	-7.14528
▁when	-7.17239
▁more	-7.17965
▁would	-7.18799
▁New	-7.20785
in	-7.20976
▁years	-7.21227
▁I	-7.22537
▁during	-7.23347
▁where	-7.25128
▁This	-7.25957
▁new	-7.26565
▁between	-7.27136
▁only	-7.29624
▁up	-7.29847
es	-7.2999
▁out	-7.32938
The	-7.33405
▁him	-7.34641
▁made	-7.35688
▁season	-7.36733
▁three	-7.3712
▁can	-7.37395
▁under	-7.37444
▁most	-7.39349
▁used	-7.39606
▁later	-7.3968
▁S	-7.40336
▁She	-7.41943
▁United	-7.4225
▁University	-7.42651
▁such	-7.42859
▁part	-7.42961
▁year	-7.43087
▁team	-7.43679
▁about	-7.43814
▁became	-7.44748
▁then	-7.45244
▁than	-7.45542
▁known	-7.46065
▁de	-7.4821
▁American	-7.50423
/	-7.50616
r	-7.51573
▁some	-7.5181
▁U	-7.52221
▁being	-7.5238
▁B	-7.53483
▁including	-7.53581
▁well	-7.53635
▁there	-7.54208
an	-7.54719
A	-7.55522
l	-7.5567
▁film	-7.56217
▁second	-7.57384
▁After	-7.57865
▁against	-7.57937
▁through	-7.58097
▁many	-7.58666
▁D	-7.59079
▁1	-7.59142
m	-7.60493
▁people	-7.61134
▁before	-7.62841
▁family	-7.63509
▁school	-7.63826
▁while	-7.63875
▁work	-7.64229
▁until	-7.65498
▁As	-7.66642
▁both	-7.66722
▁World	-7.67082
▁E	-7.67506
▁name	-7.68429
▁them	-7.697
▁National	-7.70265
▁album	-7.71372
▁3	-7.71673
▁number	-7.71683
▁played	-7.71986
▁no	-7.72343
▁–	-7.72681
▁four	-7.72899
en	-7.72946
on	-7.73163
man	-7.73312
▁area	-7.73361
▁States	-7.73758
▁life	-7.73858
▁won	-7.73903
st	-7.75047
▁2	-7.75054
or	-7.75107
c	-7.75131
B	-7.76132
▁may	-7.76466
▁released	-7.76642
▁C	-7.76767
▁May	-7.76823
k	-7.78505
C	-7.79381
▁state	-7.79438
."	-7.80055
▁career	-7.80481
▁series	-7.81929
▁several	-7.822
▁following	-7.82248
▁March	-7.82661
g	-7.83484
▁same	-7.83682
▁School	-7.83824
▁August	-7.8412
▁called	-7.84207
▁September	-7.84759
▁re	-7.85592
▁so	-7.86294
▁early	-7.86378
▁4	-7.86578
▁will	-7.86736
▁St	-7.8693
▁October	-7.87077
re	-7.87095
▁June	-7.87437
▁M	-7.87902
▁His	-7.87928
▁War	-7.88061
▁city	-7.88133
▁found	-7.88154
▁April	-7.8843
▁At	-7.88778
▁January	-7.8909
▁T	-7.8917
▁P	-7.89508
▁South	-7.8957
▁July	-7.90276
ic	-7.91319
▁since	-7.9166
▁began	-7.91674
▁G	-7.91945
le	-7.91996
▁use	-7.92222
▁November	-7.92292
▁They	-7.93188
▁end	-7.93632
us	-7.94466
▁these	-7.94849
▁John	-7.96006
▁December	-7.96093
▁group	-7.96475
▁K	-7.96767
▁F	-7.9732
D	-7.97684
▁game	-7.97724
▁held	-7.97864
▁R	-7.98403
▁5	-7.99544
▁government	-7.99628
▁named	-7.99902
▁former	-8.00015
▁County	-8.00208
▁located	-8.00436
▁high	-8.00466
▁large	-8.00511
▁home	-8.00796
▁took	-8.01182
’	-8.01342
▁population	-8.01813
▁North	-8.02217
the	-8.02297
▁place	-8.02367
▁15	-8.02733
▁York	-8.02951
▁O	-8.03053
▁'	-8.03445
▁each	-8.03553
▁age	-8.03973
I	-8.04124
▁February	-8.04151
▁station	-8.04158
▁served	-8.04349
▁There	-8.04354
▁music	-8.0466
▁member	-8.04874
▁British	-8.04924
▁local	-8.05597
▁company	-8.06295
▁City	-8.06686
u	-8.07111
▁League	-8.07464
▁2010	-8.07586
ers	-8.0776
▁any	-8.0817
to	-8.09086
▁public	-8.09624
▁back	-8.09795
–	-8.10084
▁16	-8.10499
▁Dur	-8.10644
▁around	-8.10839
▁could	-8.10964
p	-8.11032
▁10	-8.11035
b	-8.11288
▁For	-8.11313
▁did	-8.11678
▁born	-8.11684
▁received	-8.1172
▁due	-8.12677
▁single	-8.12908
ar	-8.13348
P	-8.13596
▁6	-8.138
▁However	-8.14077
▁species	-8.14671
▁century	-8.14872
▁State	-8.152
▁include	-8.15217
▁long	-8.15731
▁song	-8.15903
▁W	-8.16121
▁built	-8.16141
▁system	-8.16876
▁said	-8.176
E	-8.18005
▁left	-8.18156
▁last	-8.194
▁line	-8.19428
▁now	-8.19648
▁band	-8.19824
▁club	-8.20003
▁History	-8.20075
born	-8.20079
▁published	-8.2009
▁20	-8.20226
▁members	-8.20337
▁2012	-8.20625
▁along	-8.21334
▁died	-8.21651
▁building	-8.21681
2	-8.22158
▁town	-8.22174
▁day	-8.22279
▁show	-8.22334
▁because	-8.22386
T	-8.22456
▁five	-8.22613
G	-8.22807
h	-8.22933
ir	-8.23061
▁&	-8.23077
▁within	-8.23345
▁village	-8.23604
▁based	-8.24011
▁own	-8.2486
▁7	-8.25384
▁third	-8.25417
▁("	-8.25644
▁12	-8.25703
▁18	-8.25856
▁small	-8.25872
▁set	-8.25954
▁17	-8.26082
▁final	-8.26402
▁West	-8.26431
se	-8.26642
▁near	-8.26736
▁N	-8.27552
▁death	-8.27814
▁J	-8.27839
▁world	-8.27869
▁2008	-8.28084
▁north	-8.28152
K	-8.28269
z	-8.28405
▁8	-8.28583
▁play	-8.28617
▁service	-8.28658
▁included	-8.28952
▁national	-8.29614
ation	-8.29616
▁College	-8.29739
▁main	-8.2981
ion	-8.30086
▁like	-8.30372
▁un	-8.30605
▁moved	-8.30946
▁English	-8.31294
▁H	-8.31484
ton	-8.31689
▁million	-8.31757
na	-8.31889
▁9	-8.31894
▁French	-8.32382
M	-8.32667
▁very	-8.32715
▁major	-8.3283
▁14	-8.32988
ia	-8.33455
▁form	-8.33456
▁different	-8.33485
▁led	-8.33502
▁children	-8.33559
▁German	-8.33615
▁11	-8.33643
1	-8.3474
▁history	-8.34852
▁still	-8.3508
de	-8.35199
▁son	-8.35299
▁those	-8.35641
el	-8.35828
▁side	-8.35837
▁south	-8.35965
▁L	-8.36123
▁co	-8.36124
▁men	-8.37069
▁River	-8.37217
O	-8.37829
F	-8.37965
▁if	-8.38038
▁another	-8.3819
▁original	-8.38232
▁late	-8.38428
▁order	-8.38646
▁All	-8.38759
▁II	-8.39004
▁district	-8.39059
▁off	-8.39274
▁2011	-8.39413
▁do	-8.39427
▁six	-8.39995
▁London	-8.40041
▁war	-8.40061
▁best	-8.40287
▁-	-8.40395
▁among	-8.40542
")	-8.40727
▁District	-8.40788
f	-8.40859
▁record	-8.41068
▁women	-8.4114
▁book	-8.41342
▁2014	-8.41516
▁often	-8.42231
▁water	-8.42383
▁down	-8.42463
ist	-8.43046
▁father	-8.43219
ta	-8.43445
▁again	-8.43537
is	-8.4372
3	-8.44074
▁period	-8.44143
▁head	-8.44226
▁total	-8.44252
▁role	-8.44418
▁When	-8.44548
▁support	-8.44672
▁given	-8.4501
▁announced	-8.45065
▁house	-8.45114
▁Cup	-8.45122
▁V	-8.45171
▁13	-8.45241
▁2013	-8.45372
▁came	-8.45446
▁title	-8.45544
▁country	-8.45961
ne	-8.46059
able	-8.46238
▁much	-8.46314
▁games	-8.46456
▁House	-8.46815
▁England	-8.46944
▁top	-8.47015
▁International	-8.47049
▁non	-8.47475
▁2016	-8.47481
▁An	-8.47746
▁No	-8.48393
▁established	-8.48604
▁2009	-8.49134
▁what	-8.49429
▁make	-8.49447
▁started	-8.49682
x	-8.50043
ch	-8.50056
▁football	-8.50134
il	-8.50292
▁2018	-8.50534
▁2015	-8.50607
▁described	-8.50687
▁Park	-8.50874
▁joined	-8.51305
▁general	-8.51573
▁One	-8.51589
land	-8.51608
▁San	-8.51642
▁worked	-8.51988
▁become	-8.52182
▁development	-8.52627
▁By	-8.52632
▁These	-8.5296
▁19	-8.5296
▁power	-8.53005
▁US	-8.53626
▁went	-8.53701
▁To	-8.53753
▁land	-8.53961
▁per	-8.54226
ce	-8.54343
▁take	-8.54435
▁result	-8.54454
▁produced	-8.54654
▁even	-8.54801
H	-8.54895
▁community	-8.5497
▁Al	-8.54995
▁player	-8.55048
▁European	-8.55717
▁short	-8.5582
▁students	-8.55903
N	-8.5594
▁however	-8.55957
▁just	-8.5643
ma	-8.56585
▁formula	-8.56643
ur	-8.56848
▁election	-8.5698
▁using	-8.57031
▁married	-8.57061
▁next	-8.57354
▁way	-8.57389
▁returned	-8.57555
▁From	-8.57577
R	-8.5822
ra	-8.5863
▁various	-8.58837
ism	-8.5897
▁High	-8.59056
▁Street	-8.59194
▁President	-8.59309
▁having	-8.59398
▁wrote	-8.60339
L	-8.60394
▁2019	-8.60542
▁Council	-8.6063
ve	-8.60806
▁match	-8.60973
▁France	-8.61063
▁2000	-8.61065
ian	-8.61084
▁Church	-8.61389
▁George	-8.61453
▁Re	-8.61488
▁full	-8.61549
▁site	-8.61814
it	-8.62297
▁According	-8.62415
as	-8.62601
▁Australia	-8.62637
▁position	-8.62729
W	-8.62733
▁political	-8.63247
▁East	-8.63392
▁La	-8.63508
▁church	-8.63728
▁win	-8.63874
▁law	-8.63881
▁recorded	-8.64005
▁2006	-8.64241
▁continued	-8.64496
ri	-8.64523
▁created	-8.64629
▁25	-8.64641
ry	-8.64994
▁2005	-8.65016
▁considered	-8.65173
▁program	-8.65182
▁William	-8.65209
▁production	-8.65271
▁region	-8.65311
▁level	-8.65647
te	-8.65655
▁30	-8.65677
▁Party	-8.65775
▁old	-8.65954
é	-8.66142
▁television	-8.66412
at	-8.66748
▁president	-8.67089
▁refer	-8.6715
▁General	-8.6724
um	-8.67463
▁King	-8.67638
▁India	-8.67677
4	-8.67826
V	-8.6785
▁right	-8.67918
▁2004	-8.68355
▁written	-8.68452
▁version	-8.68539
ka	-8.68586
▁America	-8.68633
▁Division	-8.6875
▁military	-8.68763
year	-8.68901
da	-8.69128
▁international	-8.69182
and	-8.6925
▁race	-8.69304
nd	-8.69681
▁office	-8.69857
▁Her	-8.70403
▁research	-8.70657
▁event	-8.70671
▁average	-8.70692
up	-8.70847
▁(19	-8.70861
▁together	-8.7092
▁Army	-8.71182
▁opened	-8.71304
▁field	-8.71304
▁elected	-8.71469
▁important	-8.71495
▁party	-8.7154
▁Association	-8.7161
▁Co	-8.7192
▁few	-8.71979
▁video	-8.72041
▁working	-8.72068
▁appointed	-8.72112
am	-8.72279
li	-8.72404
▁works	-8.7265
▁De	-8.72672
▁California	-8.72786
▁addition	-8.72793
▁appeared	-8.73138
▁further	-8.73248
▁point	-8.73281
▁without	-8.73358
▁Canada	-8.73385
▁lead	-8.73387
▁run	-8.73712
▁founded	-8.73814
ley	-8.73839
▁case	-8.7388
▁education	-8.74012
▁art	-8.74098
▁popular	-8.74187
▁round	-8.74271
▁debut	-8.74355
▁business	-8.74439
—	-8.74532
▁times	-8.74546
et	-8.74692
▁present	-8.74734
▁professional	-8.75174
co	-8.7526
son	-8.75337
▁James	-8.75536
▁control	-8.75566
la	-8.75618
▁days	-8.75668
▁formed	-8.76029
▁signed	-8.76855
▁every	-8.77408
▁making	-8.77522
ity	-8.7786
▁points	-8.77978
▁With	-8.78146
ie	-8.78351
▁lost	-8.78393
▁Early	-8.78493
▁wife	-8.7885
5	-8.79241
▁man	-8.79382
▁release	-8.79459
▁common	-8.79701
▁While	-8.79853
▁Championship	-8.80222
6	-8.80469
▁developed	-8.80725
▁Australian	-8.80727
▁west	-8.80741
▁Royal	-8.80883
▁“	-8.80987
▁Union	-8.81092
▁living	-8.81108
▁similar	-8.81205
▁half	-8.81496
▁Indian	-8.81498
▁design	-8.81963
▁across	-8.82023
▁language	-8.82099
ro	-8.82477
▁Club	-8.82923
▁21	-8.82972
▁2003	-8.83022
▁Germany	-8.83122
▁director	-8.83406
▁example	-8.83504
ca	-8.83595
▁east	-8.83654
▁social	-8.83655
▁list	-8.83783
▁himself	-8.83823
▁live	-8.8406
▁term	-8.84564
▁daughter	-8.84591
▁Air	-8.84837
▁although	-8.85043
▁post	-8.85059
▁Me	-8.85122
▁1980	-8.85313
▁areas	-8.85367
▁services	-8.85448
▁project	-8.85563
▁character	-8.85578
U	-8.85629
ive	-8.85633
▁Hall	-8.8583
▁style	-8.85884
▁sold	-8.85941
▁100	-8.85973
▁we	-8.86737
▁()	-8.8778
▁body	-8.88161
▁though	-8.88278
▁finished	-8.88368
▁Company	-8.88379
▁events	-8.88476
▁story	-8.88584
▁league	-8.886
▁Europe	-8.89015
▁track	-8.89079
▁Le	-8.89111
v	-8.89302
▁car	-8.89353
▁gave	-8.89487
▁Award	-8.89621
▁First	-8.89642
▁24	-8.89844
▁available	-8.899
▁how	-8.90226
▁reported	-8.90361
ty	-8.90394
▁coach	-8.90783
w	-8.90838
▁completed	-8.91153
▁modern	-8.91368
▁close	-8.91387
J	-8.91634
▁22	-8.9171
▁study	-8.91737
rd	-8.91754
▁Road	-8.91857
▁should	-8.91896
▁less	-8.91944
▁teams	-8.92328
ment	-8.92696
▁Charles	-8.92715
▁seven	-8.92905
▁Center	-8.93166
by	-8.93315
un	-8.93463
▁Man	-8.93766
▁playing	-8.94288
▁open	-8.94463
di	-8.94507
▁Robert	-8.94573
no	-8.94618
▁Thomas	-8.94627
▁current	-8.94636
▁construction	-8.94764
▁Central	-8.94765
▁1970	-8.95033
ant	-8.95057
▁followed	-8.95164
▁white	-8.95245
▁remained	-8.95322
7	-8.95479
▁months	-8.95537
▁Paul	-8.95557
ine	-8.9557
▁once	-8.95586
▁young	-8.95674
▁China	-8.95849
▁mother	-8.9587
▁range	-8.95978
▁others	-8.96068
▁away	-8.96072
▁air	-8.96217
▁Some	-8.96289
me	-8.96312
▁Institute	-8.96385
▁stage	-8.96512
▁Department	-8.96526
▁black	-8.96539
▁great	-8.96589
▁never	-8.96677
▁Although	-8.96683
▁Other	-8.96768
▁Court	-8.96826
▁Act	-8.96876
ul	-8.96885
▁seen	-8.97059
▁free	-8.97119
ad	-8.97178
▁Canadian	-8.97443
▁forces	-8.97624
▁Group	-8.97888
▁does	-8.97913
▁designed	-8.97974
▁taken	-8.98015
▁official	-8.98027
▁UK	-8.98031
▁human	-8.98175
one	-8.98278
ter	-8.98285
▁go	-8.98426
▁brother	-8.98477
▁African	-8.98778
▁featured	-8.98885
▁road	-8.98936
ler	-8.99018
▁process	-8.99077
▁added	-8.99202
▁km	-8.99206
j	-8.99399
▁throughout	-8.99438
▁performed	-8.99507
ke	-8.99588
im	-8.99812
▁Since	-8.99868
os	-8.99921
▁largest	-9.00006
▁Music	-9.00094
▁El	-9.00163
▁Western	-9.00186
▁fire	-9.00224
▁m	-9.00347
ness	-9.00468
▁eight	-9.00492
ni	-9.00598
▁Art	-9.00813
ti	-9.0083
▁performance	-9.00993
ary	-9.01007
▁originally	-9.01061
▁change	-9.01151
▁features	-9.01171
▁training	-9.0135
▁23	-9.01469
▁28	-9.01565
▁players	-9.01755
▁attack	-9.01989
▁Society	-9.02036
lo	-9.02223
▁26	-9.0232
▁able	-9.02345
▁campaign	-9.02418
▁replaced	-9.02623
▁radio	-9.0266
ous	-9.02695
age	-9.02817
▁Washington	-9.02846
▁saw	-9.0288
▁songs	-9.03016
be	-9.03133
▁Russian	-9.03187
▁awarded	-9.03215
ha	-9.03234
▁currently	-9.03454
▁2007	-9.03708
▁leading	-9.0372
▁special	-9.04159
▁must	-9.04282
▁Minister	-9.04427
▁involved	-9.04479
▁includes	-9.04489
▁Island	-9.04532
▁countries	-9.04587
▁David	-9.04593
▁central	-9.04635
▁police	-9.04736
X	-9.04819
▁class	-9.04841
est	-9.04862
0	-9.05235
▁low	-9.05382
▁previous	-9.05421
▁information	-9.05556
▁you	-9.05719
▁So	-9.05803
▁mid	-9.05854
▁good	-9.05908
▁sent	-9.06057
▁return	-9.06104
▁model	-9.06318
▁command	-9.06365
▁groups	-9.06391
▁scored	-9.0648
▁railway	-9.06546
ak	-9.06576
▁pre	-9.0672
ized	-9.0678
▁help	-9.06782
▁episode	-9.07062
▁stated	-9.07075
▁provided	-9.07139
▁size	-9.07203
▁ten	-9.07242
ate	-9.07286
▁Chinese	-9.07387
▁media	-9.07447
▁Michael	-9.07547
▁directed	-9.07595
▁put	-9.0771
time	-9.07717
▁toward	-9.07853
▁e	-9.07868
ling	-9.07989
▁schools	-9.08058
ial	-9.08181
sh	-9.08411
▁court	-9.08506
va	-9.08507
▁light	-9.0868
▁hand	-9.08689
▁Japan	-9.08708
▁either	-9.08812
▁competition	-9.08922
▁health	-9.09088
lin	-9.09144
”	-9.09266
▁eventually	-9.09395
▁degree	-9.09461
id	-9.09512
▁Lake	-9.09554
▁Italian	-9.09733
▁ground	-9.0981
▁Academy	-9.0989
▁2002	-9.09961
▁Japanese	-9.10089
den	-9.10265
▁1990	-9.10323
▁Roman	-9.10482
▁p	-9.10511
▁Bay	-9.10534
▁Africa	-9.10774
▁decided	-9.10937
▁(18	-9.10994
▁killed	-9.1118
▁1999	-9.11232
▁upon	-9.11379
▁rights	-9.1146
▁active	-9.1149
▁TV	-9.11586
men	-9.11701
▁states	-9.11774
less	-9.11976
▁space	-9.1216
▁fourth	-9.12268
▁Spanish	-9.12326
▁private	-9.12346
▁27	-9.1248
▁college	-9.126
do	-9.1281
▁sea	-9.12916
▁Peter	-9.13036
▁Black	-9.13046
▁center	-9.13049
▁Republic	-9.13124
▁Great	-9.13276
▁rather	-9.13365
–19	-9.13417
▁front	-9.14105
▁Education	-9.14143
mo	-9.14271
▁Christian	-9.14287
▁Red	-9.14334
▁contract	-9.14368
▁data	-9.14646
▁placed	-9.14719
▁introduced	-9.14986
▁get	-9.15041
▁Dr	-9.15078
go	-9.15172
▁ship	-9.1523
he	-9.15377
▁2001	-9.15473
▁X	-9.15507
▁Career	-9.15686
▁northern	-9.15854
▁Museum	-9.15857
▁al	-9.16284
▁listed	-9.16339
▁above	-9.16473
▁reached	-9.16522
▁provide	-9.16584
▁Henry	-9.16593
▁Ma	-9.16616
usually	-9.1668
▁previously	-9.16752
▁river	-9.1688
▁anti	-9.17309
-19	-9.17611
▁board	-9.17658
▁changed	-9.17665
▁Football	-9.17679
▁person	-9.17743
ville	-9.17837
▁books	-9.17862
▁1996	-9.17882
ko	-9.17975
▁industry	-9.18043
▁buildings	-9.18118
▁interest	-9.18128
▁organization	-9.18129
▁approximately	-9.18183
▁1,	-9.18268
▁Z	-9.18471
ba	-9.18491
▁market	-9.18511
▁novel	-9.18519
▁attended	-9.1852
Y	-9.18663
▁start	-9.18748
▁success	-9.18777
▁beginning	-9.18972
▁2017	-9.19118
▁allowed	-9.19176
▁aircraft	-9.19192
▁Later	-9.19247
▁capital	-9.19273
▁Two	-9.19374
ki	-9.19467
▁least	-9.19533
▁Be	-9.19638
out	-9.1986
▁section	-9.19876
ge	-9.20083
▁see	-9.20084
ov	-9.20153
▁female	-9.20226
▁White	-9.2042
▁families	-9.20547
▁1998	-9.20569
▁writing	-9.20642
▁goal	-9.20932
▁Grand	-9.20965
ya	-9.2101
▁shows	-9.21212
▁Mary	-9.21319
▁29	-9.21506
▁instead	-9.21524
▁1960	-9.21598
▁structure	-9.21617
▁Ireland	-9.21665
▁behind	-9.21806
▁50	-9.22035
▁successful	-9.22059
ham	-9.22163
▁Mar	-9.22165
▁army	-9.22234
▁author	-9.22281
▁almost	-9.22285
ies	-9.2244
ish	-9.22442
▁regular	-9.22447
▁Awards	-9.22463
▁movement	-9.22568
▁winning	-9.2284
ent	-9.22876
▁significant	-9.23035
▁outside	-9.23215
▁rock	-9.23241
tic	-9.23241
▁brought	-9.23352
der	-9.23355
▁possible	-9.23359
▁Saint	-9.23382
▁tournament	-9.23545
▁studies	-9.23548
▁Summer	-9.23566
▁1992	-9.24038
▁hit	-9.2411
▁Following	-9.24134
▁lower	-9.24174
▁Force	-9.24225
▁Con	-9.24304
▁past	-9.24327
ner	-9.24369
ja	-9.24502
▁Government	-9.24533
▁Bar	-9.24654
▁come	-9.24731
▁Life	-9.24754
▁base	-9.24824
▁Kingdom	-9.24939
▁division	-9.24973
field	-9.25028
▁action	-9.25049
▁But	-9.25476
8	-9.25542
▁studio	-9.25568
▁Paris	-9.25622
▁collection	-9.25981
▁represented	-9.26005
Z	-9.26144
▁Film	-9.26162
▁summer	-9.26177
▁Sa	-9.26248
▁via	-9.26278
▁force	-9.26285
▁spent	-9.26321
▁Texas	-9.26329
▁Green	-9.26616
▁sub	-9.26657
▁studied	-9.26719
▁practice	-9.26861
▁Festival	-9.26921
▁40	-9.26992
▁Los	-9.27032
▁Best	-9.27159
▁move	-9.27242
▁southern	-9.27331
▁reach	-9.27364
▁Hill	-9.27393
▁Richard	-9.27398
▁matches	-9.27465
▁runs	-9.27543
▁night	-9.27694
▁type	-9.27736
▁highest	-9.27798
com	-9.27811
▁natural	-9.27839
▁far	-9.2806
▁required	-9.28067
▁d	-9.28141
▁closed	-9.28364
▁Bo	-9.28442
▁Zealand	-9.28548
▁census	-9.28548
▁course	-9.28695
▁county	-9.28799
▁1995	-9.28833
▁units	-9.2906
▁island	-9.29155
▁genus	-9.29374
▁Ka	-9.29458
▁wide	-9.29468
▁whom	-9.29553
▁plant	-9.29758
▁defeated	-9.29828
ol	-9.29953
▁Navy	-9.30006
▁soon	-9.30021
ver	-9.30125
▁Car	-9.30303
▁standard	-9.30309
▁Olympics	-9.3031
▁Committee	-9.30412
▁evidence	-9.30412
▁2017,	-9.30433
▁Most	-9.30553
▁earlier	-9.30621
▁little	-9.30641
▁owned	-9.30825
▁below	-9.30922
▁generally	-9.30943
▁property	-9.31045
▁traditional	-9.31172
ci	-9.31282
▁commercial	-9.31332
▁related	-9.31418
▁Women	-9.31483
▁park	-9.31492
▁rest	-9.3161
▁systems	-9.31646
▁results	-9.31651
▁Russia	-9.31758
▁Catholic	-9.31845
▁older	-9.3189
ig	-9.31893
ting	-9.31956
▁network	-9.32069
▁primary	-9.32109
▁consist	-9.32306
▁independent	-9.32308
▁future	-9.3232
▁Many	-9.32408
▁Chicago	-9.32559
▁ended	-9.32608
▁Go	-9.32719
▁culture	-9.32756
▁ever	-9.32776
▁launched	-9.32872
▁route	-9.32951
▁trade	-9.3301
▁artist	-9.33066
▁real	-9.33137
like	-9.33206
▁numerous	-9.33382
▁higher	-9.33588
▁cross	-9.33599
▁especially	-9.33622
ster	-9.33698
▁centre	-9.33872
ji	-9.33874
ger	-9.33897
▁increased	-9.33931
▁Soviet	-9.34055
con	-9.34057
▁Service	-9.3406
▁Pro	-9.34098
▁c	-9.34238
▁Northern	-9.34269
old	-9.34305
▁ran	-9.344
▁Sir	-9.34433
▁child	-9.34471
▁pro	-9.34588
▁thus	-9.34695
ey	-9.34735
▁contains	-9.34769
▁films	-9.3481
▁Virginia	-9.34842
off	-9.34895
▁love	-9.35087
▁noted	-9.35154
▁senior	-9.35338
▁magazine	-9.35395
▁1991	-9.35451
▁strong	-9.3554
▁regard	-9.35551
▁gold	-9.35551
▁annual	-9.3565
▁staff	-9.35802
▁Men	-9.35848
wa	-9.35895
▁parts	-9.35924
▁activities	-9.35999
▁victory	-9.36002
▁We	-9.36114
▁la	-9.36135
▁Day	-9.3617
▁leader	-9.36295
▁relationship	-9.36299
20	-9.36376
based	-9.36514
▁sister	-9.36517
▁appearance	-9.36525
▁student	-9.36557
ll	-9.36608
▁money	-9.36666
▁cases	-9.36673
▁red	-9.36701
ana	-9.36735
ga	-9.36742
▁Board	-9.36896
of	-9.36919
ford	-9.36925
▁Bank	-9.37067
▁Its	-9.37069
▁sometimes	-9.37088
▁itself	-9.37141
▁operations	-9.37209
▁entered	-9.37268
▁western	-9.37292
▁Second	-9.3734
▁taking	-9.3736
▁Smith	-9.3758
▁Greek	-9.37592
▁date	-9.37607
▁Law	-9.37633
▁according	-9.37677
▁attempt	-9.37786
side	-9.37937
ard	-9.38029
▁week	-9.38059
▁competed	-9.38081
▁material	-9.3814
▁issue	-9.382
▁feature	-9.38204
▁associated	-9.38272
▁length	-9.38278
▁tour	-9.3829
▁unit	-9.38374
▁Records	-9.38427
▁going	-9.38452
▁represent	-9.38458
▁officer	-9.38493
▁1994	-9.38564
▁writer	-9.38657
ang	-9.38828
▁1988	-9.38883
ated	-9.38931
▁lived	-9.3902
▁award	-9.39153
▁issues	-9.39258
▁bring	-9.39373
▁Un	-9.39409
lu	-9.39555
po	-9.39555
▁selected	-9.39696
▁serving	-9.39858
▁month	-9.39921
▁loss	-9.39945
▁cover	-9.39979
▁Year	-9.40022
▁Championships	-9.4004
▁create	-9.40059
▁already	-9.40128
▁Parliament	-9.40286
▁medal	-9.40393
"),	-9.40459
ization	-9.40493
▁1997	-9.40506
▁companies	-9.40519
▁running	-9.40566
▁Ar	-9.40693
▁Wales	-9.40772
▁individual	-9.40786
▁thought	-9.40865
ab	-9.40935
▁turn	-9.40938
▁location	-9.40959
▁personal	-9.40963
▁Italy	-9.40996
▁husband	-9.40997
▁goals	-9.4103
▁Ko	-9.4115
▁eastern	-9.41195
▁retired	-9.41231
(	-9.4136
▁find	-9.41365
▁cast	-9.41632
ck	-9.41635
▁income	-9.41637
▁relative	-9.41643
▁woman	-9.41749
▁Ne	-9.41772
▁status	-9.41917
line	-9.41957
▁initially	-9.42015
▁food	-9.42134
wood	-9.42362
▁championship	-9.42364
▁science	-9.42384
mer	-9.42424
▁caused	-9.4249
▁Brown	-9.42537
▁plan	-9.42677
▁operated	-9.42705
▁complex	-9.4277
▁Lu	-9.42811
▁Angeles	-9.42881
ah	-9.42962
▁subject	-9.42983
▁God	-9.43035
▁engine	-9.43119
▁Valley	-9.4312
▁earned	-9.43168
▁met	-9.43272
▁Mark	-9.43351
&	-9.43377
day	-9.43545
▁decision	-9.43574
▁Battle	-9.43602
▁plays	-9.43613
▁self	-9.4363
▁entire	-9.43657
io	-9.43742
▁Du	-9.43871
op	-9.43959
▁my	-9.43975
▁Florida	-9.44049
▁artists	-9.44056
▁singer	-9.44074
▁border	-9.44075
em	-9.44077
▁economic	-9.44092
▁better	-9.44096
▁Congress	-9.44128
bo	-9.44214
▁religious	-9.44313
pa	-9.44321
ally	-9.44434
▁manager	-9.44537
▁edition	-9.44551
▁seat	-9.44649
▁too	-9.44672
▁native	-9.44773
▁Sea	-9.44878
per	-9.44886
▁particularly	-9.4491
▁fact	-9.44924
que	-9.44977
▁legal	-9.44989
▁Louis	-9.45092
sa	-9.45209
▁majority	-9.45301
ina	-9.45409
▁Mexico	-9.45496
▁opening	-9.45723
▁energy	-9.45765
▁believed	-9.45854
▁changes	-9.45937
▁Mo	-9.46051
▁supported	-9.46151
ac	-9.46179
▁passed	-9.46209
▁Games	-9.46421
han	-9.46651
▁If	-9.4672
▁additional	-9.46775
▁List	-9.4682
▁regional	-9.46823
za	-9.46985
▁31	-9.47026
▁need	-9.47046
▁give	-9.47235
▁Railway	-9.4729
▁starting	-9.47294
▁1984	-9.47298
mi	-9.47459
▁musical	-9.47474
▁Arts	-9.47482
▁forced	-9.47656
▁fight	-9.47771
▁programs	-9.47874
▁access	-9.48085
▁Assembly	-9.48206
▁Southern	-9.48233
").	-9.48254
▁di	-9.48305
▁key	-9.48383
▁claimed	-9.48386
les	-9.48412
▁got	-9.48434
▁larger	-9.48447
▁marriage	-9.48467
▁2020,	-9.48518
mar	-9.48521
▁complete	-9.4853
▁Martin	-9.48548
▁effect	-9.48554
pe	-9.48692
▁means	-9.48695
▁Tom	-9.48714
▁leaving	-9.48958
ny	-9.4901
▁limited	-9.49086
▁remains	-9.49135
▁report	-9.49234
tra	-9.49364
▁sports	-9.49438
▁policy	-9.49462
▁Li	-9.49562
▁1950	-9.49587
▁battle	-9.49592
▁word	-9.49651
▁Research	-9.49692
▁hard	-9.4971
▁Eastern	-9.49747
▁Bill	-9.4992
▁variety	-9.49969
▁separate	-9.49984
▁Pacific	-9.50002
▁contain	-9.50028
▁Line	-9.50072
▁helped	-9.50219
▁Province	-9.50224
▁carried	-9.50226
▁Ho	-9.50258
▁mostly	-9.50366
▁Or	-9.5037
▁department	-9.50385
referred	-9.50737
▁surface	-9.50744
▁municipality	-9.50754
▁nine	-9.50767
▁Boston	-9.5077
▁Per	-9.50791
▁Ca	-9.50957
▁provides	-9.50976
▁raised	-9.51047
▁promoted	-9.51073
▁Lord	-9.51074
▁My	-9.51087
▁Sun	-9.51236
▁Britain	-9.51256
▁subsequently	-9.51328
▁1986	-9.51364
▁weeks	-9.51377
▁presented	-9.51436
▁offered	-9.51474
▁Public	-9.51489
▁Pennsylvania	-9.51514
▁me	-9.51531
▁Joseph	-9.51532
▁score	-9.51618
▁2020	-9.51706
▁Biography	-9.51765
▁Democratic	-9.51773
▁Super	-9.51789
▁parents	-9.51833
▁Y	-9.51838
▁Radio	-9.52029
▁2,	-9.52242
▁source	-9.52249
▁v	-9.52348
▁theory	-9.52455
▁always	-9.52546
▁famous	-9.52677
▁Ben	-9.52719
▁longer	-9.52722
ut	-9.52819
ho	-9.52923
▁chief	-9.53005
▁Science	-9.53037
now	-9.53075
▁middle	-9.53096
▁troops	-9.53114
▁Old	-9.53122
▁pay	-9.53137
▁That	-9.53197
▁rate	-9.53292
▁nearly	-9.53295
▁university	-9.53329
▁train	-9.53342
ex	-9.53356
▁2007,	-9.53495
▁minutes	-9.53545
▁focus	-9.53597
▁Under	-9.53616
▁Commission	-9.53712
▁problems	-9.53743
▁king	-9.53776
▁characters	-9.53866
▁shot	-9.53872
▁square	-9.53883
▁1940	-9.53885
▁failed	-9.53891
▁Empire	-9.5413
▁despite	-9.54395
▁g	-9.54418
▁experience	-9.54508
▁proposed	-9.54676
▁Jewish	-9.54688
▁=	-9.54706
▁oil	-9.54976
▁sound	-9.55049
▁try	-9.55049
▁medical	-9.55186
▁Carolina	-9.55187
▁might	-9.55191
▁individuals	-9.5525
ek	-9.55331
▁tell	-9.55341
▁multiple	-9.55342
▁ships	-9.55443
▁response	-9.55444
▁technology	-9.55461
▁politician	-9.5547
▁participated	-9.55529
▁Big	-9.55535
▁Se	-9.55577
ot	-9.55615
▁Queen	-9.55681
▁Personal	-9.55725
▁overall	-9.55796
▁shown	-9.55796
▁vote	-9.55813
▁direct	-9.55842
▁themselves	-9.55992
▁composed	-9.55998
ini	-9.56021
▁graduated	-9.56051
vi	-9.56104
▁hours	-9.56125
▁call	-9.56127
▁Station	-9.56156
ung	-9.56177
▁deal	-9.56188
▁increase	-9.56215
▁cost	-9.56224
▁Fort	-9.56351
▁names	-9.56633
▁Times	-9.56668
je	-9.56797
▁Irish	-9.56855
▁terms	-9.56866
▁today	-9.5694
▁particular	-9.56944
▁Di	-9.57009
▁prior	-9.57058
ship	-9.5713
▁Post	-9.5721
▁influence	-9.5725
▁historical	-9.57311
ik	-9.57339
In	-9.5743
▁federal	-9.57625
▁review	-9.57769
▁Lee	-9.57982
▁forms	-9.57999
▁certain	-9.58035
▁financial	-9.5804
40	-9.58175
way	-9.58549
▁1993	-9.58567
▁peak	-9.58577
▁fall	-9.58702
espite	-9.58724
▁treatment	-9.58747
idae	-9.58878
▁You	-9.58949
▁Edward	-9.5899
La	-9.59181
dy	-9.59227
▁whole	-9.59239
▁Sam	-9.59245
▁management	-9.59288
▁Conference	-9.59298
▁People	-9.59323
▁Town	-9.59573
au	-9.59694
▁Chief	-9.59699
▁covered	-9.59713
▁asked	-9.59722
▁meaning	-9.5975
▁appears	-9.59845
▁Creek	-9.59848
▁friend	-9.59862
▁Dutch	-9.59864
▁Office	-9.60076
hi	-9.60154
▁Ha	-9.6028
▁view	-9.60325
gen	-9.60333
▁star	-9.60334
ani	-9.60655
▁lines	-9.60769
▁conditions	-9.60771
▁newspaper	-9.60809
▁cities	-9.60978
lan	-9.61009
▁act	-9.61012
▁cultural	-9.61033
▁meeting	-9.61118
▁wanted	-9.61166
▁serve	-9.61181
▁our	-9.61201
▁Ni	-9.61242
▁latter	-9.61259
▁recording	-9.61357
▁constructed	-9.61379
▁Te	-9.61442
▁mainly	-9.61488
▁Development	-9.61542
▁remaining	-9.6158
▁broadcast	-9.61649
▁1985	-9.61652
▁candidate	-9.61682
▁Lo	-9.61837
▁fifth	-9.6186
▁Spain	-9.6186
▁Asia	-9.61911
▁issued	-9.62069
▁uses	-9.62086
ts	-9.6211
▁Poland	-9.62137
▁Star	-9.62391
▁executive	-9.62414
▁room	-9.62418
▁households	-9.62429
ow	-9.62446
▁operation	-9.6247
▁council	-9.62546
▁recent	-9.62569
ber	-9.62589
▁likely	-9.62633
▁produce	-9.62639
▁account	-9.62688
▁basketball	-9.62698
▁value	-9.62723
ite	-9.62788
▁appearances	-9.62875
if	-9.62936
▁Don	-9.62971
▁Both	-9.63019
sk	-9.63031
ron	-9.63066
ong	-9.63133
▁producer	-9.63236
sen	-9.6324
well	-9.63267
▁Rock	-9.63387
▁products	-9.63538
▁academic	-9.63567
▁arrived	-9.63587
▁Johnson	-9.63648
▁Governor	-9.63837
▁managed	-9.63895
▁acquired	-9.64188
American	-9.64206
▁65	-9.64412
▁society	-9.64441
▁1930	-9.64462
▁speed	-9.64483
▁positive	-9.6461
▁III	-9.64643
▁extended	-9.64648
▁Coast	-9.64731
▁consists	-9.64747
▁care	-9.64824
▁host	-9.64831
▁Frank	-9.64831
gi	-9.64876
▁idea	-9.64968
▁foreign	-9.64991
▁civil	-9.64996
ran	-9.65008
▁discovered	-9.651
si	-9.65154
▁function	-9.65347
▁allow	-9.65472
rs	-9.6551
▁Land	-9.65609
▁male	-9.6561
yl	-9.65624
ier	-9.65743
bi	-9.65856
▁specific	-9.65907
▁enough	-9.65917
▁turned	-9.66037
▁1987	-9.66179
ful	-9.66258
▁inter	-9.6631
▁voice	-9.66482
▁firm	-9.66486
▁1989	-9.6649
▁Theatre	-9.66514
▁editor	-9.66517
▁houses	-9.66532
▁plans	-9.66535
▁recently	-9.66657
▁workers	-9.66678
ino	-9.66703
min	-9.66738
▁Civil	-9.66825
▁nearby	-9.66867
▁cut	-9.66886
ted	-9.66986
▁professor	-9.67058
▁1983	-9.67074
chi	-9.67102
▁minor	-9.67104
▁Scotland	-9.67115
▁Also	-9.67146
▁1976	-9.67179
▁needed	-9.67213
▁elections	-9.67225
▁alongside	-9.67246
▁done	-9.67306
ology	-9.67407
▁label	-9.67575
▁youth	-9.67633
▁website	-9.67687
▁responsible	-9.6772
▁rule	-9.67798
▁CD	-9.67843
▁Series	-9.67909
▁Tour	-9.67936
ach	-9.67941
▁test	-9.67951
▁amount	-9.67989
▁Jack	-9.6802
▁Order	-9.68052
▁Jones	-9.68054
▁pressure	-9.68058
▁coast	-9.68139
▁finally	-9.68292
▁Team	-9.68314
▁Major	-9.68337
▁appear	-9.68483
▁bridge	-9.68486
cha	-9.6853
ance	-9.68569
che	-9.6859
▁directly	-9.68792
▁continue	-9.68797
all	-9.68813
▁crew	-9.6897
▁1974	-9.68998
▁told	-9.69024
▁takes	-9.69221
▁Another	-9.69262
▁Ohio	-9.69262
▁computer	-9.69294
house	-9.69353
▁build	-9.69377
▁Van	-9.69474
▁parish	-9.69489
▁becom	-9.69504
▁face	-9.69519
▁ordered	-9.69533
▁1945	-9.69557
▁nature	-9.69559
▁transferred	-9.69562
▁Middle	-9.69569
▁Pan	-9.69673
▁defeat	-9.69731
we	-9.69753
▁Young	-9.6981
▁Na	-9.69854
▁maintain	-9.6986
jo	-9.69881
▁estate	-9.69888
▁leave	-9.69923
▁dance	-9.70176
▁join	-9.70234
▁text	-9.70273
▁heavy	-9.70502
▁captain	-9.70513
▁Earth	-9.70521
▁assigned	-9.70613
▁Republican	-9.70631
▁notable	-9.70647
▁primari	-9.7079
▁Hospital	-9.70802
▁era	-9.70965
▁semi	-9.70998
▁i	-9.711
▁grew	-9.71119
▁Senate	-9.71123
▁Jo	-9.71302
▁Love	-9.71314
▁keep	-9.71354
▁format	-9.71407
▁whether	-9.7143
▁administrative	-9.71439
▁tracks	-9.71472
▁immediately	-9.71483
▁Mac	-9.71491
ical	-9.71548
▁Su	-9.71593
▁saying	-9.71714
▁officially	-9.71719
▁Massachusetts	-9.71751
don	-9.71828
Re	-9.72116
▁province	-9.72144
▁prominent	-9.72239
▁Prince	-9.72317
▁elements	-9.72362
▁makes	-9.72385
▁FC	-9.72387
▁Three	-9.72419
▁Latin	-9.72422
▁organized	-9.72442
▁residents	-9.72471
▁Director	-9.72474
▁revealed	-9.72531
▁1978	-9.72539
▁Pre	-9.72552
▁Historic	-9.72594
▁quickly	-9.72738
▁gas	-9.72873
over	-9.72992
ku	-9.73024
▁renamed	-9.73029
▁capacity	-9.7304
▁Each	-9.73066
▁Sha	-9.73081
▁combined	-9.73098
▁multi	-9.73114
uk	-9.73205
▁Up	-9.73286
▁rural	-9.73339
▁drama	-9.73343
▁tax	-9.73435
▁females	-9.7345
▁upper	-9.73473
▁Asian	-9.73696
▁Of	-9.73701
▁1920	-9.73736
▁stone	-9.73746
▁mission	-9.73828
▁poor	-9.73855
▁bar	-9.73894
▁types	-9.73986
▁Francisco	-9.73994
▁Secretary	-9.73999
▁Prime	-9.74063
▁1969	-9.74162
▁More	-9.74231
▁Open	-9.74276
▁commonly	-9.74356
▁hospital	-9.74402
kin	-9.74417
ze	-9.74438
▁los	-9.74476
▁Gold	-9.74477
▁brand	-9.74485
probably	-9.7463
▁records	-9.74639
▁Fa	-9.74675
Q	-9.74677
▁movie	-9.74762
ph	-9.74939
▁occurred	-9.74959
▁Health	-9.7496
▁Centre	-9.7496
▁dedicated	-9.74969
▁stations	-9.75017
▁initial	-9.75145
class	-9.75177
▁inside	-9.75184
▁Regiment	-9.75282
▁stories	-9.75283
▁Scottish	-9.75308
▁divided	-9.75314
▁45	-9.75364
▁ex	-9.75471
▁channel	-9.75485
▁t	-9.755
▁Corps	-9.75536
▁seasons	-9.75563
ors	-9.75566
▁lies	-9.756
▁operating	-9.75628
bu	-9.75649
▁ancient	-9.75673
▁Olympic	-9.75773
ok	-9.75794
▁heart	-9.75812
▁Ba	-9.75922
▁Stadium	-9.75939
mon	-9.75951
tu	-9.75973
▁charge	-9.76025
▁look	-9.76025
ud	-9.7616
tro	-9.76235
▁Born	-9.76259
▁lack	-9.7637
▁accepted	-9.76441
▁article	-9.76458
▁1981	-9.76526
▁Sydney	-9.766
▁assistant	-9.76609
▁1971	-9.76738
▁percent	-9.76926
▁featuring	-9.76939
ten	-9.76954
▁security	-9.76966
ven	-9.76967
▁Santa	-9.76987
▁lives	-9.7703
▁Chi	-9.77077
▁levels	-9.7713
▁letter	-9.77161
▁normal	-9.7717
▁winner	-9.77184
▁Port	-9.77189
▁branch	-9.77216
▁Polish	-9.77297
▁purchased	-9.77355
▁friends	-9.7748
▁job	-9.77593
▁administration	-9.77601
▁bank	-9.77626
9	-9.77633
▁cause	-9.77655
▁concept	-9.77742
▁60	-9.77778
qui	-9.77805
▁median	-9.77807
▁double	-9.77874
▁guitar	-9.7793
▁Jackson	-9.77946
▁1942	-9.77971
▁actor	-9.77983
hu	-9.77984
▁Route	-9.77987
▁chart	-9.78004
▁growth	-9.78012
á	-9.78116
▁scene	-9.78132
▁1972	-9.78225
▁planned	-9.78277
▁Over	-9.78298
▁Duke	-9.78302
▁Columbia	-9.78305
berg	-9.78437
for	-9.7848
▁Gar	-9.78484
▁forward	-9.78495
▁paper	-9.78542
▁teacher	-9.78551
▁dis	-9.78688
▁Show	-9.78694
▁Ro	-9.788
30	-9.78817
▁agreement	-9.78831
▁miles	-9.78847
▁metal	-9.78862
▁Mr	-9.78916
▁attention	-9.78949
▁activity	-9.78951
▁establish	-9.78972
▁fellow	-9.78976
▁intended	-9.78994
▁agreed	-9.78996
10	-9.79096
▁footballer	-9.7914
▁—	-9.79163
▁minister	-9.79187
head	-9.792
▁officers	-9.79433
▁words	-9.79447
▁Do	-9.79576
ala	-9.79595
▁Illinois	-9.79631
▁Bishop	-9.79631
▁Professor	-9.79638
▁stop	-9.79653
▁Po	-9.79737
led	-9.79778
▁approach	-9.79826
▁potential	-9.79834
▁removed	-9.80114
zi	-9.80184
mb	-9.80212
▁distance	-9.80278
▁Scott	-9.80331
▁Michigan	-9.80333
▁typically	-9.8042
▁highly	-9.80466
▁soldiers	-9.80478
gu	-9.80523
ological	-9.80595
end	-9.80618
▁And	-9.80626
í	-9.80659
▁ice	-9.80718
▁smaller	-9.80842
▁Long	-9.80973
▁leaders	-9.80991
▁receive	-9.81009
▁spring	-9.8101
▁Top	-9.81018
▁Alexander	-9.81023
▁quality	-9.81048
▁follows	-9.81071
era	-9.81167
▁conducted	-9.8119
▁giving	-9.81387
-1	-9.81592
0,000	-9.8163
▁method	-9.81641
▁conflict	-9.81648
▁1982	-9.817
▁Jersey	-9.81704
▁projects	-9.8172
▁creation	-9.81723
▁Federal	-9.81977
ez	-9.81991
▁communities	-9.82053
▁basis	-9.82058
▁yet	-9.82065
ap	-9.82067
▁green	-9.8214
▁Berlin	-9.82155
▁painting	-9.8216
▁resulted	-9.82174
▁Iran	-9.82282
▁historic	-9.82302
▁here	-9.82406
▁surname	-9.82427
ists	-9.82434
▁suffered	-9.8248
▁Ali	-9.82531
▁st	-9.82588
▁Blue	-9.8263
▁widely	-9.8264
du	-9.82684
▁settlement	-9.82726
▁1979	-9.82736
▁pair	-9.82738
▁facilities	-9.82756
▁therefore	-9.82756
▁mass	-9.82762
▁flight	-9.82771
▁Si	-9.82773
▁silver	-9.82774
▁con	-9.82819
ence	-9.82851
▁develop	-9.8288
▁effects	-9.82951
▁finish	-9.82956
▁languages	-9.82976
back	-9.83215
▁cell	-9.83256
ure	-9.8326
▁Ke	-9.83286
▁3,	-9.83297
ised	-9.83356
▁pass	-9.83356
ng	-9.83378
▁press	-9.83394
▁Jan	-9.83423
▁Brazil	-9.83445
▁Game	-9.83458
▁200	-9.83468
▁transfer	-9.83481
▁direction	-9.83498
▁Pa	-9.83529
▁trial	-9.8355
▁partner	-9.83574
▁en	-9.83617
▁Pat	-9.83721
▁Ta	-9.83725
▁gun	-9.83755
▁moving	-9.8385
▁Home	-9.83876
▁adopted	-9.83933
▁draw	-9.84001
▁blue	-9.84033
▁Ver	-9.84079
50	-9.84094
▁Inc	-9.84153
▁felt	-9.84178
▁governor	-9.84178
▁taught	-9.84179
▁risk	-9.8418
▁transport	-9.84184
▁ability	-9.84189
▁declared	-9.84193
▁Atlantic	-9.84195
▁fell	-9.84205
▁identified	-9.84219
▁destroyed	-9.84318
▁mentioned	-9.84372
▁master	-9.84403
▁Williams	-9.84443
cho	-9.84474
▁territory	-9.84536
▁paid	-9.84584
▁floor	-9.84594
▁recognized	-9.8461
▁color	-9.8463
law	-9.84865
▁disease	-9.84908
▁4,	-9.84973
▁Dan	-9.84975
▁Korea	-9.85161
▁product	-9.8522
▁leadership	-9.85268
▁mixed	-9.85407
▁break	-9.85434
▁1963	-9.85522
▁require	-9.85522
▁Sever	-9.85523
▁distribution	-9.85627
▁Am	-9.85641
▁wing	-9.85698
▁street	-9.85705
ara	-9.8581
ru	-9.85903
ker	-9.8597
▁Background	-9.85983
▁equipment	-9.85983
▁Military	-9.86002
▁Mount	-9.86003
▁champion	-9.86045
▁code	-9.8606
▁plants	-9.86114
▁contribut	-9.86178
▁serves	-9.86179
eh	-9.86228
▁owner	-9.8628
▁spread	-9.86281
▁solo	-9.86327
ney	-9.86383
war	-9.86426
▁awards	-9.86524
▁damage	-9.86607
▁Foundation	-9.86722
▁surrounding	-9.8677
▁Tu	-9.86816
▁figure	-9.86828
▁1968	-9.86838
▁En	-9.86842
TV	-9.8703
▁Corporation	-9.87081
▁Police	-9.87086
ola	-9.87271
ill	-9.87322
▁knowledge	-9.87456
▁digital	-9.87497
▁singles	-9.87509
▁impact	-9.87509
▁museum	-9.87537
▁Kong	-9.87662
▁...	-9.87782
▁Avenue	-9.8782
▁travel	-9.87827
▁exchange	-9.87863
▁sources	-9.87911
▁conference	-9.87931
▁Wood	-9.87932
▁parties	-9.87941
▁teaching	-9.87998
om	-9.88004
▁reduced	-9.88036
▁reviews	-9.88118
▁1964	-9.88127
▁Cross	-9.88178
▁principal	-9.88192
▁Har	-9.88192
▁unique	-9.88205
▁couple	-9.88221
▁Par	-9.88223
▁alone	-9.88224
▁Bridge	-9.88255
▁table	-9.88321
▁coming	-9.88334
▁Sports	-9.88419
▁Jean	-9.88428
fa	-9.88533
gar	-9.88545
▁compared	-9.88577
bar	-9.8858
-2	-9.88591
▁respectively	-9.88613
▁estimated	-9.88617
fi	-9.88633
▁camp	-9.88752
▁Hu	-9.88847
▁stars	-9.88902
▁honor	-9.88917
▁Family	-9.89031
▁remain	-9.89043
▁winter	-9.89074
▁del	-9.89093
▁Ja	-9.89248
▁Camp	-9.89257
▁Georgia	-9.89296
▁squad	-9.89311
▁nominated	-9.8937
80	-9.89386
▁35	-9.8939
▁males	-9.89404
▁confirmed	-9.89414
ā	-9.89426
▁expanded	-9.89443
▁clear	-9.89538
▁1944	-9.89642
▁leaves	-9.8966
▁share	-9.89691
▁models	-9.89711
▁scoring	-9.89724
ee	-9.89729
ium	-9.89803
St	-9.89861
▁obtained	-9.89895
▁acting	-9.89925
▁difficult	-9.89927
▁80	-9.89962
▁Vi	-9.90033
▁contemporary	-9.90072
▁buried	-9.90072
▁1939	-9.90086
▁rules	-9.90094
▁Daniel	-9.90095
▁Joe	-9.90105
▁Hong	-9.90142
▁Little	-9.90149
▁roles	-9.9015
tal	-9.90195
long	-9.90245
more	-9.90341
mann	-9.90357
▁growing	-9.90388
▁comes	-9.90421
▁Da	-9.90433
New	-9.90456
▁1943	-9.90461
▁Arthur	-9.90469
▁quarter	-9.90486
▁1958	-9.90512
▁purpose	-9.90653
▁offer	-9.90724
▁6,	-9.90797
▁blood	-9.90834
▁Highway	-9.90875
▁efforts	-9.90878
▁offers	-9.90885
▁Israel	-9.90908
dis	-9.90927
▁Islands	-9.90943
tion	-9.90955
▁70	-9.91215
town	-9.91216
ata	-9.91255
▁Bell	-9.91259
tri	-9.91335
car	-9.9135
von	-9.91355
▁problem	-9.9138
▁prison	-9.91458
▁Sch	-9.91463
coming	-9.91469
▁Jr	-9.915
,000	-9.91524
century	-9.91555
▁prevent	-9.91594
▁campus	-9.91602
tor	-9.91611
19	-9.91668
▁commander	-9.91735
ius	-9.91756
▁festival	-9.9177
▁platform	-9.91783
▁Col	-9.91817
▁stand	-9.91831
▁titles	-9.91962
▁twice	-9.92004
▁Castle	-9.92022
▁2011.	-9.9212
▁committee	-9.92159
▁marked	-9.9216
▁interview	-9.92186
▁promotion	-9.92281
▁titled	-9.92352
▁sense	-9.92381
▁Between	-9.92385
▁online	-9.9253
▁meet	-9.92548
18	-9.92566
ward	-9.92569
▁pop	-9.92719
▁Elizabeth	-9.92764
ris	-9.92774
▁Water	-9.9284
pur	-9.92887
▁1966	-9.92922
▁physical	-9.93015
▁gain	-9.93073
▁Nations	-9.93073
▁k	-9.93078
▁gained	-9.93091
▁traffic	-9.93152
▁split	-9.93156
▁1947	-9.93166
ese	-9.9318
▁climate	-9.93203
▁BBC	-9.93206
▁know	-9.93227
▁Korean	-9.93273
▁Pe	-9.93334
▁relations	-9.93363
▁showed	-9.93395
▁visited	-9.93471
▁places	-9.93482
▁Field	-9.93562
▁hosted	-9.9359
pt	-9.9369
▁cars	-9.93728
▁news	-9.93771
▁gives	-9.9381
cy	-9.93927
▁applied	-9.93941
▁literature	-9.93941
▁situated	-9.93941
▁oldest	-9.93984
gg	-9.93986
▁Rome	-9.94011
▁contact	-9.94154
▁weight	-9.94183
▁Due	-9.94198
ecause	-9.94302
ette	-9.94453
▁secondary	-9.94488
▁content	-9.94532
▁1967	-9.94542
▁Victoria	-9.94648
▁ranked	-9.94655
▁wall	-9.94694
▁positions	-9.94799
▁officials	-9.94802
pon	-9.94836
yn	-9.94858
▁b	-9.94956
▁organizations	-9.94969
▁Before	-9.95131
▁housing	-9.95131
▁bought	-9.95133
▁extra	-9.95182
▁Sal	-9.95226
▁sites	-9.95296
▁1956	-9.95363
▁(17	-9.95391
▁Pakistan	-9.95402
▁kind	-9.95426
▁!	-9.95448
red	-9.95495
▁true	-9.95512
▁protect	-9.95524
vo	-9.95528
▁Library	-9.95531
let	-9.95594
▁captured	-9.95629
ev	-9.95661
▁suggested	-9.95681
▁nation	-9.95707
▁Cor	-9.9573
▁architect	-9.95793
▁Social	-9.95881
▁birth	-9.95923
▁Premier	-9.95927
▁necessary	-9.95933
▁Justice	-9.95952
▁settled	-9.95969
▁Final	-9.96133
▁mountain	-9.96196
▁clubs	-9.9629
▁architecture	-9.96342
▁Airport	-9.9635
▁protection	-9.96376
▁lot	-9.96382
▁connect	-9.96408
▁joint	-9.96425
▁32	-9.96487
▁condition	-9.96618
▁2017.	-9.96677
▁Class	-9.96683
▁twenty	-9.96741
▁Register	-9.96742
▁creating	-9.96742
▁Among	-9.96749
▁newly	-9.96777
▁sign	-9.96798
!"	-9.96808
▁Francis	-9.96842
▁2013.	-9.96945
sky	-9.96989
ft	-9.97009
▁situation	-9.97032
▁provid	-9.9705
▁bi	-9.97122
▁kept	-9.97149
▁Toronto	-9.97168
▁except	-9.97168
▁defined	-9.97224
▁facility	-9.97556
▁Geography	-9.97558
▁Ph	-9.9756
▁analysis	-9.97579
ella	-9.97587
▁Free	-9.97603
▁tower	-9.97729
▁Mc	-9.97777
▁numbers	-9.97961
▁feet	-9.98028
tz	-9.98039
▁determined	-9.98153
▁chairman	-9.9817
▁origin	-9.98182
▁Time	-9.98258
▁claims	-9.98269
▁hold	-9.98287
▁drug	-9.98319
port	-9.98338
▁follow	-9.98358
▁Community	-9.98377
▁expected	-9.98442
▁wood	-9.98462
▁allows	-9.98472
with	-9.98499
▁Area	-9.98626
He	-9.98722
▁connected	-9.9874
▁1973	-9.98745
which	-9.98773
▁Building	-9.9879
▁Main	-9.98839
▁Inter	-9.98856
▁urban	-9.98871
▁publication	-9.98878
▁succeeded	-9.98947
▁allowing	-9.98989
60	-9.99012
ich	-9.9905
▁image	-9.99128
!	-9.99191
▁density	-9.99226
15	-9.99237
▁USA	-9.99271
▁Like	-9.99316
▁Mu	-9.9935
vin	-9.99417
▁tradition	-9.99455
▁Forest	-9.99463
ize	-9.99509
▁application	-9.99564
▁existing	-9.99576
ou	-9.99653
▁holds	-9.99711
▁Che	-9.99743
▁materials	-9.99828
▁1948	-9.99842
▁hall	-9.99843
▁0	-9.99941
▁scientific	-9.99958
▁effort	-9.99992
▁injury	-10.0004
▁Norway	-10.0004
▁cells	-10.0006
▁formation	-10.0023
▁household	-10.0028
▁Tri	-10.0029
ane	-10.0033
▁Region	-10.0034
ari	-10.0036
▁Kar	-10.0038
▁union	-10.0045
▁continues	-10.0045
▁Ge	-10.0046
▁environment	-10.0049
▁authorities	-10.0049
▁block	-10.0055
▁fully	-10.0068
▁/	-10.0069
14	-10.007
▁younger	-10.0078
▁performances	-10.0078
▁Master	-10.0079
▁races	-10.0083
▁episodes	-10.0086
▁critical	-10.0087
▁Ministry	-10.0088
▁Taylor	-10.0089
ica	-10.0089
▁visit	-10.0089
▁deep	-10.0093
▁scheduled	-10.0097
▁founder	-10.0104
?	-10.0115
so	-10.0117
▁Can	-10.0123
▁industrial	-10.0124
▁loan	-10.0128
▁votes	-10.0129
▁simply	-10.0131
▁steel	-10.0131
▁presence	-10.0131
▁secret	-10.0131
ens	-10.0134
▁roof	-10.0135
▁Press	-10.014
▁Andrew	-10.0145
▁Za	-10.0148
ice	-10.0151
We	-10.0158
q	-10.0169
▁audience	-10.0171
▁software	-10.0173
▁Infantry	-10.0173
▁Junior	-10.0174
▁leg	-10.0175
▁7,	-10.0178
▁Khan	-10.0179
▁reason	-10.018
▁fish	-10.0181
▁achieved	-10.0183
res	-10.0185
▁focused	-10.0191
▁arrested	-10.0192
▁super	-10.0199
van	-10.02
od	-10.0202
▁90	-10.0203
▁reference	-10.0205
▁farm	-10.021
▁sexual	-10.021
▁reading	-10.0215
▁Melbourne	-10.0216
▁holding	-10.0218
▁supply	-10.0218
ating	-10.0223
ä	-10.0224
35	-10.023
▁etc	-10.0238
▁commissioned	-10.0239
▁broke	-10.025
▁500	-10.0255
▁seats	-10.0257
+	-10.0258
▁Oxford	-10.0261
ski	-10.0263
▁Q	-10.0265
▁yards	-10.0267
▁18,	-10.0283
▁Ch	-10.0292
ó	-10.0292
▁murder	-10.0295
▁figures	-10.0295
▁simple	-10.0299
▁daily	-10.0302
▁alternative	-10.0302
▁phase	-10.0306
ick	-10.032
▁screen	-10.0323
▁concert	-10.0324
Le	-10.0326
90	-10.0328
ita	-10.0344
▁aged	-10.0344
75	-10.0344
▁opposition	-10.0345
▁retirement	-10.0345
▁read	-10.0353
▁Death	-10.0353
ix	-10.0356
▁tried	-10.0365
▁Ford	-10.0366
▁Pi	-10.0367
▁Ray	-10.0372
▁returning	-10.0372
set	-10.0373
▁1961	-10.0378
▁Han	-10.0384
▁actual	-10.0385
▁billion	-10.0391
▁Cha	-10.0395
cu	-10.0399
▁r	-10.0402
▁Ru	-10.0412
▁learning	-10.0424
▁Network	-10.0433
▁Swedish	-10.0434
▁refused	-10.0439
▁store	-10.0462
▁aid	-10.0467
▁Technology	-10.0476
▁bronze	-10.0476
▁library	-10.0476
ö	-10.0479
▁authority	-10.048
▁Dar	-10.0482
▁advanced	-10.0488
▁rear	-10.0503
▁5,	-10.0504
▁Jim	-10.0504
har	-10.0509
▁du	-10.0511
▁Ga	-10.0513
▁8,	-10.0519
▁memory	-10.052
▁invited	-10.0523
▁something	-10.0523
▁dead	-10.0525
▁Song	-10.0529
▁Lady	-10.053
▁Earl	-10.0532
av	-10.0539
ros	-10.0542
▁granted	-10.0545
▁van	-10.0566
▁Plot	-10.0567
▁baseball	-10.0567
▁2015.	-10.0567
▁temple	-10.0571
▁fleet	-10.0572
ett	-10.0575
▁aired	-10.0577
▁signal	-10.0582
▁shared	-10.0582
▁Er	-10.0587
▁tree	-10.0588
▁Ten	-10.0589
▁aim	-10.0595
▁increasing	-10.0596
ü	-10.0598
▁Maria	-10.0608
▁Kh	-10.0609
▁headquarters	-10.0609
▁Short	-10.0609
▁Ontario	-10.061
▁2009.	-10.0629
▁articles	-10.063
▁equal	-10.0638
▁mm	-10.0639
▁shape	-10.0639
▁Stephen	-10.0652
▁morning	-10.0654
▁Minnesota	-10.0654
▁Medal	-10.0658
▁‘	-10.0659
▁fuel	-10.066
▁iron	-10.0664
▁castle	-10.067
▁concern	-10.0676
▁Head	-10.0683
70	-10.0694
▁Four	-10.0695
▁politics	-10.0698
▁Netherlands	-10.0698
▁planning	-10.0699
▁Supreme	-10.0699
▁Mexican	-10.07
▁grade	-10.0709
▁temperature	-10.0711
can	-10.0717
▁piece	-10.0726
ring	-10.0729
▁failure	-10.0744
▁safety	-10.0744
–18	-10.0747
▁opposed	-10.0752
▁finishing	-10.0753
ay	-10.0754
▁association	-10.0756
▁1977	-10.0759
▁extend	-10.0762
▁classes	-10.0764
▁meant	-10.0764
og	-10.0766
▁begins	-10.0768
nes	-10.077
low	-10.077
▁claim	-10.0772
▁Stone	-10.0779
▁laws	-10.0787
▁Norwegian	-10.0789
▁approved	-10.0792
ō	-10.0793
ram	-10.08
▁machine	-10.0802
▁portion	-10.0803
▁consider	-10.0804
▁highway	-10.0805
▁2018.	-10.0813
▁wear	-10.0823
ano	-10.0828
▁BC	-10.0834
▁Cambridge	-10.0835
▁Business	-10.0837
▁Night	-10.0838
▁occupied	-10.084
▁port	-10.0842
▁sale	-10.0851
mm	-10.0855
▁Book	-10.0861
board	-10.0864
▁compete	-10.087
▁literary	-10.088
▁maximum	-10.0881
lon	-10.0892
▁perform	-10.0896
kar	-10.0897
▁sixth	-10.0897
▁Far	-10.09
▁goes	-10.0902
art	-10.0904
ren	-10.0906
▁greater	-10.0914
▁scale	-10.0925
▁slightly	-10.0929
▁methods	-10.0932
▁mayor	-10.0938
▁Mike	-10.0939
▁theatre	-10.094
▁demand	-10.0946
also	-10.0949
▁resources	-10.0954
ise	-10.0956
▁subsequent	-10.0958
▁extensive	-10.0958
▁successfully	-10.0959
▁effective	-10.0959
▁News	-10.0962
▁Prior	-10.0962
▁formerly	-10.0963
▁environmental	-10.0966
▁Special	-10.0969
▁inspired	-10.0977
▁corner	-10.0978
▁promote	-10.0988
▁n	-10.0988
iz	-10.0989
.5%	-10.0994
▁reports	-10.0995
▁Shi	-10.0996
▁bus	-10.0996
wan	-10.1015
▁Media	-10.1017
▁receiving	-10.1018
▁actress	-10.1018
▁sought	-10.1018
▁Medical	-10.1018
▁Moscow	-10.1019
▁Project	-10.102
▁arts	-10.1022
▁1918	-10.1023
▁Light	-10.1024
▁chosen	-10.1025
▁powerful	-10.1027
ative	-10.1028
▁2016.	-10.1032
▁Ken	-10.1033
▁Ri	-10.1035
▁Bi	-10.1035
▁1975	-10.1039
▁critics	-10.1041
▁End	-10.1052
▁things	-10.1053
hr	-10.1055
▁1957	-10.106
▁1929	-10.1066
▁ending	-10.1067
▁Bob	-10.1071
▁shortly	-10.1083
ub	-10.109
▁speech	-10.1104
▁Miss	-10.1104
▁24,	-10.1106
▁heat	-10.1111
▁Sweden	-10.1112
▁Queensland	-10.1112
▁unknown	-10.1114
▁guest	-10.1131
eg	-10.1132
▁journalist	-10.1138
ell	-10.114
▁global	-10.1143
▁sales	-10.1145
12	-10.1153
▁box	-10.1154
▁centuries	-10.1158
known	-10.1159
▁existence	-10.1161
▁Captain	-10.1161
▁Will	-10.1162
▁36	-10.1167
pro	-10.1171
▁Min	-10.1172
ide	-10.1176
11	-10.1177
▁(;	-10.1178
▁Mountain	-10.1181
▁Ber	-10.1185
▁Band	-10.1187
▁internal	-10.1192
Mo	-10.1192
▁begin	-10.1196
sta	-10.1204
▁cancer	-10.1206
▁stating	-10.1206
▁expansion	-10.1207
bit	-10.1212
▁1955	-10.1213
net	-10.1218
▁Design	-10.1218
▁hotel	-10.1228
▁Albert	-10.1229
gan	-10.1232
▁Muslim	-10.1232
ile	-10.1245
ag	-10.1246
my	-10.1246
▁performing	-10.125
▁comedy	-10.1255
▁say	-10.1257
len	-10.126
▁rank	-10.1261
▁passes	-10.1264
ai	-10.1268
▁avoid	-10.1289
ath	-10.1294
Al	-10.1299
▁vehicles	-10.13
qua	-10.1302
▁Beach	-10.1302
▁starring	-10.1304
▁becomes	-10.1331
val	-10.1333
▁25,	-10.1333
istic	-10.1337
▁villages	-10.1338
▁Is	-10.1343
▁want	-10.1346
illa	-10.1352
▁horse	-10.1353
▁2007.	-10.1358
▁animals	-10.1362
▁Miller	-10.1363
▁Out	-10.137
▁defense	-10.1375
▁1952	-10.1376
▁Rose	-10.1378
▁Ki	-10.1381
▁l	-10.1384
▁dark	-10.1389
▁search	-10.1391
▁1941	-10.1395
▁Federation	-10.1397
▁Philadelphia	-10.1398
▁versions	-10.1398
▁lake	-10.1399
▁brothers	-10.1402
▁cannot	-10.1403
▁Mal	-10.1408
▁Human	-10.1409
▁Anna	-10.1412
eastern	-10.1416
▁founding	-10.142
▁Gu	-10.1428
▁agent	-10.1433
actually	-10.1442
▁entrance	-10.1445
▁dropped	-10.1445
▁foundation	-10.1446
▁1938	-10.1446
▁1917	-10.1446
▁Manchester	-10.1447
▁Though	-10.1448
▁Swiss	-10.1449
▁Bur	-10.1451
fe	-10.1453
▁Ban	-10.1454
▁fans	-10.1455
▁Live	-10.1461
▁covers	-10.1462
▁Yu	-10.1464
pi	-10.1467
▁northeast	-10.1473
▁representative	-10.1475
▁fighting	-10.148
▁Ad	-10.1481
lam	-10.1485
▁towns	-10.1489
▁economy	-10.1493
▁properties	-10.1493
ston	-10.1495
▁reign	-10.1497
▁credit	-10.1499
▁patients	-10.15
▁designated	-10.1509
Ma	-10.1512
zo	-10.1514
▁12,	-10.1516
▁Ku	-10.1519
▁Sar	-10.152
▁pilot	-10.1525
ities	-10.1526
▁2014.	-10.1529
▁basic	-10.1532
▁Hal	-10.1532
▁generation	-10.1535
▁Census	-10.1542
▁Description	-10.1542
▁entitled	-10.1542
▁Channel	-10.1544
water	-10.1544
▁Hotel	-10.1545
▁30,	-10.1549
ory	-10.1551
▁NFL	-10.1551
▁contained	-10.1556
▁someone	-10.156
not	-10.1564
▁height	-10.1573
▁technical	-10.1578
ye	-10.158
▁1951	-10.1595
▁stock	-10.161
▁districts	-10.1618
ula	-10.1619
.4%	-10.162
▁Pope	-10.1621
▁regions	-10.1623
▁establishment	-10.1625
▁Del	-10.1637
▁Television	-10.164
▁appeal	-10.164
▁copies	-10.1641
▁documentary	-10.1641
De	-10.1643
▁applications	-10.1647
▁sell	-10.165
▁[	-10.1651
▁abandoned	-10.1652
▁killing	-10.1655
▁converted	-10.1656
ura	-10.1657
▁Fox	-10.1662
▁stay	-10.1664
fer	-10.1666
▁opera	-10.1667
▁big	-10.1668
▁attacks	-10.1671
▁incident	-10.1672
▁2006.	-10.1672
▁moth	-10.168
▁chair	-10.1681
ble	-10.1685
▁Reception	-10.169
▁NCAA	-10.169
▁contrast	-10.1691
▁qualified	-10.1693
▁script	-10.1695
point	-10.1696
▁Sunday	-10.1696
▁Today	-10.1697
▁Golden	-10.1701
▁proved	-10.1701
▁Fire	-10.1704
▁letters	-10.1712
▁influenced	-10.172
▁15,	-10.1721
tin	-10.1722
▁occur	-10.1723
▁sector	-10.1725
▁Ra	-10.1726
▁programme	-10.1731
▁girl	-10.1732
▁Services	-10.1734
▁Fame	-10.1735
▁causing	-10.174
▁Kansas	-10.174
▁trains	-10.174
▁Tennessee	-10.1741
25	-10.1743
▁Gi	-10.1747
▁10,	-10.1748
▁Sciences	-10.1749
▁frequently	-10.1749
sha	-10.1751
▁engineer	-10.1754
▁rise	-10.1772
▁adult	-10.1775
ika	-10.1776
▁chance	-10.1778
▁wins	-10.1787
▁Emperor	-10.179
▁bodies	-10.179
▁Lewis	-10.179
▁reasons	-10.1791
▁criminal	-10.1792
dan	-10.1794
▁Maryland	-10.1795
▁think	-10.1801
▁counter	-10.1806
▁employed	-10.1807
▁reduce	-10.1809
ero	-10.181
stone	-10.181
▁attempted	-10.1814
▁completely	-10.1817
▁educational	-10.1822
▁Jews	-10.1827
▁fields	-10.1831
▁(16	-10.1832
▁Cal	-10.1837
▁fine	-10.1839
▁airport	-10.1841
▁1953	-10.1842
▁Davis	-10.1842
ff	-10.1843
▁metres	-10.1851
▁MP	-10.1855
▁rail	-10.1857
▁Wa	-10.1858
▁joining	-10.1859
ions	-10.186
▁draft	-10.1864
▁arms	-10.1869
ena	-10.1873
▁crime	-10.1879
air	-10.1889
▁stadium	-10.189
▁Liberal	-10.189
▁Arizona	-10.1892
▁attacked	-10.1894
▁flat	-10.1899
▁display	-10.1903
▁occurs	-10.1906
ray	-10.1909
▁da	-10.1911
cing	-10.1912
▁Chris	-10.1913
▁expressed	-10.1913
▁mind	-10.192
▁weapons	-10.1922
▁sequence	-10.1929
use	-10.1933
▁11,	-10.194
š	-10.1941
▁beyond	-10.1941
▁vice	-10.1943
";	-10.1943
▁enemy	-10.1944
▁maintained	-10.1944
▁1926	-10.1945
▁Point	-10.1949
wi	-10.1968
▁attempts	-10.1968
▁sons	-10.1978
▁matter	-10.1982
▁exhibition	-10.1983
▁supporting	-10.1983
lar	-10.1986
▁Allen	-10.1988
▁Egypt	-10.1989
▁33	-10.1989
▁Christ	-10.1989
▁Wall	-10.1991
▁Constitution	-10.1994
▁Pu	-10.1998
▁passing	-10.2003
▁locations	-10.2004
▁2020.	-10.2004
▁Regional	-10.2007
▁theme	-10.2009
▁ring	-10.2017
▁says	-10.2019
▁peace	-10.2019
▁Bu	-10.2029
mina	-10.2031
ima	-10.2033
▁actions	-10.2035
▁Tar	-10.2037
▁hands	-10.2037
▁Power	-10.204
▁Magazine	-10.2043
▁Square	-10.2043
▁category	-10.2043
▁Political	-10.2044
▁specifically	-10.2045
gon	-10.2048
▁1931	-10.2049
▁1912	-10.2049
zy	-10.205
▁Winter	-10.2071
▁1949	-10.2075
▁institutions	-10.2082
▁Austria	-10.2085
▁price	-10.2091
wing	-10.2092
row	-10.2092
▁racing	-10.2095
▁Prize	-10.2095
▁yellow	-10.2097
▁1922	-10.2098
▁poetry	-10.2098
▁Danish	-10.2099
▁derived	-10.2103
▁Va	-10.2105
▁mining	-10.2106
▁sex	-10.2118
▁enter	-10.2123
▁poet	-10.2138
▁distinct	-10.2141
▁Only	-10.2142
pp	-10.2143
▁ethnic	-10.2145
▁royal	-10.2145
▁hockey	-10.2147
▁Studies	-10.2147
▁Wilson	-10.2148
▁ultimately	-10.2149
▁launch	-10.2152
▁boat	-10.2156
▁formal	-10.2161
21	-10.2167
oma	-10.2168
▁funds	-10.2175
▁Clark	-10.2181
▁strength	-10.2182
▁Carl	-10.2182
▁funding	-10.2184
▁visual	-10.2185
▁des	-10.2185
▁seem	-10.2197
▁reception	-10.2199
▁recognition	-10.2199
▁combat	-10.2199
95	-10.22
▁Switzerland	-10.22
.9%	-10.2201
▁1933	-10.2202
▁Native	-10.2203
▁34	-10.2212
▁boy	-10.2216
▁southeast	-10.2217
▁question	-10.222
▁Hol	-10.2224
.2%	-10.2229
▁Brian	-10.2236
▁forest	-10.2237
▁connection	-10.2249
Star	-10.2251
▁consecutive	-10.2251
▁straight	-10.2251
▁protein	-10.2253
▁residence	-10.2254
▁weather	-10.2254
PA	-10.2254
▁laid	-10.226
▁o	-10.2275
▁starts	-10.2281
▁ways	-10.2283
▁participate	-10.2289
▁System	-10.2302
ns	-10.2304
▁Memorial	-10.2304
▁importance	-10.2304
▁1924	-10.2306
▁Mi	-10.2307
▁switch	-10.2309
▁installed	-10.2311
▁Cape	-10.2312
▁birds	-10.2315
▁suit	-10.2315
east	-10.2315
▁reform	-10.2316
▁sides	-10.2316
ato	-10.2319
▁exist	-10.2321
▁premiered	-10.2323
▁Matt	-10.2324
▁independence	-10.2324
▁trained	-10.2325
▁38	-10.2328
▁target	-10.2332
▁permanent	-10.2344
▁FM	-10.2344
tus	-10.235
▁1959	-10.2353
▁religion	-10.2354
▁2019.	-10.2356
▁domestic	-10.2356
▁Puerto	-10.2357
▁Turkey	-10.2357
▁entry	-10.2357
▁Labour	-10.2357
▁About	-10.2358
▁Bre	-10.2358
▁Township	-10.2358
▁Islamic	-10.2359
▁background	-10.2361
▁albums	-10.2363
▁Mad	-10.2364
ada	-10.2366
▁contest	-10.2376
▁Bel	-10.2381
13	-10.2381
bert	-10.2397
▁rare	-10.2397
▁Philippines	-10.2399
▁trees	-10.2403
▁believe	-10.2403
16	-10.2406
▁investigation	-10.2407
▁introduction	-10.241
▁Denmark	-10.241
39	-10.241
▁worldwide	-10.2411
▁Executive	-10.2411
▁Lincoln	-10.2411
▁storm	-10.2413
▁distributed	-10.2415
▁|	-10.2422
▁request	-10.2429
▁onto	-10.2431
▁retain	-10.2433
27	-10.2436
▁learn	-10.2438
▁(1	-10.2443
light	-10.2444
▁improve	-10.2447
▁drive	-10.2451
▁engineering	-10.2458
▁Singapore	-10.2463
▁crowd	-10.2463
▁opportunity	-10.2463
▁vehicle	-10.2465
▁engaged	-10.247
▁Good	-10.2472
cal	-10.2475
▁collected	-10.2481
ute	-10.2485
▁Not	-10.2486
▁registered	-10.2487
ator	-10.2493
▁offices	-10.2505
▁journal	-10.2509
▁1946	-10.2514
▁notes	-10.2516
▁ceremony	-10.2517
▁Colorado	-10.2517
▁Wisconsin	-10.2518
▁concluded	-10.2519
▁rugby	-10.252
▁marine	-10.2522
▁setting	-10.2524
▁observed	-10.2525
=	-10.2526
▁1915	-10.2526
▁incorporated	-10.2529
▁Guard	-10.253
▁ideas	-10.2531
▁Revolution	-10.2538
▁charged	-10.2541
▁See	-10.2546
▁understanding	-10.2549
see	-10.255
▁extension	-10.2571
▁Kentucky	-10.2571
▁junior	-10.2571
▁fought	-10.2571
▁neighborhood	-10.2572
▁1936	-10.2573
▁passenger	-10.2575
▁Turkish	-10.2576
▁glass	-10.2578
▁functions	-10.2584
▁mean	-10.2591
▁Ocean	-10.2592
▁y	-10.2593
her	-10.2594
It	-10.2596
term	-10.2598
▁Tim	-10.2599
▁narrow	-10.2612
western	-10.2619
az	-10.2623
ability	-10.2624
▁constituency	-10.2626
▁nuclear	-10.2626
▁Professional	-10.2626
▁Missouri	-10.2628
▁Christmas	-10.263
▁1910	-10.2631
▁inhabitants	-10.2637
32	-10.2639
▁Sky	-10.2641
▁27,	-10.2644
▁400	-10.2645
▁EP	-10.2648
▁address	-10.2651
kh	-10.2658
▁Fair	-10.2659
▁wind	-10.2666
▁1965	-10.2667
▁Val	-10.267
▁2.	-10.2675
▁Israeli	-10.2675
sch	-10.2679
▁closely	-10.2679
▁admitted	-10.268
▁Tournament	-10.2682
▁duty	-10.2682
iya	-10.2688
▁carry	-10.2699
86	-10.2708
▁acts	-10.2714
▁13,	-10.2715
▁brief	-10.2721
▁sport	-10.2722
▁26,	-10.2725
17	-10.2727
▁judge	-10.273
▁Kim	-10.273
▁lyrics	-10.2734
▁Administration	-10.2735
▁Communist	-10.2737
▁motor	-10.2738
▁1900	-10.2738
▁negative	-10.2738
▁expression	-10.2741
▁factors	-10.2743
▁Mor	-10.2744
▁volume	-10.2748
▁standards	-10.2749
▁girls	-10.2752
▁vocals	-10.2755
nt	-10.2766
▁classic	-10.2768
▁Sri	-10.2784
▁guns	-10.2786
▁Ya	-10.2787
▁Howard	-10.2794
▁possibly	-10.2794
▁composer	-10.2798
▁motion	-10.28
▁electric	-10.2802
▁Ti	-10.2821
▁pick	-10.2828
SA	-10.2832
▁purchase	-10.2833
▁bill	-10.2835
▁reserve	-10.2841
▁Legislati	-10.2846
▁occupation	-10.2846
▁jazz	-10.2846
▁Oregon	-10.2849
▁22,	-10.2852
▁1928	-10.2854
ip	-10.2855
▁Walter	-10.2856
including	-10.2859
▁cycle	-10.2864
▁feel	-10.2873
▁statement	-10.2874
rat	-10.2876
▁cricket	-10.2876
▁Bal	-10.2888
án	-10.289
▁Simon	-10.2891
▁edge	-10.2893
▁regiment	-10.2901
▁Senior	-10.2902
▁Reserve	-10.2902
▁Gordon	-10.2902
▁provincial	-10.2903
▁accompani	-10.2903
▁Dor	-10.2904
▁1919	-10.2905
▁Naval	-10.2909
▁merged	-10.2909
▁benefit	-10.2911
▁Vice	-10.2914
ju	-10.2923
ec	-10.2925
▁respect	-10.2928
.3%	-10.2928
isation	-10.293
▁describes	-10.2937
▁minute	-10.294
▁chain	-10.294
▁Bowl	-10.2947
▁advance	-10.295
▁beat	-10.2953
▁1914	-10.2954
▁Thus	-10.2956
▁identity	-10.2958
▁Argentina	-10.2959
▁secretary	-10.2963
▁Down	-10.2965
▁am	-10.2967
ef	-10.2968
▁task	-10.2968
▁developing	-10.297
tt	-10.2972
▁core	-10.298
▁employees	-10.2985
▁Ram	-10.2986
ire	-10.2986
▁Sp	-10.2992
▁user	-10.2994
▁needs	-10.2997
24	-10.3
▁serious	-10.3001
bin	-10.3003
▁Anne	-10.3004
▁IV	-10.3004
▁seventh	-10.3004
▁nor	-10.3004
▁Arm	-10.3009
our	-10.301
▁flow	-10.3012
▁Battalion	-10.3015
▁heritage	-10.3015
▁SR	-10.3015
▁operate	-10.3016
▁Disney	-10.3017
▁parallel	-10.3018
▁Country	-10.3019
▁coal	-10.3025
▁Six	-10.3026
▁resigned	-10.3027
General	-10.3028
IS	-10.3031
▁9,	-10.3032
▁Places	-10.3041
▁attend	-10.3048
gin	-10.3049
▁competitions	-10.3055
▁14,	-10.3062
▁ball	-10.3063
▁escape	-10.3067
▁details	-10.3069
▁Security	-10.3071
▁producing	-10.3071
who	-10.3073
▁Arab	-10.3076
▁musicians	-10.308
▁collaboration	-10.3083
▁appointment	-10.3083
▁selection	-10.3085
rid	-10.3092
ding	-10.3092
▁dates	-10.3095
Ca	-10.3097
▁affected	-10.3099
88	-10.3101
▁Marine	-10.3102
▁Way	-10.3103
▁faced	-10.3104
▁se	-10.3113
▁step	-10.3114
▁Notabl	-10.3119
▁us	-10.3123
▁techniques	-10.3124
▁Operation	-10.3125
▁citizens	-10.3125
▁calls	-10.3126
▁Sen	-10.3128
▁fast	-10.3128
▁twelve	-10.3128
▁resistance	-10.3129
▁habitat	-10.3132
ban	-10.3134
pat	-10.3135
season	-10.314
ret	-10.3142
▁Mayor	-10.3151
▁Commander	-10.3152
▁Ross	-10.3173
▁chose	-10.3177
bre	-10.318
▁favor	-10.3182
▁sole	-10.3184
▁Montreal	-10.3186
▁Samuel	-10.3186
▁Prix	-10.3187
▁violence	-10.3187
▁1934	-10.3188
▁Harry	-10.3189
▁herself	-10.3191
▁briefly	-10.32
▁historian	-10.3203
pin	-10.3204
▁interior	-10.3206
▁Program	-10.3217
▁entirely	-10.322
ery	-10.3222
dra	-10.3222
▁23,	-10.3223
▁21,	-10.3228
ever	-10.323
45	-10.3231
▁Holy	-10.3234
▁typical	-10.3235
▁agricultural	-10.3236
del	-10.3244
▁personnel	-10.3244
▁37	-10.3245
rum	-10.3245
tan	-10.3246
▁Bureau	-10.3246
▁Track	-10.3247
▁1921	-10.3248
▁argued	-10.3249
▁offering	-10.3252
▁watch	-10.3259
cher	-10.3261
▁Indiana	-10.3262
▁reaction	-10.3263
.7%	-10.3264
▁foot	-10.3265
▁ca	-10.3266
▁Works	-10.3267
ight	-10.3269
▁Iron	-10.3269
yan	-10.327
▁voted	-10.3276
▁44	-10.3279
iv	-10.3283
west	-10.3285
▁buy	-10.3289
ball	-10.3292
▁Je	-10.3301
▁crossing	-10.3301
▁earliest	-10.3302
▁Commonwealth	-10.3302
▁Management	-10.3302
▁Modern	-10.3307
lis	-10.3307
▁praised	-10.3312
26	-10.3315
abad	-10.3317
▁singing	-10.3321
▁sections	-10.3325
To	-10.3327
▁Hot	-10.3328
ping	-10.333
99	-10.333
▁zone	-10.333
▁Test	-10.333
▁driver	-10.3331
▁Com	-10.3332
▁stands	-10.3334
right	-10.3334
▁cold	-10.3335
.8%	-10.3339
▁mile	-10.3344
▁1962	-10.3347
▁really	-10.3349
▁users	-10.3361
▁Foreign	-10.3362
▁criticism	-10.3362
▁educated	-10.3367
48	-10.3375
▁Sol	-10.3376
▁device	-10.3381
▁controlled	-10.3382
ug	-10.3383
▁values	-10.3386
▁acid	-10.3386
ky	-10.3387
▁candidates	-10.339
▁talk	-10.3391
dar	-10.3392
▁covering	-10.3411
▁Fe	-10.3411
▁Ed	-10.3414
▁fly	-10.3418
▁Greece	-10.3419
▁adjacent	-10.3419
▁committed	-10.3419
▁Oklahoma	-10.342
▁Hungarian	-10.3426
▁1890	-10.3427
▁Space	-10.3429
tes	-10.3433
▁musician	-10.3434
yard	-10.3434
▁advantage	-10.3439
▁heard	-10.344
▁Member	-10.3441
▁walls	-10.3443
▁rich	-10.3449
▁Mel	-10.3449
▁determine	-10.3454
▁slow	-10.3454
▁armed	-10.3457
▁trans	-10.3462
▁grant	-10.3469
dal	-10.3471
ox	-10.3478
▁Connecticut	-10.3479
▁Lieutenant	-10.348
▁vary	-10.3484
▁Ex	-10.3484
▁doing	-10.3484
hl	-10.3486
run	-10.3492
▁broad	-10.3494
▁card	-10.3498
▁write	-10.35
▁successor	-10.3502
41	-10.3512
ea	-10.3515
▁pieces	-10.3524
▁bit	-10.3531
▁micro	-10.3536
]	-10.3537
▁heavily	-10.3538
▁injured	-10.3538
▁28,	-10.3538
▁DVD	-10.354
▁1927	-10.354
▁hired	-10.3541
▁budget	-10.3541
▁Anti	-10.3543
▁decades	-10.3544
▁survived	-10.3547
▁sets	-10.3547
An	-10.3554
▁Sub	-10.3555
▁shooting	-10.3556
▁reflect	-10.3558
▁Production	-10.3562
▁your	-10.3562
▁organisation	-10.3563
▁Mill	-10.3563
▁trip	-10.3564
▁writers	-10.3566
.1%	-10.3567
-20	-10.3569
▁spot	-10.3569
▁f	-10.3585
▁arm	-10.3591
▁Hamilton	-10.3595
▁Vietnam	-10.3597
▁Anthony	-10.3598
▁involving	-10.3598
▁Brigade	-10.3598
▁piano	-10.3598
▁Douglas	-10.3599
▁agency	-10.36
▁Temple	-10.3605
uch	-10.3612
quite	-10.3616
▁grow	-10.3622
00	-10.3629
▁calling	-10.3633
ova	-10.3646
▁Representatives	-10.3648
bra	-10.3656
work	-10.3657
▁Quebec	-10.3658
▁dynasty	-10.3658
▁Frederick	-10.3659
▁Ukraine	-10.366
▁assumed	-10.3662
hy	-10.3662
▁Real	-10.3664
▁accused	-10.3669
nan	-10.367
aka	-10.3672
US	-10.3674
▁instance	-10.3684
▁honour	-10.3685
▁ahead	-10.3692
▁fund	-10.3711
oc	-10.3715
▁Tan	-10.3718
▁medicine	-10.3719
▁medium	-10.3719
▁$3	-10.3719
▁Palace	-10.372
▁Belgium	-10.3721
▁Silver	-10.3722
▁classical	-10.3724
▁labor	-10.3729
▁structures	-10.3731
▁electronic	-10.3735
▁Sh	-10.3735
▁improved	-10.3735
Billboard	-10.3736
▁losses	-10.3738
yo	-10.3748
▁seek	-10.375
▁capture	-10.3768
ack	-10.3774
bury	-10.3774
▁Cemetery	-10.378
ama	-10.378
▁Local	-10.378
▁bottom	-10.3783
▁mo	-10.3783
▁tropical	-10.3784
▁Additionally	-10.3785
▁Tony	-10.3787
▁Ju	-10.379
▁scenes	-10.3802
▁sponsor	-10.3803
uff	-10.3804
▁Youth	-10.3805
▁obtain	-10.3808
ep	-10.3813
▁survey	-10.3828
▁hour	-10.384
▁arrival	-10.3841
▁kill	-10.3841
://	-10.3841
▁opposite	-10.3841
▁why	-10.3841
▁items	-10.3842
▁1923	-10.3844
▁31,	-10.3848
▁critic	-10.3849
▁Engineering	-10.3851
▁humans	-10.3851
▁Ball	-10.3855
▁choice	-10.386
▁29,	-10.3863
▁Affairs	-10.3863
.6%	-10.3864
col	-10.3866
par	-10.3866
▁ruled	-10.3871
iff	-10.3873
mat	-10.3876
▁painter	-10.3878
▁Gen	-10.3884
ida	-10.3886
▁grounds	-10.3889
▁object	-10.3889
Ch	-10.389
38	-10.3891
76	-10.3892
▁Even	-10.3893
▁Ol	-10.3895
▁Steve	-10.3896
08	-10.3899
▁hair	-10.3899
▁wine	-10.3899
star	-10.39
▁invasion	-10.3903
▁caught	-10.3903
▁Anderson	-10.3904
▁let	-10.3904
▁programming	-10.3904
▁Third	-10.3908
▁tries	-10.391
part	-10.3915
▁accident	-10.3923
▁Pen	-10.3925
act	-10.393
▁banks	-10.3938
▁don	-10.3954
▁wave	-10.3957
▁costs	-10.3962
ă	-10.3965
▁Cleveland	-10.3965
▁Rugby	-10.3965
▁stopped	-10.3965
▁CEO	-10.3966
▁challenge	-10.3974
▁link	-10.3974
▁skills	-10.3981
Ka	-10.3981
rick	-10.3984
28	-10.3989
▁ha	-10.399
▁conduct	-10.3991
▁scholar	-10.3999
▁FA	-10.401
▁achieve	-10.4011
▁Bas	-10.4012
▁southwest	-10.4012
.0%	-10.4015
▁powers	-10.4017
▁tail	-10.4018
No	-10.402
▁fashion	-10.4025
ão	-10.4027
▁Detroit	-10.4029
▁Work	-10.4029
▁engines	-10.403
▁roads	-10.4031
ib	-10.4031
▁Ltd	-10.4031
▁prisoners	-10.4045
uri	-10.405
▁behavior	-10.4054
▁49	-10.4058
▁Gor	-10.4058
▁mis	-10.4058
▁partnership	-10.4064
▁businesses	-10.4065
▁Cho	-10.4067
▁gene	-10.4071
59	-10.4075
▁operates	-10.4077
?"	-10.4085
▁COVID	-10.409
▁franchise	-10.409
▁Hollywood	-10.4091
▁16,	-10.4091
▁nothing	-10.4091
▁snow	-10.4092
▁1932	-10.4092
▁1911	-10.4096
ado	-10.4098
tel	-10.4099
hill	-10.4104
▁cup	-10.4104
▁fear	-10.4105
MS	-10.4107
▁Ci	-10.411
▁examples	-10.4115
gra	-10.4116
▁looking	-10.4117
gh	-10.4121
king	-10.4123
El	-10.4123
▁Now	-10.4128
▁17,	-10.4129
▁pattern	-10.4129
▁Honor	-10.4129
▁purposes	-10.413
lla	-10.413
.9	-10.4132
ón	-10.4132
Man	-10.4135
▁standing	-10.4148
▁path	-10.415
nie	-10.4152
▁comic	-10.4153
▁childhood	-10.4154
▁Finland	-10.4154
▁tennis	-10.4154
▁philosophy	-10.4155
▁elevation	-10.4156
▁depth	-10.4157
▁Chairman	-10.4162
▁extremely	-10.4163
▁64	-10.4166
▁teachers	-10.4177
▁winners	-10.4181
▁linked	-10.4187
▁send	-10.419
▁Command	-10.4191
ew	-10.4191
▁Grant	-10.4191
▁brick	-10.4192
▁Sand	-10.4195
rt	-10.4197
▁session	-10.4198
ified	-10.4204
▁Officer	-10.4204
▁secure	-10.4208
▁reputation	-10.4217
▁Squadron	-10.4217
▁penalty	-10.4217
▁filed	-10.4229
▁sp	-10.4238
▁represents	-10.4247
▁eye	-10.4248
mor	-10.4251
31	-10.4251
▁limit	-10.4254
▁regularly	-10.4263
▁option	-10.4273
▁transition	-10.4274
▁Ly	-10.4284
▁1935	-10.4284
▁dress	-10.4286
ax	-10.4287
▁mobile	-10.4287
▁Season	-10.429
▁Rio	-10.4291
▁brown	-10.4291
▁39	-10.4297
▁severe	-10.4298
▁coastal	-10.4301
called	-10.4304
All	-10.4306
▁meters	-10.4308
▁Dam	-10.4309
▁replace	-10.431
▁lands	-10.4313
▁Farm	-10.4315
85	-10.4323
▁composition	-10.4324
ins	-10.4326
▁stores	-10.4332
enberg	-10.4333
▁Then	-10.4334
ations	-10.4338
▁Forces	-10.4342
▁Demographics	-10.4346
▁easily	-10.4346
cia	-10.4346
▁residential	-10.4347
▁Tamil	-10.4347
▁(2	-10.4348
▁Iowa	-10.4348
▁Ottoman	-10.435
▁starred	-10.435
▁Gulf	-10.435
▁Metro	-10.4357
ington	-10.436
ati	-10.4366
AC	-10.4371
ili	-10.4371
pre	-10.4374
▁20,	-10.4375
%	-10.4375
▁accept	-10.4376
▁charges	-10.4379
▁strike	-10.4387
▁credited	-10.4389
37	-10.4391
▁lawyer	-10.4391
▁northwest	-10.4393
▁rescue	-10.4396
▁rating	-10.4406
amp	-10.4408
cker	-10.4408
▁Liverpool	-10.4411
▁nickname	-10.4411
▁parliament	-10.4411
▁Hockey	-10.4411
▁stood	-10.4411
▁Miami	-10.4411
▁Jay	-10.4413
▁Portuguese	-10.4413
▁output	-10.4414
▁greatest	-10.4416
▁Independent	-10.4417
▁1925	-10.4417
▁Tre	-10.4417
▁solid	-10.4418
▁Sound	-10.4421
▁missing	-10.4423
▁solution	-10.4423
aw	-10.4426
ock	-10.4428
▁drawn	-10.443
▁Orchestra	-10.4438
ries	-10.444
level	-10.4442
cent	-10.4447
▁prize	-10.4457
▁hundred	-10.4458
▁doctor	-10.4461
36	-10.4462
▁animal	-10.4466
▁Harris	-10.4468
▁Week	-10.4469
▁steam	-10.4474
kov	-10.4475
▁Mississippi	-10.4476
▁artillery	-10.4476
▁Baseball	-10.4476
▁architectural	-10.4476
▁et	-10.4478
▁intelligence	-10.4479
▁getting	-10.448
▁rejected	-10.448
▁Colonel	-10.4481
▁Hungary	-10.4482
▁translated	-10.4482
▁Saturday	-10.4483
▁brain	-10.4484
mont	-10.4484
▁seems	-10.4484
Ha	-10.4486
▁selling	-10.4487
EC	-10.4488
lay	-10.4493
23	-10.4495
dale	-10.4496
▁Boy	-10.4497
din	-10.4497
▁Call	-10.4503
▁Adam	-10.4508
rin	-10.4509
Con	-10.4518
62	-10.4521
▁significantly	-10.4523
▁picture	-10.4525
lock	-10.4526
bb	-10.4526
▁ill	-10.4529
▁42	-10.4534
▁crisis	-10.4542
▁1937	-10.4542
▁assistance	-10.4542
▁fiction	-10.4548
▁Entertainment	-10.4549
▁images	-10.4553
▁1916	-10.4554
Ro	-10.4555
▁rates	-10.4556
▁Austrian	-10.4557
dle	-10.4561
▁Bush	-10.4568
▁causes	-10.4568
▁rooms	-10.4573
izing	-10.4576
▁Vo	-10.4577
▁Im	-10.458
zu	-10.4583
▁practices	-10.4586
ei	-10.4589
▁Gra	-10.4595
▁photo	-10.4602
▁plot	-10.4606
▁hot	-10.4607
▁biggest	-10.4608
▁Louisiana	-10.4608
▁Robinson	-10.4609
▁Jesus	-10.461
▁Mid	-10.461
▁Patrick	-10.4612
▁Chart	-10.4612
▁Children	-10.4613
▁goods	-10.4616
▁ends	-10.4619
ob	-10.4623
▁hill	-10.4624
▁Five	-10.4627
▁Ham	-10.4627
29	-10.464
▁der	-10.4641
71	-10.4643
▁Juan	-10.4644
▁prime	-10.4644
▁x	-10.4655
▁valley	-10.4659
▁poem	-10.4661
▁th	-10.4665
▁champions	-10.4667
▁Part	-10.467
▁municipal	-10.4674
à	-10.4675
▁commune	-10.4675
▁replacement	-10.4677
▁Max	-10.4678
▁Cu	-10.4678
▁equivalent	-10.4678
▁racial	-10.4679
FM	-10.4679
▁fired	-10.468
▁reality	-10.4681
▁dry	-10.4681
▁colonial	-10.4682
="	-10.4683
▁membership	-10.4683
1,	-10.4684
▁context	-10.4684
▁islands	-10.4686
ria	-10.4687
▁Bus	-10.4688
med	-10.4689
▁Mur	-10.469
▁net	-10.4694
▁Ash	-10.4699
-3	-10.47
01	-10.4703
▁didn	-10.4703
▁Nazi	-10.4703
▁filled	-10.4706
▁Philip	-10.4716
▁graduate	-10.4717
▁fan	-10.4728
▁Review	-10.4728
▁Mat	-10.473
top	-10.4737
▁Ger	-10.4738
57	-10.4739
lie	-10.474
▁Seven	-10.474
▁ensure	-10.4741
▁Metropolitan	-10.4742
▁railroad	-10.4742
▁trail	-10.4742
jan	-10.4744
▁folk	-10.4746
▁passage	-10.4746
▁Brazilian	-10.4746
▁Champions	-10.4746
▁Armenian	-10.4748
itz	-10.4749
▁grand	-10.4753
▁contributions	-10.4753
▁rose	-10.4755
2.	-10.476
MA	-10.4764
▁Dun	-10.4764
▁Nick	-10.4769
▁Char	-10.4774
My	-10.4774
ić	-10.4774
▁adding	-10.4776
▁debuted	-10.4792
▁raise	-10.4795
▁combination	-10.4798
▁translation	-10.4799
▁Studios	-10.4803
▁links	-10.4803
▁$1	-10.4806
▁frame	-10.4808
▁gets	-10.4809
▁controversy	-10.4809
▁journey	-10.4809
▁Nelson	-10.4809
▁Railroad	-10.4809
▁defence	-10.4812
▁Heritage	-10.4812
▁Front	-10.4813
▁Antonio	-10.4814
▁Village	-10.4821
▁suburb	-10.4823
▁broken	-10.4828
ric	-10.4832
kan	-10.4833
lia	-10.4835
elli	-10.4835
either	-10.4839
▁scholars	-10.4839
ct	-10.4841
eo	-10.4844
▁Mer	-10.4845
▁19,	-10.4846
▁retained	-10.4851
▁measure	-10.4854
▁participants	-10.4861
▁Mont	-10.4866
▁mental	-10.4868
▁reveal	-10.487
▁Base	-10.487
oy	-10.4873
▁Ann	-10.4875
▁memorial	-10.4877
▁responsibility	-10.4877
Li	-10.488
▁homes	-10.488
▁coverage	-10.4881
▁bass	-10.4883
▁township	-10.4884
47	-10.4885
▁Mon	-10.4893
▁celebrated	-10.4896
ami	-10.4899
▁colour	-10.4907
eb	-10.4911
Co	-10.4921
▁SS	-10.4924
▁finds	-10.4925
uc	-10.4929
▁Glen	-10.4935
och	-10.4935
▁description	-10.4935
▁priest	-10.4936
▁Indonesia	-10.4938
cus	-10.4941
▁Czech	-10.4946
▁Edinburgh	-10.4946
▁José	-10.4946
▁Campbell	-10.4946
▁Convention	-10.4947
▁Singh	-10.4947
▁bad	-10.4947
▁ownership	-10.4947
▁Yorkshire	-10.4948
▁arch	-10.4948
▁1913	-10.4949
▁1904	-10.4949
▁Yo	-10.495
▁Mission	-10.4951
SC	-10.4952
▁restored	-10.4953
shi	-10.4955
fu	-10.4956
▁factor	-10.4958
-4	-10.4962
bal	-10.4967
▁tend	-10.4967
▁delivered	-10.4971
▁formally	-10.4972
▁Age	-10.4973
rew	-10.4975
▁Pop	-10.4976
▁suggests	-10.4977
qu	-10.4982
ela	-10.4982
gel	-10.4987
▁views	-10.4989
▁debate	-10.499
style	-10.4991
AM	-10.4999
▁proper	-10.5005
▁replac	-10.5006
▁restaurant	-10.5007
▁shop	-10.5008
▁fruit	-10.5009
▁Journal	-10.5009
▁decade	-10.5009
fin	-10.501
fo	-10.501
▁passengers	-10.5012
▁sand	-10.5013
▁Deputy	-10.5015
▁legislation	-10.5015
▁policies	-10.5015
▁Dublin	-10.5015
▁1905	-10.5018
96	-10.5018
▁Player	-10.5019
▁wild	-10.5019
▁gender	-10.502
▁Round	-10.5022
▁paintings	-10.5024
▁alleged	-10.5024
▁popularity	-10.5024
98	-10.5031
č	-10.5032
ene	-10.5033
42	-10.5033
49	-10.5035
▁48	-10.5037
▁Lower	-10.5037
bat	-10.5038
▁Phil	-10.504
▁kick	-10.5041
vis	-10.5049
nic	-10.505
▁flows	-10.5051
tha	-10.5053
▁300	-10.5055
sey	-10.5055
▁persons	-10.5058
▁Roger	-10.5061
km	-10.5061
▁interested	-10.5069
▁carrying	-10.5069
▁flag	-10.507
ī	-10.5074
▁Os	-10.5074
09	-10.5075
▁rival	-10.5076
▁expedition	-10.5076
78	-10.5077
▁segment	-10.5078
▁window	-10.508
▁Vienna	-10.5084
▁routes	-10.5085
▁Thompson	-10.5086
▁Morgan	-10.5086
▁dating	-10.5087
▁notably	-10.5092
oid	-10.5092
▁publishing	-10.51
▁painted	-10.5108
▁testing	-10.5113
64	-10.5113
▁courses	-10.5115
non	-10.5121
▁AD	-10.5133
▁Moore	-10.5133
▁artistic	-10.5139
▁divisions	-10.5143
ned	-10.5144
▁tall	-10.5145
-18	-10.5149
▁Champion	-10.5152
▁Spring	-10.5153
▁communication	-10.5154
▁Harvard	-10.5154
▁palace	-10.5154
▁Gallery	-10.5154
.”	-10.5155
▁pool	-10.5156
▁Alabama	-10.5157
▁Trust	-10.5159
▁1880	-10.5159
▁windows	-10.516
▁Hindu	-10.5163
▁save	-10.5165
▁encouraged	-10.5166
▁Las	-10.5168
▁medals	-10.5175
▁web	-10.5176
elle	-10.5176
▁nations	-10.5179
▁Jane	-10.5181
▁damaged	-10.5183
▁protest	-10.5184
ken	-10.5186
▁Ac	-10.5186
▁progress	-10.5187
▁objects	-10.5187
▁interests	-10.5197
▁experienced	-10.5198
▁aspects	-10.5202
ora	-10.5204
Pa	-10.5205
tte	-10.5209
ii	-10.5213
▁Iraq	-10.5214
election	-10.5215
▁streets	-10.5215
55	-10.5216
des	-10.5217
fr	-10.5218
unable	-10.522
▁competitive	-10.5225
▁minimum	-10.5225
▁surviving	-10.5225
▁Houston	-10.5227
▁1907	-10.5227
var	-10.5234
▁print	-10.5234
▁branches	-10.524
▁Kal	-10.5246
▁evening	-10.5251
mmer	-10.5254
worth	-10.5258
44	-10.5264
▁1954	-10.5266
ave	-10.5268
▁thousands	-10.5272
▁whereas	-10.5281
log	-10.5291
▁Ag	-10.5292
▁investment	-10.5293
ning	-10.5294
▁driving	-10.5296
33	-10.5296
▁somewhat	-10.5297
▁Trump	-10.5297
▁freedom	-10.5297
▁Welsh	-10.5298
▁appropriate	-10.5298
▁attached	-10.5303
▁authors	-10.5303
such	-10.5304
▁forests	-10.5309
▁adapted	-10.5311
54	-10.5312
Ra	-10.5312
eng	-10.5313
down	-10.5316
▁vision	-10.5316
▁Ser	-10.5319
▁courts	-10.532
▁defeating	-10.5323
34	-10.5326
▁Heart	-10.5333
▁Ab	-10.5334
▁Mountains	-10.5335
▁Bor	-10.5336
▁degrees	-10.5342
▁Billy	-10.5344
burg	-10.5345
▁commission	-10.5346
ming	-10.5347
pri	-10.5349
06	-10.535
▁constant	-10.5353
su	-10.5361
▁soil	-10.5364
▁vessels	-10.5365
▁Cathedral	-10.5367
▁Meanwhile	-10.5367
▁trading	-10.5367
▁Diego	-10.5368
▁Global	-10.537
aga	-10.5373
▁manner	-10.5373
▁criticized	-10.5373
▁networks	-10.5374
▁Ron	-10.5375
▁app	-10.5376
ole	-10.5377
▁Mass	-10.5386
▁bird	-10.5388
▁garden	-10.5389
▁indicated	-10.5401
Ba	-10.5402
▁Mag	-10.5404
22	-10.5404
▁safe	-10.5405
▁document	-10.5406
▁Rights	-10.5406
int	-10.5414
▁orders	-10.5423
▁license	-10.5424
▁150	-10.5428
▁UN	-10.5429
are	-10.543
▁Marie	-10.5436
RA	-10.5438
▁anniversary	-10.5439
▁resolution	-10.544
▁visiting	-10.544
▁vessel	-10.5441
▁circuit	-10.5443
ves	-10.5444
▁Walker	-10.5445
▁stable	-10.5446
IC	-10.5447
▁tri	-10.5451
▁mouth	-10.5452
▁edited	-10.5452
▁wounded	-10.5456
zar	-10.5461
▁Raj	-10.5464
master	-10.5475
▁depict	-10.5476
▁Roy	-10.5476
▁Kent	-10.5479
▁annually	-10.5485
▁stayed	-10.5487
▁Tur	-10.5489
▁concerns	-10.5496
sur	-10.5498
200	-10.5502
ique	-10.5504
▁innings	-10.551
▁Through	-10.5511
Di	-10.5511
▁reportedly	-10.5511
▁defensive	-10.5511
▁rain	-10.5512
▁Racing	-10.5512
▁Tower	-10.5513
▁Margaret	-10.5514
▁element	-10.5515
▁Ve	-10.5515
▁Norman	-10.5519
▁(15	-10.552
▁cap	-10.5523
▁fixed	-10.5525
▁duo	-10.5529
ona	-10.5531
ua	-10.5531
▁par	-10.5539
▁Fo	-10.554
▁correct	-10.554
book	-10.5544
▁printed	-10.5545
▁crown	-10.5552
▁weekly	-10.5556
ular	-10.558
ification	-10.5582
▁Orthodox	-10.5584
▁faculty	-10.5584
▁amateur	-10.5584
▁duties	-10.5585
▁sufficient	-10.5587
▁completion	-10.5587
mus	-10.5587
▁Express	-10.5588
ale	-10.5591
▁technique	-10.5592
▁leads	-10.5595
▁threatened	-10.5595
lat	-10.5598
▁55	-10.5606
▁prepared	-10.5611
▁Dance	-10.5612
tta	-10.5613
▁learned	-10.5629
▁check	-10.563
▁churches	-10.5634
▁Play	-10.5637
gal	-10.5643
▁victims	-10.5646
▁acted	-10.5648
▁claiming	-10.5654
▁documents	-10.5657
▁assembly	-10.5658
▁competing	-10.5658
▁opportunities	-10.5658
▁cousin	-10.5658
▁Kevin	-10.5659
▁Ukrainian	-10.566
▁downtown	-10.5662
die	-10.5664
▁proposal	-10.5664
▁1909	-10.5665
Do	-10.5667
▁47	-10.5669
▁Kan	-10.567
▁Doctor	-10.5671
▁representation	-10.5671
–17	-10.5673
▁abroad	-10.5673
aya	-10.5674
▁spin	-10.5676
79	-10.5676
awa	-10.5678
▁Bad	-10.5679
▁Crown	-10.568
▁mark	-10.5681
▁landing	-10.5689
▁DC	-10.569
▁posted	-10.5693
▁Ji	-10.5694
▁ratio	-10.5694
▁Maine	-10.5695
RC	-10.5702
tain	-10.5703
ase	-10.5711
hand	-10.5713
Be	-10.5716
▁schedule	-10.5717
▁Fu	-10.5718
▁entering	-10.5719
▁headed	-10.5722
nal	-10.5729
▁mode	-10.5731
und	-10.5731
▁visible	-10.5732
▁Staff	-10.5735
▁showing	-10.5735
▁column	-10.5737
▁hop	-10.5741
05	-10.5743
▁Adams	-10.5744
▁chemical	-10.5748
▁note	-10.5753
▁attracted	-10.5757
▁stages	-10.5763
▁Pra	-10.5768
▁Mrs	-10.5768
▁meets	-10.5771
af	-10.5773
▁arrest	-10.5781
▁Athletics	-10.5785
▁flying	-10.5786
cul	-10.5793
tern	-10.5793
▁door	-10.5795
▁Rob	-10.5797
▁mine	-10.5797
ien	-10.58
▁spoke	-10.5803
▁poverty	-10.5807
▁universities	-10.5807
▁Basketball	-10.5807
▁contribute	-10.5807
▁Organization	-10.5807
▁Glasgow	-10.5808
▁Atlanta	-10.5809
▁executed	-10.581
▁possession	-10.581
▁cited	-10.581
▁Wright	-10.581
▁subjects	-10.5811
▁Senator	-10.5815
▁scheme	-10.5815
▁Garden	-10.5819
4%	-10.5823
▁map	-10.5827
ico	-10.5828
▁Lane	-10.5828
▁Hor	-10.583
▁useful	-10.5831
▁owners	-10.5832
▁components	-10.5839
▁Training	-10.5839
▁strongly	-10.5854
▁Shah	-10.5855
▁Hart	-10.5861
gy	-10.5862
▁Zone	-10.5863
nell	-10.5863
9%	-10.5867
▁skin	-10.5868
ori	-10.5874
▁bands	-10.5877
▁threat	-10.5878
▁Transport	-10.588
▁graduating	-10.5882
▁deputy	-10.5882
▁naval	-10.5882
▁classification	-10.5883
▁supposed	-10.5884
ntil	-10.5884
▁merger	-10.5884
▁identify	-10.5885
pan	-10.5886
ali	-10.5888
▁youngest	-10.5888
▁domain	-10.5892
▁justice	-10.5892
▁measures	-10.5894
▁hundreds	-10.5903
▁Angel	-10.5907
▁speak	-10.5912
▁Back	-10.5913
▁Fund	-10.5915
▁crash	-10.5925
sis	-10.5927
▁provinces	-10.594
▁decline	-10.5943
▁protected	-10.5944
uck	-10.5946
▁visitors	-10.5949
▁Karl	-10.5955
▁influential	-10.5958
▁modified	-10.5958
▁strategy	-10.5958
▁Defense	-10.596
rk	-10.5967
nik	-10.5969
▁opinion	-10.597
7%	-10.5975
aire	-10.5982
▁phone	-10.5984
▁worth	-10.5991
▁Singles	-10.5992
▁Fred	-10.5995
▁novels	-10.6
▁compris	-10.6009
▁shares	-10.6009
▁construct	-10.6016
▁eleven	-10.6022
▁Alan	-10.6026
room	-10.6029
2,	-10.6029
ians	-10.6031
▁manufacturing	-10.6034
▁Internet	-10.6035
▁counties	-10.6035
▁drew	-10.6035
▁controversial	-10.6036
▁Taiwan	-10.6036
▁considerable	-10.6038
▁Finnish	-10.6038
▁Sarah	-10.6038
▁audio	-10.6041
gun	-10.6042
▁plane	-10.6043
▁Conservative	-10.6047
▁dog	-10.6048
03	-10.6048
▁symbol	-10.6049
▁publications	-10.6052
▁panel	-10.6054
▁Dis	-10.6054
67	-10.6065
▁Eric	-10.607
▁tanks	-10.6071
▁characteristics	-10.6074
_	-10.6079
▁Dean	-10.6082
▁Ward	-10.6085
▁separated	-10.609
▁substitute	-10.6096
▁unusual	-10.6097
▁tie	-10.6104
56	-10.6111
▁Imperial	-10.6111
▁pandemic	-10.6111
▁participation	-10.6111
▁restoration	-10.6111
▁storage	-10.6111
▁struck	-10.6111
▁widespread	-10.6111
▁Russell	-10.6111
▁Construction	-10.6111
yne	-10.6112
▁rebuilt	-10.6113
▁arranged	-10.6114
▁Alex	-10.6114
▁1906	-10.6114
ister	-10.6119
▁1902	-10.612
▁1889	-10.6125
▁Your	-10.6127
▁Princess	-10.613
▁pit	-10.6134
▁increasingly	-10.6135
74	-10.6136
▁le	-10.6142
▁earning	-10.6142
▁Canal	-10.6143
87	-10.6146
bel	-10.6146
story	-10.6146
▁understand	-10.6148
▁Whit	-10.6148
▁newspapers	-10.6156
▁affairs	-10.6158
bridge	-10.616
▁Code	-10.6163
but	-10.6168
aj	-10.6169
▁couples	-10.6171
ui	-10.6176
▁abuse	-10.6177
▁page	-10.6179
▁traveled	-10.6179
▁Malaysia	-10.6182
▁filmed	-10.6184
▁Jordan	-10.6185
▁offensive	-10.6188
▁cancelled	-10.6189
▁entertainment	-10.6189
▁huge	-10.6189
▁Charlotte	-10.619
▁studying	-10.619
▁Classic	-10.6191
▁massive	-10.6192
▁capable	-10.6196
▁Originally	-10.6196
tru	-10.6196
▁wooden	-10.6197
▁express	-10.6197
▁institution	-10.6198
▁recommended	-10.6199
mu	-10.62
▁Baron	-10.6205
▁ski	-10.6206
▁Nova	-10.6207
▁landscape	-10.6207
▁grown	-10.6208
view	-10.6209
▁Villa	-10.622
▁appearing	-10.622
▁drawing	-10.6221
roughly	-10.6222
▁depending	-10.6224
▁lay	-10.6229
▁(),	-10.623
▁differences	-10.6232
▁cm	-10.6232
▁tied	-10.6232
▁contested	-10.6236
▁designs	-10.6239
▁Hav	-10.624
▁relationships	-10.6242
▁affect	-10.6247
▁sa	-10.625
89	-10.6254
▁illness	-10.6261
▁neighbour	-10.6266
▁qualification	-10.6267
▁cinema	-10.6267
▁Donald	-10.6267
▁thing	-10.627
▁Plan	-10.627
▁1899	-10.627
▁seed	-10.627
ars	-10.6271
▁1908	-10.6274
▁Iranian	-10.6274
▁2021	-10.6275
77	-10.6276
▁Around	-10.6278
▁rapidly	-10.6278
▁Serbian	-10.6279
▁Information	-10.6279
ties	-10.6282
▁sc	-10.6283
▁declined	-10.6283
▁Hunter	-10.6287
▁Standard	-10.6288
▁uniform	-10.6289
▁mill	-10.6291
ae	-10.6292
▁guard	-10.6297
ST	-10.6302
bach	-10.6308
▁enjoy	-10.6313
▁select	-10.6313
nia	-10.6314
▁sort	-10.6316
▁Stra	-10.632
band	-10.6321
1.	-10.6337
▁intention	-10.6337
▁hits	-10.6341
ava	-10.6342
▁bid	-10.6342
▁approval	-10.6345
▁temporary	-10.6345
▁transmission	-10.6345
▁medieval	-10.6346
▁Peace	-10.6348
▁Natural	-10.6348
▁otherwise	-10.635
▁partially	-10.6354
▁uncle	-10.6356
▁ago	-10.6361
▁Bra	-10.6362
▁factory	-10.6362
TC	-10.6364
tsu	-10.6364
▁distinguished	-10.6364
ira	-10.6367
▁46	-10.6368
▁Athletic	-10.6368
▁mountains	-10.6374
stan	-10.6374
oli	-10.6376
▁Hay	-10.638
▁treat	-10.6384
Vi	-10.639
LA	-10.6391
ps	-10.6396
69	-10.6403
▁Here	-10.641
▁fair	-10.641
72	-10.6411
▁Sc	-10.6414
▁drop	-10.6421
46	-10.6422
PS	-10.6423
▁intersection	-10.6423
▁inaugura	-10.6423
▁ruling	-10.6425
▁soundtrack	-10.6425
▁involvement	-10.6425
▁Pittsburgh	-10.6427
▁weekend	-10.6427
▁Tokyo	-10.6427
▁Labor	-10.6429
▁Var	-10.6431
▁finding	-10.6432
▁characterized	-10.6434
▁eighth	-10.6438
▁occasion	-10.6439
▁longest	-10.6439
▁tribes	-10.6443
nu	-10.6444
▁$2	-10.6445
▁adaptation	-10.6448
▁boys	-10.6449
▁earth	-10.6456
▁flowers	-10.6466
sia	-10.647
▁assault	-10.6472
ú	-10.6472
▁41	-10.6474
58	-10.6475
aria	-10.6476
ben	-10.6477
Go	-10.6478
▁Just	-10.6478
ı	-10.648
uma	-10.648
ult	-10.6481
Or	-10.6486
▁Kra	-10.6495
▁Dave	-10.6497
▁Communications	-10.6505
▁electoral	-10.6505
▁intellectual	-10.6505
▁injuries	-10.6505
▁denied	-10.6505
▁perhaps	-10.6505
▁interpretation	-10.6507
07	-10.6509
▁classified	-10.6514
▁championships	-10.6514
▁Ak	-10.6514
▁Sur	-10.6514
▁NBA	-10.6515
▁Chile	-10.6515
▁Bon	-10.6517
dom	-10.6517
ches	-10.6521
–6	-10.6521
TA	-10.6522
02	-10.6524
▁begun	-10.6525
▁ABC	-10.6526
▁Along	-10.6528
high	-10.6528
▁thousand	-10.6532
▁Mil	-10.6532
▁Moon	-10.6534
lle	-10.6539
▁afterwards	-10.6541
lic	-10.6543
▁Fri	-10.6546
BA	-10.6548
▁channels	-10.6549
▁Trail	-10.6556
ious	-10.6561
▁Wi	-10.6563
▁pe	-10.6571
▁twin	-10.6573
box	-10.6575
▁Serbia	-10.6577
▁scientists	-10.6577
▁Cooper	-10.6582
▁Win	-10.6582
▁Voivodeship	-10.6585
▁absence	-10.6585
▁concrete	-10.6585
▁suicide	-10.6585
▁Arkansas	-10.6587
▁implementation	-10.6588
▁lieutenant	-10.6588
▁tenure	-10.6589
▁genetic	-10.6591
▁Type	-10.6591
▁1860	-10.6593
▁52	-10.6594
▁spoken	-10.6595
place	-10.6595
▁Rico	-10.6598
▁Ur	-10.66
82	-10.6604
▁sun	-10.6606
▁soul	-10.6607
▁portrayed	-10.661
▁nomination	-10.6614
▁disc	-10.6622
▁remove	-10.6631
zz	-10.6631
had	-10.6637
str	-10.6638
▁devices	-10.6638
▁pen	-10.6644
▁camera	-10.6649
▁Trade	-10.6649
gate	-10.665
ux	-10.6657
▁greatly	-10.6661
▁advice	-10.6667
▁jurisdiction	-10.6667
▁Draft	-10.6669
▁Portugal	-10.6669
▁deployed	-10.6675
nk	-10.6676
▁turns	-10.6677
▁1870	-10.6681
▁Grade	-10.6681
agh	-10.6682
▁gay	-10.6683
▁locality	-10.6688
▁PC	-10.6688
Pro	-10.6688
Sa	-10.6689
65	-10.669
▁Ze	-10.6695
▁patterns	-10.6699
04	-10.6699
osa	-10.6707
▁Within	-10.6716
▁walk	-10.6717
inger	-10.6719
▁assist	-10.6721
▁dated	-10.6725
▁Jacob	-10.6726
▁56	-10.6728
CO	-10.6729
▁Unit	-10.6733
▁immediate	-10.6735
▁shell	-10.6736
▁agents	-10.6737
lip	-10.6744
ł	-10.6747
▁thick	-10.6748
▁FIFA	-10.6749
▁Treaty	-10.6749
▁indigenous	-10.6749
▁changing	-10.6749
ture	-10.6749
▁Belgian	-10.6751
▁Food	-10.6751
▁Gre	-10.6752
▁Portland	-10.6754
▁fee	-10.6754
▁experiences	-10.6756
▁Upper	-10.6756
▁NBC	-10.6756
▁organised	-10.6757
▁behalf	-10.6758
lov	-10.676
most	-10.6764
▁tools	-10.677
▁suffering	-10.6772
▁extensively	-10.6773
xi	-10.6774
▁requirements	-10.6776
▁hearing	-10.6776
stein	-10.6777
▁spirit	-10.6779
▁papers	-10.6779
▁indicate	-10.678
▁Qu	-10.6784
mel	-10.6784
▁Sho	-10.6786
*	-10.6787
ade	-10.6788
▁ma	-10.6789
▁Model	-10.679
6%	-10.6794
▁Vol	-10.6799
94	-10.6806
▁Ice	-10.6808
▁seeking	-10.6808
This	-10.6809
ū	-10.681
▁Run	-10.682
▁perfect	-10.6822
lly	-10.6823
▁Bernard	-10.6824
▁Stewart	-10.6831
▁mathematics	-10.6831
▁monastery	-10.6831
▁Movement	-10.6832
▁Judge	-10.6832
▁significance	-10.6832
▁Critical	-10.6833
▁Mas	-10.6833
▁1863	-10.6833
▁(7	-10.6835
▁equipped	-10.6836
▁relief	-10.6837
▁Limited	-10.6839
▁occasionally	-10.6839
▁Kelly	-10.684
▁monument	-10.684
▁copy	-10.6841
uring	-10.6841
▁Baker	-10.6841
hen	-10.6844
▁Wang	-10.6849
▁Nu	-10.6851
▁Fr	-10.6853
▁file	-10.6856
▁DJ	-10.6861
▁mechanism	-10.6865
▁Hand	-10.6865
▁moment	-10.6866
▁Economic	-10.6866
▁false	-10.6867
▁destroy	-10.6867
▁definition	-10.6867
present	-10.6867
▁bishop	-10.6869
▁convention	-10.687
▁plus	-10.6871
rie	-10.6871
from	-10.6875
▁Count	-10.6884
cio	-10.6884
sco	-10.6887
–5	-10.6887
▁Americans	-10.6891
Car	-10.6892
ash	-10.6897
▁Alfred	-10.6906
▁Orleans	-10.6915
▁choose	-10.6915
▁brigade	-10.6915
▁Seattle	-10.6915
▁shall	-10.6915
▁Agency	-10.6915
▁Medicine	-10.6915
ets	-10.6915
▁describe	-10.6915
later	-10.6915
▁Guinea	-10.6916
▁Thailand	-10.6916
game	-10.6918
MP	-10.6918
nar	-10.692
▁distinction	-10.6921
▁returns	-10.6922
▁suspended	-10.6923
tur	-10.6923
▁Kin	-10.6927
span	-10.6931
▁ongoing	-10.6931
pl	-10.6932
▁mounted	-10.6932
els	-10.6933
▁Instead	-10.6936
▁recovered	-10.6937
▁sum	-10.6944
▁What	-10.6945
▁kingdom	-10.6949
aries	-10.6951
▁chapter	-10.6953
▁difference	-10.6958
▁ranks	-10.6959
▁Sta	-10.696
▁2001.	-10.6968
ural	-10.6977
lot	-10.6983
rac	-10.6984
CC	-10.6987
hra	-10.6988
MC	-10.6988
68	-10.6989
ual	-10.6993
▁Oak	-10.6994
93	-10.6995
mit	-10.6996
▁Ana	-10.6997
▁endemic	-10.6999
▁ninth	-10.6999
▁Dallas	-10.6999
sex	-10.6999
▁Graham	-10.7
▁NHL	-10.7001
▁gradually	-10.7001
▁1903	-10.7003
▁poll	-10.7004
▁hip	-10.7006
▁fl	-10.7007
▁Horse	-10.7008
pper	-10.7019
▁add	-10.7024
▁Hi	-10.7028
▁enjoyed	-10.7034
▁actors	-10.7036
▁sample	-10.7037
wal	-10.7037
▁activist	-10.7037
▁defending	-10.7039
scale	-10.7041
▁relation	-10.7043
state	-10.7044
▁Hills	-10.7045
▁mi	-10.7048
eth	-10.7049
▁recordings	-10.7053
▁instruments	-10.7071
▁doors	-10.7072
ert	-10.708
▁Rev	-10.708
ologist	-10.7081
▁regime	-10.7083
▁Cricket	-10.7083
▁UEFA	-10.7083
▁agriculture	-10.7083
▁militia	-10.7083
▁Utah	-10.7083
▁percentage	-10.7087
▁Persian	-10.7089
▁exit	-10.709
▁1865	-10.7091
▁terminal	-10.7091
org	-10.7094
▁Harrison	-10.7095
▁Block	-10.7096
▁cable	-10.7097
gue	-10.71
▁Rad	-10.7101
▁hosts	-10.7106
▁fit	-10.711
ensis	-10.7116
▁tunnel	-10.7122
dic	-10.7123
yer	-10.7125
hood	-10.7127
Me	-10.7129
▁Son	-10.7131
▁theater	-10.7132
▁beach	-10.7132
ue	-10.7133
▁Br	-10.7134
43	-10.7137
▁Trans	-10.7138
▁listing	-10.7139
▁apply	-10.7143
phy	-10.7148
▁whil	-10.7149
▁fled	-10.715
▁pain	-10.7151
dia	-10.7154
▁desire	-10.7155
▁stream	-10.7159
▁electrical	-10.7161
▁moral	-10.7168
–3	-10.7169
▁Baltimore	-10.7169
▁Capital	-10.7169
▁Alliance	-10.7169
▁continuing	-10.7169
▁Fleet	-10.7169
▁vast	-10.7169
▁everything	-10.7169
▁Romania	-10.717
▁salt	-10.717
▁Bruce	-10.7171
▁remainder	-10.7171
▁horses	-10.7174
▁Father	-10.7178
▁sees	-10.7179
▁relocated	-10.718
▁Ryan	-10.718
▁guitarist	-10.718
▁mention	-10.7184
▁Warner	-10.7186
▁Sport	-10.7188
Un	-10.7189
▁belonging	-10.7195
▁partly	-10.7197
▁Last	-10.7197
zer	-10.7198
▁Soon	-10.7199
▁directors	-10.72
▁Rod	-10.72
▁householder	-10.72
▁explained	-10.7201
▁designer	-10.7201
AA	-10.7216
▁Pass	-10.7217
▁feed	-10.7217
Mar	-10.7217
97	-10.722
▁succeed	-10.7222
▁orchestra	-10.7224
▁Cat	-10.7227
▁Tra	-10.7232
▁falls	-10.7233
▁Gro	-10.7233
▁decides	-10.7237
▁benefits	-10.724
81	-10.7241
000	-10.7242
nc	-10.7246
For	-10.7249
▁Tor	-10.7252
ible	-10.7252
ER	-10.7255
▁legend	-10.7255
▁Soccer	-10.7255
▁conclusion	-10.7255
▁disaster	-10.7255
▁emperor	-10.7255
▁possibility	-10.7255
▁radical	-10.7255
▁swimming	-10.7255
▁infantry	-10.7256
▁cabinet	-10.7256
nica	-10.7259
▁employment	-10.7259
▁tank	-10.7259
▁1901	-10.726
▁battery	-10.726
▁moderate	-10.7266
▁Shu	-10.7267
▁poly	-10.7269
▁Drive	-10.7269
▁treaty	-10.727
▁organ	-10.728
▁usual	-10.7281
▁donat	-10.7284
bus	-10.729
▁#	-10.7293
▁spending	-10.7296
▁qualifying	-10.7297
http	-10.7298
shaped	-10.7299
▁platforms	-10.7304
▁Pur	-10.7305
elected	-10.7305
▁soldier	-10.7306
▁Pol	-10.7307
▁1997.	-10.7312
FA	-10.7316
▁temperatures	-10.7322
▁hat	-10.7328
▁Place	-10.7328
▁Who	-10.7337
▁Morris	-10.7338
▁(5	-10.7338
Sh	-10.734
▁Lawrence	-10.7342
▁Trophy	-10.7342
▁surgery	-10.7342
▁drummer	-10.7342
▁Birmingham	-10.7344
▁Austin	-10.7344
▁spell	-10.7344
▁attributed	-10.7344
▁canal	-10.7349
lt	-10.7356
▁Range	-10.7357
▁happened	-10.7359
▁eliminated	-10.736
▁publicly	-10.7361
▁implemented	-10.7362
hall	-10.7365
oon	-10.7366
▁Gil	-10.7366
▁waters	-10.7367
▁effectively	-10.7368
type	-10.7371
▁accounts	-10.7379
▁(4	-10.738
minute	-10.7387
▁venture	-10.7388
▁integrated	-10.739
▁Non	-10.7391
▁Matthew	-10.7391
▁submarine	-10.7394
▁2002.	-10.7396
▁+	-10.7397
▁suggest	-10.7397
▁march	-10.7398
rich	-10.7401
form	-10.7409
73	-10.7415
▁principles	-10.7417
▁faith	-10.742
vent	-10.7424
▁bomb	-10.7427
gn	-10.7427
▁Hawaii	-10.7428
▁Hy	-10.7429
▁Challenge	-10.7429
▁Hampshire	-10.743
▁execution	-10.743
▁departure	-10.743
▁Distribution	-10.743
▁voting	-10.743
▁anything	-10.743
▁marry	-10.7431
▁parliamentary	-10.7431
▁beautiful	-10.7434
▁junction	-10.7435
▁row	-10.7438
5%	-10.7439
▁strict	-10.744
▁mono	-10.7441
▁1990,	-10.7441
▁erected	-10.7443
▁repair	-10.7445
eck	-10.7446
▁Barry	-10.7449
▁poems	-10.7449
ants	-10.7449
▁carbon	-10.745
OC	-10.7451
ern	-10.7454
▁Evans	-10.7455
Po	-10.7458
▁charts	-10.7464
–2	-10.7465
Bo	-10.7466
▁43	-10.7467
▁representatives	-10.7467
▁deliver	-10.7471
▁customers	-10.7472
meter	-10.7474
▁qualify	-10.7475
onic	-10.7477
tom	-10.7478
▁patent	-10.7479
3%	-10.7479
▁markets	-10.748
▁component	-10.748
▁satellite	-10.7481
▁favour	-10.7482
▁dam	-10.7484
ped	-10.7489
▁Sin	-10.749
▁prove	-10.7494
rop	-10.7496
play	-10.7498
▁turning	-10.7505
▁AC	-10.7505
▁Islam	-10.7507
▁Reform	-10.7512
▁Muhammad	-10.7518
▁Writing	-10.7518
▁acquisition	-10.7518
▁Century	-10.7518
▁Culture	-10.7518
▁Defence	-10.7518
▁Monday	-10.7519
▁spiritual	-10.7521
▁tests	-10.7524
zen	-10.7525
▁Fi	-10.7527
▁surrounded	-10.7529
▁DNA	-10.7529
▁Tro	-10.7529
arm	-10.7529
ose	-10.7529
92	-10.753
▁Tr	-10.7531
bor	-10.7531
nce	-10.7534
lio	-10.7535
mal	-10.7538
oni	-10.7539
▁Au	-10.7539
▁Robin	-10.754
ography	-10.7544
▁Th	-10.755
▁Cook	-10.7554
▁operational	-10.7561
▁AM	-10.7562
rus	-10.7566
▁genre	-10.7571
▁ranking	-10.7571
▁charter	-10.7572
▁mere	-10.7572
sburg	-10.758
▁(3	-10.7582
▁Box	-10.7586
▁margin	-10.7587
▁Mir	-10.7588
▁frequent	-10.7594
▁ideal	-10.7602
▁inner	-10.7604
▁Rur	-10.7604
▁Further	-10.7607
▁accommodate	-10.7607
▁destruction	-10.7607
▁Kennedy	-10.7607
▁wedding	-10.7607
▁remote	-10.7607
▁coalition	-10.7608
▁Saudi	-10.7609
▁Storm	-10.761
▁Marshall	-10.761
▁Franklin	-10.7611
▁Bible	-10.7614
ense	-10.7617
▁emerged	-10.7617
▁Broadcasting	-10.762
52	-10.7622
▁photographs	-10.7633
▁para	-10.7635
▁Hunt	-10.7636
▁Finally	-10.7639
▁Peru	-10.7641
▁treated	-10.7645
▁Lar	-10.765
▁pioneer	-10.7654
owned	-10.7656
▁resid	-10.7658
▁revenue	-10.7661
▁touchdown	-10.7663
SS	-10.7664
under	-10.7666
▁deck	-10.7667
Na	-10.7671
▁Monte	-10.7673
▁MA	-10.7674
▁substantial	-10.7684
tch	-10.7689
▁Jeff	-10.7695
▁defend	-10.7696
Ar	-10.7697
▁YouTube	-10.7698
▁frequency	-10.7698
▁Oblast	-10.7698
▁Vincent	-10.7698
▁Sultan	-10.7698
▁Brook	-10.7699
▁outstanding	-10.7701
▁ceased	-10.7703
▁evolution	-10.7704
▁everyone	-10.7707
ović	-10.7707
▁questions	-10.7707
mber	-10.7711
▁balance	-10.7712
avi	-10.7715
▁Cap	-10.7716
pal	-10.772
▁hunting	-10.7723
▁involves	-10.7736
honorary	-10.774
▁Cast	-10.774
84	-10.774
▁processes	-10.774
▁toured	-10.7744
▁spend	-10.7748
▁Ring	-10.775
tis	-10.7752
:00	-10.7753
▁battalion	-10.7754
▁message	-10.7755
▁squadron	-10.7755
▁vocal	-10.7761
ect	-10.7761
rah	-10.777
▁(6	-10.777
▁Victor	-10.7772
▁Alberta	-10.7772
▁encourage	-10.7772
press	-10.7773
▁Stan	-10.7774
▁ti	-10.7775
sson	-10.7775
ncy	-10.7777
▁Fine	-10.7779
SR	-10.7783
hara	-10.7784
▁clean	-10.7787
▁colors	-10.7787
▁Fellow	-10.7788
▁circumstances	-10.7788
▁extent	-10.7788
▁alliance	-10.7788
▁resort	-10.7789
www	-10.7789
▁creative	-10.7789
▁Brooklyn	-10.7789
▁knew	-10.7789
Lo	-10.7789
▁Munich	-10.7789
▁references	-10.7791
▁underground	-10.7793
▁Egyptian	-10.7794
née	-10.7797
▁discovery	-10.7802
▁constitution	-10.7805
▁li	-10.7811
▁Lang	-10.7814
▁signs	-10.7815
▁adults	-10.7815
West	-10.7816
ks	-10.7816
mark	-10.7817
▁detailed	-10.7818
uz	-10.7819
▁limits	-10.7821
▁Well	-10.7821
▁coup	-10.7835
▁discuss	-10.7837
▁Cro	-10.7839
▁picked	-10.7842
▁existed	-10.7845
▁register	-10.7847
▁circle	-10.7848
▁initiative	-10.7848
▁venue	-10.7849
▁experimental	-10.7849
▁Gary	-10.785
▁traded	-10.7852
▁na	-10.7858
▁Des	-10.7859
oo	-10.7863
nis	-10.7863
83	-10.7869
▁SC	-10.7871
wer	-10.7873
▁shift	-10.7874
▁conventional	-10.7875
▁Gun	-10.7877
▁preced	-10.7879
▁Control	-10.7879
uli	-10.788
▁Amsterdam	-10.788
▁Benjamin	-10.788
▁vertical	-10.788
▁wrong	-10.788
▁Assistant	-10.788
▁1888	-10.7884
53	-10.7885
▁Bat	-10.7897
▁anyone	-10.7899
rate	-10.7907
▁ready	-10.7909
▁Romanian	-10.791
▁Windows	-10.791
▁clearly	-10.7914
-17	-10.7915
hor	-10.7916
▁Zo	-10.7919
CA	-10.7921
61	-10.7922
▁Boys	-10.7923
▁fill	-10.7924
bed	-10.7926
▁Pine	-10.7926
PC	-10.7928
-10	-10.7929
app	-10.7932
▁grows	-10.7933
▁movies	-10.7935
list	-10.7937
mes	-10.794
▁trust	-10.7942
▁debt	-10.7942
lit	-10.7946
▁Hans	-10.7947
▁enable	-10.7947
bro	-10.7954
▁pursue	-10.7958
▁attending	-10.7962
▁runner	-10.7964
▁CE	-10.7966
▁informed	-10.7969
▁extreme	-10.7969
▁fresh	-10.7972
▁Adelaide	-10.7973
▁supplies	-10.7973
▁emergency	-10.7973
▁Municipality	-10.7974
tive	-10.7975
▁1896	-10.7976
▁colony	-10.7979
▁bo	-10.798
▁Warren	-10.7981
▁Hispanic	-10.7983
▁CBS	-10.7985
▁VI	-10.7987
▁sentenced	-10.7987
▁Key	-10.7992
▁internationally	-10.7994
▁origins	-10.7995
aba	-10.7997
▁designation	-10.8004
▁explain	-10.8005
▁producers	-10.8013
▁tape	-10.8024
▁hope	-10.8028
▁helping	-10.8029
▁count	-10.8037
▁scholarship	-10.8038
adi	-10.8039
▁resident	-10.8044
versus	-10.8046
tar	-10.8049
▁Bangladesh	-10.8049
▁root	-10.805
hn	-10.805
▁Opera	-10.8052
▁Nar	-10.8057
▁weak	-10.8062
▁elder	-10.8064
▁knock	-10.8065
▁subsidiary	-10.8066
▁thirty	-10.8066
▁Release	-10.8066
▁permission	-10.8067
▁Theater	-10.8068
▁1898	-10.807
▁easy	-10.807
▁experiment	-10.8071
▁dominated	-10.8074
▁facing	-10.8076
▁Commissioner	-10.8077
ges	-10.8079
1%	-10.808
rup	-10.8082
▁premiere	-10.8084
▁Socialist	-10.8084
boy	-10.8089
▁preserved	-10.8093
▁mix	-10.8095
▁Ros	-10.8097
▁driven	-10.8097
▁(20	-10.8098
▁Parker	-10.8099
bank	-10.81
▁Much	-10.81
▁rivers	-10.8111
iga	-10.8117
ites	-10.8119
▁Students	-10.8124
mbo	-10.8125
▁push	-10.8132
▁drafted	-10.8136
▁Bla	-10.8138
sol	-10.8138
▁log	-10.8141
▁w	-10.8141
▁Jam	-10.8142
▁dual	-10.8147
▁250	-10.8148
▁outer	-10.8148
aki	-10.8149
atory	-10.815
▁Roll	-10.8152
▁parent	-10.8153
▁confront	-10.8155
▁Jon	-10.816
▁worship	-10.816
-16	-10.816
▁Attorney	-10.8161
▁Byzantine	-10.8161
▁infrastructure	-10.8161
▁tribute	-10.8161
▁Abbey	-10.8161
▁Ridge	-10.8161
▁Wu	-10.8163
▁Late	-10.8163
▁reduction	-10.8163
▁Bristol	-10.8163
▁thereafter	-10.8164
▁Nam	-10.8164
▁Digital	-10.8164
▁Wolf	-10.8164
▁1886	-10.8165
▁Such	-10.8167
▁1891	-10.8169
SP	-10.8174
▁farmers	-10.8176
hour	-10.8176
▁spaces	-10.8181
▁Dog	-10.8181
▁quit	-10.8183
▁Victorian	-10.8186
▁complet	-10.8189
lli	-10.8194
100	-10.8203
Ta	-10.8205
▁exception	-10.8211
▁Colombia	-10.8215
making	-10.8216
▁warm	-10.8217
▁vs	-10.8218
▁Off	-10.8219
▁housed	-10.8224
▁Mah	-10.8228
3,	-10.8236
–16	-10.8242
▁slave	-10.8244
▁rapid	-10.8246
▁lap	-10.8246
wo	-10.8251
onia	-10.8253
▁clock	-10.8253
▁revolution	-10.8255
▁inducted	-10.8256
▁perspective	-10.8256
▁throne	-10.8256
▁giant	-10.8256
▁romantic	-10.8256
▁Mitchell	-10.8256
▁Mediterranean	-10.8256
▁Furthermore	-10.8256
▁Delhi	-10.8257
▁fundamental	-10.8257
▁retail	-10.8258
▁outdoor	-10.8258
▁Keith	-10.826
▁1897	-10.8261
▁Apple	-10.8263
▁lowest	-10.8263
▁75	-10.8264
▁Broadway	-10.8265
▁Bulgarian	-10.8265
▁1885	-10.8267
▁gang	-10.8268
▁missed	-10.8269
bon	-10.827
▁viewed	-10.8272
▁Ay	-10.8273
▁1893	-10.8275
▁saved	-10.8276
▁basin	-10.8281
▁affiliated	-10.8284
▁Brand	-10.8284
▁responded	-10.8286
▁belt	-10.8288
ther	-10.8293
▁Andy	-10.8301
▁Wind	-10.8303
tr	-10.8305
▁linear	-10.8306
8%	-10.8307
Don	-10.8313
▁attract	-10.8315
▁Den	-10.8318
ille	-10.8323
▁reporting	-10.8323
▁Rangers	-10.8324
▁Bou	-10.8324
▁pull	-10.8325
win	-10.8327
▁doesn	-10.8329
▁Cam	-10.8331
▁Indians	-10.8331
▁tribe	-10.8332
cz	-10.8333
itt	-10.8334
▁playoff	-10.8341
aceae	-10.835
▁Protestant	-10.8352
▁expensive	-10.8352
▁maintenance	-10.8352
▁promoting	-10.8352
▁wrestling	-10.8352
▁Buddhist	-10.8352
▁chapel	-10.8352
▁cattle	-10.8352
berry	-10.8353
▁Stanley	-10.8354
▁favorite	-10.8354
▁Gabriel	-10.8355
▁2021,	-10.8356
▁Murray	-10.8356
▁Wayne	-10.8356
▁Springs	-10.8358
made	-10.8358
▁movements	-10.8363
▁Dick	-10.8365
▁sure	-10.8366
▁1895	-10.8367
▁Euro	-10.837
▁expand	-10.8373
hol	-10.8373
▁daughters	-10.8374
tia	-10.8375
▁Falls	-10.8377
tter	-10.8384
▁Raja	-10.8385
▁secured	-10.839
▁(10	-10.8391
imp	-10.8392
▁Abu	-10.84
related	-10.8409
▁plate	-10.8414
▁wait	-10.8415
▁funded	-10.8417
▁Market	-10.8418
▁occasions	-10.8419
▁wheel	-10.842
▁catch	-10.8426
asa	-10.8436
yi	-10.8437
May	-10.8437
ín	-10.8439
ines	-10.8439
ij	-10.8439
▁Bengal	-10.844
DP	-10.8441
▁Hard	-10.8449
ž	-10.8449
▁vector	-10.8449
▁Urban	-10.845
▁lawsuit	-10.845
▁Allied	-10.845
▁fourteen	-10.8451
▁eggs	-10.8453
cat	-10.8453
▁minority	-10.8454
▁Branch	-10.8455
▁exposed	-10.8457
▁leaf	-10.8459
lee	-10.846
▁zero	-10.8461
▁Arabic	-10.8461
▁solar	-10.8462
▁1877	-10.8464
▁Buck	-10.8474
chin	-10.8475
ging	-10.8477
On	-10.8477
▁researchers	-10.8478
▁Years	-10.8482
ME	-10.8489
esh	-10.8491
▁instrumental	-10.8493
▁acres	-10.8493
▁Wal	-10.8495
▁keeping	-10.8496
▁sat	-10.8501
▁Para	-10.8508
▁supporters	-10.8509
▁writes	-10.851
▁sentence	-10.8514
▁struggle	-10.8514
▁Wild	-10.8515
▁Yang	-10.8516
gent	-10.8518
▁concerned	-10.8521
▁machines	-10.8521
-5	-10.8524
63	-10.8526
▁Sil	-10.8528
▁discussion	-10.8531
▁Chu	-10.8534
▁Nepal	-10.854
▁cool	-10.8541
▁bear	-10.8542
ele	-10.8544
▁triple	-10.8545
▁Nevada	-10.8547
▁Results	-10.8547
▁corporate	-10.8547
▁external	-10.8547
▁grey	-10.8547
▁Section	-10.8547
▁MS	-10.8548
▁Clinton	-10.8548
▁fitted	-10.8548
▁bio	-10.8548
▁Energy	-10.8549
▁styles	-10.855
▁transformation	-10.855
▁hybrid	-10.8551
▁Thi	-10.8551
▁excellent	-10.8552
▁collect	-10.8553
▁closure	-10.8554
ration	-10.8555
▁51	-10.8556
▁1840	-10.8556
ware	-10.8557
▁Pierre	-10.8557
▁apparently	-10.8558
▁1887	-10.8558
br	-10.856
▁makeup	-10.8565
▁im	-10.8566
▁soft	-10.8567
▁profile	-10.8567
▁demonstrated	-10.8571
▁boats	-10.8574
▁agencies	-10.8577
pel	-10.8577
▁pitcher	-10.8577
dge	-10.8579
▁breaking	-10.8579
▁closer	-10.8586
▁Ian	-10.8586
▁practical	-10.8589
▁Yan	-10.8589
▁Cole	-10.859
▁Honours	-10.8598
▁aggregate	-10.8598
sti	-10.8605
▁fe	-10.8606
load	-10.8608
▁Tha	-10.8612
▁locomotives	-10.8612
▁missions	-10.8613
▁retreat	-10.8613
▁indicates	-10.8613
▁drivers	-10.8616
▁pointed	-10.8625
▁Pri	-10.8625
▁observation	-10.8629
▁Sim	-10.863
▁sculpture	-10.8632
▁unsuccessful	-10.8632
▁contribution	-10.8637
▁guide	-10.8642
▁Afghanistan	-10.8646
▁Nicholas	-10.8646
▁conservation	-10.8646
▁legislature	-10.8646
▁territories	-10.8646
▁timber	-10.8646
▁Confederate	-10.8647
▁fishing	-10.8647
▁Brisbane	-10.8648
▁electricity	-10.8649
▁Wrestling	-10.8649
▁Craig	-10.8649
▁demolished	-10.865
▁assets	-10.8651
▁jobs	-10.8651
▁flood	-10.8652
▁communications	-10.8653
pen	-10.8653
▁Guardian	-10.8654
▁clinical	-10.8655
▁signing	-10.8656
ES	-10.8656
lum	-10.8656
▁RAF	-10.8657
▁Kor	-10.8658
pic	-10.866
ë	-10.866
rea	-10.8663
▁commented	-10.8663
DF	-10.8663
pet	-10.8664
4,	-10.8668
▁beating	-10.8669
▁57	-10.867
anda	-10.8672
▁Virgin	-10.8673
vy	-10.8675
▁negotiations	-10.868
ump	-10.8681
▁Oliver	-10.8681
▁Congo	-10.8685
▁Books	-10.869
ates	-10.8695
▁broadcasting	-10.8696
▁800	-10.8697
profit	-10.87
▁Luis	-10.8702
pu	-10.8706
vers	-10.8709
▁Members	-10.871
▁displayed	-10.8711
▁themes	-10.8711
eau	-10.8712
▁convert	-10.8713
▁traditionally	-10.8714
2%	-10.8715
▁Parish	-10.8715
▁pl	-10.8717
▁collections	-10.872
▁Train	-10.8723
▁Ob	-10.8726
ters	-10.8726
▁chamber	-10.8729
▁apartment	-10.8731
▁ta	-10.874
▁concerts	-10.8742
▁string	-10.8742
▁Girl	-10.8744
▁patient	-10.8745
▁Dakota	-10.8746
▁categories	-10.8746
▁Therefore	-10.8746
▁freight	-10.8746
ambigu	-10.8746
▁cat	-10.8748
▁guilty	-10.875
▁charity	-10.875
▁ocean	-10.8751
▁abolished	-10.8753
▁personality	-10.8753
▁exists	-10.8755
▁truth	-10.8755
ridge	-10.8756
▁planet	-10.8757
▁rated	-10.8757
▁Minor	-10.8758
▁Dream	-10.8759
▁traditions	-10.8762
▁Historical	-10.8765
▁gone	-10.8765
▁Story	-10.8766
▁matters	-10.8767
▁ba	-10.877
▁1000	-10.8772
▁Rat	-10.8774
ranging	-10.8777
▁120	-10.878
▁finals	-10.8784
▁magic	-10.8791
inch	-10.8797
▁pan	-10.8798
▁depend	-10.8805
▁Video	-10.8816
▁die	-10.8824
aro	-10.8828
▁collapse	-10.8832
▁illegal	-10.8833
▁concentration	-10.8833
▁merchant	-10.8833
▁PA	-10.8834
▁lists	-10.8836
▁53	-10.8845
▁Zu	-10.8847
▁Peninsula	-10.8847
▁Territory	-10.8847
▁Technical	-10.8847
▁Survey	-10.8847
▁suspension	-10.8848
▁Madrid	-10.8848
▁boundary	-10.8848
▁Bachelor	-10.8849
▁Barbara	-10.8849
▁2–1	-10.885
▁Initially	-10.8851
▁grandfather	-10.8854
▁transportation	-10.8854
▁Carter	-10.8855
▁settlements	-10.8857
oph	-10.8857
brook	-10.8857
▁dismissed	-10.8858
▁cent	-10.8859
▁Note	-10.8862
▁delivery	-10.8862
▁prices	-10.8864
▁Sy	-10.8864
▁Wei	-10.8864
▁verse	-10.8865
":	-10.8869
his	-10.887
▁belonged	-10.8871
AL	-10.8872
▁marketing	-10.8879
▁exhibited	-10.888
▁Chapel	-10.8882
▁doubles	-10.8884
-6	-10.8886
sley	-10.8887
▁defended	-10.8887
wick	-10.8887
▁fo	-10.889
▁depicted	-10.8893
▁wants	-10.8896
▁Ty	-10.8903
▁meetings	-10.8907
▁Tang	-10.891
▁regulations	-10.8914
▁Wing	-10.8916
▁Thai	-10.8917
card	-10.8919
▁survive	-10.8922
▁Side	-10.8925
▁Cuba	-10.8927
▁strip	-10.8929
▁talks	-10.8932
ech	-10.8938
▁arrangement	-10.8939
▁speaking	-10.8939
zh	-10.894
▁marks	-10.8941
▁shut	-10.8945
2).	-10.8948
uda	-10.8949
▁Language	-10.8949
▁rifle	-10.8949
▁Jonathan	-10.8949
▁symptoms	-10.8949
▁viewers	-10.8949
▁narrative	-10.8949
▁conversion	-10.8949
▁clay	-10.8951
▁outbreak	-10.8952
tting	-10.8952
▁Article	-10.8952
▁Christopher	-10.8952
▁Transportation	-10.8953
▁devoted	-10.8953
▁Freedom	-10.8955
wn	-10.8956
▁soccer	-10.8957
▁gear	-10.8957
▁PhD	-10.8958
▁plain	-10.8958
some	-10.896
▁wealthy	-10.8962
▁exclusively	-10.8962
▁fictional	-10.8964
▁Players	-10.8965
pol	-10.8966
AF	-10.8968
ement	-10.897
hon	-10.897
▁emotional	-10.8971
burn	-10.8972
▁drinking	-10.8974
▁slaves	-10.8975
rou	-10.8975
▁Guy	-10.8981
▁Lind	-10.8983
▁sh	-10.8984
▁Mari	-10.899
aud	-10.8992
umi	-10.8994
▁logo	-10.9004
▁exhibit	-10.9006
shan	-10.9013
▁adopt	-10.9017
lk	-10.9019
▁Milan	-10.9019
▁load	-10.9022
ello	-10.9023
illo	-10.9024
▁manage	-10.9031
▁Anglo	-10.9032
final	-10.9033
▁Liga	-10.9036
▁Mis	-10.9037
▁continuous	-10.9038
▁exile	-10.904
▁Race	-10.904
▁operator	-10.9045
▁Shin	-10.905
▁rounds	-10.9051
▁danger	-10.9051
×	-10.9052
▁comparison	-10.9052
▁compilation	-10.9052
▁earthquake	-10.9052
▁closing	-10.9052
▁strategic	-10.9052
▁interchange	-10.9052
▁riding	-10.9053
▁Athens	-10.9053
▁Kon	-10.9054
▁biological	-10.9054
cro	-10.9054
▁dozen	-10.9055
▁1861	-10.9055
▁Orange	-10.9056
▁conservative	-10.9057
▁Maha	-10.9057
▁coaching	-10.9058
▁Friday	-10.9059
▁gauge	-10.9062
▁Mother	-10.9063
mir	-10.9063
▁Woman	-10.9064
▁steps	-10.9068
–4	-10.9068
vet	-10.9069
matic	-10.9071
▁Grey	-10.9072
▁originated	-10.9074
▁1979,	-10.9075
lane	-10.9075
▁centers	-10.9079
▁Dead	-10.9079
▁Gray	-10.908
cut	-10.9089
▁heads	-10.9092
▁statistics	-10.9093
chen	-10.9094
▁lose	-10.9097
▁1,000	-10.9099
▁Report	-10.9101
member	-10.9111
▁friendly	-10.9112
▁Kara	-10.9117
rant	-10.9119
finals	-10.912
▁eyes	-10.9127
▁respond	-10.9127
DA	-10.9127
gram	-10.9127
▁honors	-10.9128
▁Start	-10.913
▁Operations	-10.9131
Mi	-10.9134
life	-10.9138
▁influences	-10.9142
gr	-10.9143
zan	-10.9143
▁EU	-10.9145
sport	-10.9146
▁argument	-10.915
▁Democrat	-10.9151
free	-10.9152
▁publisher	-10.9156
å	-10.9156
▁Conservation	-10.9156
▁arriving	-10.9156
▁physics	-10.9156
▁Legacy	-10.9156
▁diameter	-10.9156
▁Borough	-10.9157
▁Derby	-10.9158
▁travelled	-10.9158
▁inspiration	-10.9159
▁engagement	-10.916
▁1894	-10.916
Fi	-10.916
body	-10.9161
▁Phoenix	-10.9161
▁vocalist	-10.9162
▁Butler	-10.9163
▁Yale	-10.9165
▁photography	-10.9165
▁tested	-10.9165
▁sustained	-10.9169
▁fort	-10.917
itis	-10.9174
▁Golf	-10.9176
▁scope	-10.9178
hir	-10.9183
▁mini	-10.9186
▁generated	-10.919
ral	-10.9196
▁preserve	-10.9199
handed	-10.9205
7.	-10.9207
▁Lanka	-10.9211
▁Johann	-10.9216
language	-10.9218
▁Eli	-10.922
rian	-10.9228
eli	-10.9231
▁Helen	-10.9231
vor	-10.9231
▁indoor	-10.9235
▁Ry	-10.9238
▁Brothers	-10.9241
▁exercise	-10.9241
▁Op	-10.9242
new	-10.9243
gor	-10.9245
▁dollars	-10.9245
▁fighters	-10.9246
▁approached	-10.9257
▁Chamber	-10.9258
▁alcohol	-10.9259
▁cave	-10.926
▁Catherine	-10.9262
▁Faculty	-10.9262
▁Together	-10.9262
▁ambassador	-10.9262
▁thirteen	-10.9262
▁depression	-10.9262
▁animation	-10.9262
▁terminus	-10.9263
▁descent	-10.9263
Ne	-10.9263
▁bonus	-10.9263
▁61	-10.9264
▁Caribbean	-10.9264
▁1864	-10.9266
▁liberal	-10.9267
▁cash	-10.9269
▁Legal	-10.9272
▁recognised	-10.9273
▁ride	-10.9274
▁Schools	-10.9277
▁Johnny	-10.9281
▁Gan	-10.9286
▁Bri	-10.9287
▁layer	-10.929
▁roots	-10.9293
▁Spa	-10.9295
▁receiver	-10.9301
▁Hell	-10.9302
▁waste	-10.9308
rot	-10.931
▁Southeast	-10.9313
▁Kil	-10.9326
eta	-10.9327
▁Greater	-10.9329
▁Gal	-10.933
You	-10.9332
▁Jar	-10.9342
▁touring	-10.9348
▁Baptist	-10.9356
▁elde	-10.9364
▁athletic	-10.9366
▁manuscript	-10.9366
▁volunteer	-10.9367
▁preparation	-10.9367
▁ministry	-10.9368
▁siege	-10.9368
▁Beijing	-10.9368
▁theatrical	-10.9368
▁beauty	-10.9368
▁afternoon	-10.9368
▁sequel	-10.9368
▁withdrew	-10.9368
▁legacy	-10.9368
▁knight	-10.9369
▁sitting	-10.9369
▁Knight	-10.937
▁framework	-10.937
▁else	-10.9371
▁1892	-10.9372
▁Universal	-10.9373
▁Grace	-10.9373
osis	-10.9375
▁cargo	-10.9376
dent	-10.9377
▁Nor	-10.9377
▁diverse	-10.9378
CR	-10.9378
▁manufactured	-10.9382
▁supports	-10.9384
▁Manager	-10.9388
▁ban	-10.9389
▁ho	-10.9397
▁seconds	-10.9398
mond	-10.9398
mid	-10.9404
▁Bro	-10.9405
▁discussed	-10.9406
ø	-10.9407
▁videos	-10.941
▁borough	-10.941
▁relat	-10.9415
chan	-10.9415
▁Masters	-10.9416
range	-10.9424
$	-10.9426
▁Stock	-10.943
▁input	-10.9438
eva	-10.944
▁Cardinals	-10.9441
▁Tag	-10.9445
▁10,000	-10.9448
▁murdered	-10.945
▁earn	-10.9452
▁winds	-10.9454
▁Plant	-10.9456
▁maps	-10.9462
▁associate	-10.9462
▁Sel	-10.9463
As	-10.9465
ude	-10.9467
▁respective	-10.9469
II	-10.947
▁Bru	-10.9471
▁diseases	-10.9472
▁voters	-10.9474
500	-10.9474
cht	-10.9475
▁statue	-10.9475
▁escort	-10.9476
▁Circuit	-10.9476
▁dominant	-10.9476
▁legislative	-10.9476
▁relegated	-10.9476
▁Agriculture	-10.9476
▁Child	-10.9476
▁insurance	-10.9476
▁victories	-10.9476
▁knee	-10.9476
▁bright	-10.9476
▁integration	-10.9476
▁Authority	-10.9476
▁serial	-10.9477
▁random	-10.9477
▁Throughout	-10.9477
▁supplied	-10.9477
▁quick	-10.9478
▁carries	-10.9478
▁download	-10.9478
▁Warsaw	-10.9479
▁SA	-10.9479
▁1862	-10.948
▁automatic	-10.948
▁raising	-10.9482
▁protests	-10.9482
▁removal	-10.9483
▁Small	-10.9483
▁orbit	-10.9485
▁comments	-10.9486
▁blocks	-10.9487
▁shorter	-10.949
▁asks	-10.9496
heim	-10.9501
▁Beat	-10.9509
▁Dal	-10.9521
hard	-10.9528
▁coaches	-10.9531
▁tourist	-10.9532
▁Muslims	-10.9534
CS	-10.9534
hop	-10.9534
▁peer	-10.9538
▁Ren	-10.9539
▁pale	-10.9539
oz	-10.9539
four	-10.954
▁Coach	-10.9545
bl	-10.9545
▁Barr	-10.9546
▁cards	-10.9547
▁talent	-10.9552
▁Rosa	-10.9553
▁Liu	-10.9554
▁Dy	-10.9558
▁Mun	-10.9559
get	-10.9564
▁hero	-10.9565
vel	-10.9571
NC	-10.9572
▁Jose	-10.9577
▁62	-10.9582
AR	-10.9582
vit	-10.9583
▁Eventually	-10.9584
▁cavalry	-10.9584
▁Richmond	-10.9584
▁Vancouver	-10.9586
ain	-10.9586
▁evolved	-10.9587
▁dialect	-10.9587
▁belief	-10.9587
▁Cultural	-10.9587
▁sounds	-10.9588
▁equation	-10.9588
▁Low	-10.9588
▁Jason	-10.9589
▁preferred	-10.959
▁yield	-10.959
▁Democrats	-10.959
▁communist	-10.9591
▁reforms	-10.9592
▁Cow	-10.9592
▁eligible	-10.9592
▁Christianity	-10.9594
▁gap	-10.9594
▁patrol	-10.9596
▁Know	-10.9598
▁Common	-10.9599
▁repeated	-10.9602
▁Next	-10.9607
▁Carlos	-10.9612
▁pictures	-10.9613
▁grass	-10.9615
bol	-10.9615
▁Kam	-10.9616
▁Ny	-10.9617
▁tackles	-10.9618
▁Eu	-10.962
▁°	-10.9621
▁businessman	-10.9625
▁detail	-10.9626
▁54	-10.9627
▁63	-10.9628
eu	-10.9637
page	-10.9641
▁belongs	-10.9641
▁auto	-10.9645
▁Chang	-10.9646
▁Cur	-10.9648
▁Bull	-10.9657
speed	-10.9657
ska	-10.9658
hal	-10.9665
een	-10.9666
5,	-10.9667
▁feeling	-10.9674
▁beam	-10.9674
▁jump	-10.9674
▁po	-10.9675
IR	-10.9677
una	-10.9678
▁coat	-10.968
▁Steven	-10.9682
▁agree	-10.9683
▁volumes	-10.9683
▁Our	-10.9686
Ex	-10.9686
▁wealth	-10.9688
▁increases	-10.9689
kara	-10.9689
pho	-10.9689
Qu	-10.9692
▁Pradesh	-10.9694
▁academy	-10.9694
▁phrase	-10.9694
▁attorney	-10.9694
▁advertising	-10.9694
▁Population	-10.9694
▁Florence	-10.9694
▁Bavaria	-10.9695
▁Gregory	-10.9695
▁Gilbert	-10.9695
▁enforcement	-10.9695
▁database	-10.9695
▁Newcastle	-10.9696
▁•	-10.9696
▁96	-10.9696
▁assessment	-10.9696
▁isolated	-10.9697
▁1872	-10.9699
borough	-10.9699
▁pa	-10.9699
▁Computer	-10.97
▁trials	-10.97
▁citizen	-10.97
▁Secondary	-10.97
▁initiated	-10.9702
▁orange	-10.9702
▁believes	-10.9703
▁Sad	-10.9703
▁collaborated	-10.9705
▁civilian	-10.9706
▁Soul	-10.9707
ient	-10.9708
▁colleagues	-10.9709
▁Ste	-10.971
▁Carr	-10.9712
▁defender	-10.9712
▁diplomatic	-10.9714
▁roll	-10.9714
▁rocket	-10.9718
ów	-10.9719
▁Daily	-10.9722
▁Hope	-10.9723
▁pole	-10.9733
▁Il	-10.9737
▁Ye	-10.9737
▁Mario	-10.9738
Ho	-10.9739
uru	-10.9745
ema	-10.9745
▁assisted	-10.9746
NA	-10.9751
▁Berg	-10.9762
foot	-10.9763
Ga	-10.9765
▁;	-10.9766
RT	-10.9773
space	-10.9778
▁variations	-10.978
mag	-10.9781
▁processing	-10.9784
▁Lie	-10.9784
So	-10.9784
hil	-10.9787
▁Shaw	-10.9788
far	-10.9788
▁66	-10.979
▁exclusive	-10.9792
families	-10.9793
▁Zi	-10.9793
olo	-10.9795
▁CO	-10.9797
▁wings	-10.98
War	-10.9801
ito	-10.9802
▁widow	-10.9805
▁animated	-10.9805
▁flank	-10.9805
▁Norfolk	-10.9805
▁boundaries	-10.9806
▁Primary	-10.9806
▁goalkeeper	-10.9806
▁pump	-10.9807
▁1–0	-10.981
gre	-10.981
pers	-10.9811
▁predecessor	-10.9811
▁shelter	-10.9811
▁altitude	-10.9812
▁destination	-10.9812
▁tool	-10.9814
▁gross	-10.9815
▁Admiral	-10.9816
IN	-10.9817
▁administered	-10.982
▁error	-10.982
▁Girls	-10.9821
etic	-10.9824
▁Data	-10.9833
▁organic	-10.9834
▁specialized	-10.9836
Mu	-10.9837
▁celebrate	-10.9837
▁exact	-10.9841
▁paint	-10.9847
▁aboard	-10.9851
▁apart	-10.9861
rag	-10.9864
weight	-10.9864
▁latest	-10.9868
▁facilitate	-10.9873
two	-10.9875
▁Lan	-10.9876
ments	-10.9878
▁Musical	-10.9882
▁Kings	-10.9883
▁jail	-10.9885
▁desert	-10.9886
las	-10.9887
feld	-10.9887
▁gate	-10.9888
▁1977,	-10.9889
▁Wil	-10.9894
anga	-10.9894
▁1878	-10.9894
▁reader	-10.9895
cle	-10.9896
tone	-10.9901
▁Kat	-10.9901
▁prevented	-10.9901
▁Tai	-10.9901
horn	-10.9904
dor	-10.9906
pha	-10.9908
▁editions	-10.9909
▁Arabia	-10.9913
emi	-10.9914
▁bound	-10.9917
▁Symphony	-10.9918
▁summit	-10.9918
▁Bueno	-10.9918
▁undergraduate	-10.9919
▁Panama	-10.9919
▁Ghana	-10.9919
▁footage	-10.992
▁elite	-10.992
▁usage	-10.9921
▁Jimmy	-10.9922
phon	-10.9922
▁sight	-10.9923
▁Jazz	-10.9923
▁transit	-10.9923
▁updated	-10.9924
▁resumed	-10.9925
8.	-10.9926
▁loop	-10.9927
▁index	-10.9927
▁visits	-10.9927
▁Perry	-10.9928
▁bowl	-10.9928
▁scientist	-10.9929
▁Studio	-10.993
▁releases	-10.9933
▁introduce	-10.9935
ids	-10.9942
ila	-10.9943
▁Songs	-10.9945
▁corresponding	-10.995
▁Lou	-10.995
▁References	-10.9951
▁indicat	-10.9953
▁writings	-10.9955
▁Wo	-10.9957
▁options	-10.9957
cc	-10.9962
▁Marc	-10.9962
9,	-10.9963
pping	-10.9963
▁produces	-10.9969
rock	-10.9969
▁Giants	-10.9974
shire	-10.9976
▁presentation	-10.9978
▁Perth	-10.9979
▁falling	-10.998
ost	-10.9983
cin	-10.9985
▁thin	-10.9986
▁dealing	-10.9986
piece	-10.9987
round	-10.999
▁bin	-10.9991
▁wish	-10.9992
▁sisters	-10.9994
IP	-10.9995
action	-10.9997
▁repeat	-10.9998
▁Kur	-11
DS	-11.0002
▁opponents	-11.0003
▁h	-11.0005
▁Gy	-11.0008
▁Syria	-11.0009
▁engage	-11.0013
▁elect	-11.0014
ically	-11.0014
Har	-11.0017
5,000	-11.0018
▁lift	-11.0019
▁Bulgaria	-11.002
▁Blues	-11.0023
OR	-11.0024
▁Croatia	-11.0025
rell	-11.0027
▁dispute	-11.0029
▁Collection	-11.0031
▁Napoleon	-11.0031
▁Archbishop	-11.0031
▁Exchange	-11.0031
▁radiation	-11.0032
▁citing	-11.0032
▁tip	-11.0032
▁Continental	-11.0032
▁cooperation	-11.0033
▁quarterback	-11.0033
▁Campaign	-11.0033
▁Site	-11.0033
▁progressive	-11.0034
▁distinctive	-11.0034
▁1882	-11.0035
▁Lloyd	-11.0036
▁Die	-11.0036
▁Blood	-11.0036
▁legs	-11.0036
rb	-11.0037
▁chemistry	-11.0038
▁enrolled	-11.004
▁Systems	-11.004
▁1850	-11.0041
▁nest	-11.0043
▁restaurants	-11.0044
▁Roth	-11.0046
▁neck	-11.0048
▁coins	-11.0049
▁till	-11.0049
▁payment	-11.0049
▁manufacturer	-11.005
▁departed	-11.005
▁Had	-11.0052
▁sailed	-11.0053
▁bond	-11.0053
▁measured	-11.0056
▁periods	-11.0063
▁Formula	-11.0064
▁AA	-11.0066
▁speaker	-11.0069
night	-11.0072
hold	-11.0072
▁functional	-11.0073
▁Yugoslavia	-11.0074
▁2-	-11.0075
iber	-11.0081
One	-11.0086
▁1975,	-11.009
▁reporter	-11.0094
▁grave	-11.01
▁scores	-11.0101
▁focuse	-11.0103
▁bl	-11.0107
ons	-11.0107
etti	-11.011
▁Christians	-11.0124
▁Record	-11.0126
▁prince	-11.0128
▁raid	-11.0128
serv	-11.0131
rio	-11.0132
▁columns	-11.0134
▁Jin	-11.0135
▁instrument	-11.0145
▁unlike	-11.0146
▁Climate	-11.0146
▁Competition	-11.0146
▁Trinity	-11.0146
▁participating	-11.0146
▁petition	-11.0146
▁elsewhere	-11.0146
▁worn	-11.0146
▁steal	-11.0147
ivity	-11.0147
▁col	-11.0147
▁internet	-11.0148
▁immigrants	-11.0149
▁midfielder	-11.015
▁Alaska	-11.0151
▁predominantly	-11.0151
▁suitable	-11.0151
▁Hamburg	-11.0152
▁1876	-11.0152
▁partners	-11.0152
▁banned	-11.0153
4.	-11.0154
▁Morning	-11.0154
EN	-11.0155
▁1867	-11.0155
▁tourism	-11.0156
▁commenced	-11.0157
3)	-11.0157
▁proteins	-11.0158
▁essentially	-11.016
▁violent	-11.016
▁therapy	-11.016
▁dream	-11.0161
▁principle	-11.0163
asi	-11.0167
▁Der	-11.0167
▁tea	-11.0167
▁Leader	-11.0169
▁receives	-11.017
iti	-11.017
▁meat	-11.017
▁Motor	-11.0173
▁Snow	-11.0174
▁99	-11.0174
▁Are	-11.0176
▁wider	-11.0177
▁Franco	-11.0177
▁wire	-11.0178
▁Fan	-11.0182
▁coached	-11.0185
▁credits	-11.0195
▁handle	-11.0198
▁cl	-11.0212
▁Sat	-11.0213
SL	-11.0216
▁Pr	-11.0216
▁requested	-11.0218
cit	-11.0222
inter	-11.0223
▁bay	-11.0224
▁hole	-11.0226
rom	-11.0227
team	-11.0235
num	-11.0237
thi	-11.0239
rr	-11.024
▁Pictures	-11.0242
▁constitutional	-11.0243
lands	-11.0246
▁manual	-11.025
▁IT	-11.0251
▁virtual	-11.0252
▁Nigeria	-11.0253
▁victim	-11.0254
stad	-11.0256
▁Dale	-11.0257
WA	-11.0261
▁Liberty	-11.0263
▁absolute	-11.0263
▁calendar	-11.0263
▁cemetery	-11.0263
▁universe	-11.0263
▁Contemporary	-11.0263
▁structural	-11.0263
▁gallery	-11.0263
▁cloud	-11.0263
▁Hitler	-11.0263
▁administrator	-11.0264
▁Indies	-11.0264
▁Jerry	-11.0265
▁Cruz	-11.0265
▁2–0	-11.0266
▁blind	-11.0267
▁editorial	-11.0267
▁5,000	-11.0267
▁1873	-11.0268
▁Arena	-11.0269
▁ERA	-11.027
▁sharing	-11.0271
▁Estate	-11.0272
▁1883	-11.0274
▁recovery	-11.0275
▁Penn	-11.0276
▁artwork	-11.0276
▁lakes	-11.0277
▁Mars	-11.0278
▁Representative	-11.0282
▁failing	-11.0283
▁sin	-11.0287
▁recalled	-11.0294
omi	-11.0295
▁locally	-11.03
iva	-11.0308
▁77	-11.0308
▁Vegas	-11.031
▁auction	-11.0311
▁ruler	-11.0311
▁Susan	-11.0312
▁allies	-11.0315
kha	-11.0315
▁athletes	-11.0327
▁throw	-11.0328
▁CA	-11.0331
▁bombing	-11.0336
▁85	-11.0336
length	-11.0336
▁stress	-11.034
▁Nan	-11.0341
▁none	-11.0342
▁Lions	-11.0344
stock	-11.0349
▁governments	-11.0349
▁breed	-11.0356
ç	-11.0359
▁prey	-11.0359
▁Mak	-11.0363
▁investigate	-11.0365
▁affiliate	-11.0365
▁Current	-11.0366
▁Venezuela	-11.0371
cra	-11.0373
eri	-11.0375
▁88	-11.0378
▁82	-11.0378
▁supplement	-11.0379
▁Palestine	-11.038
▁prestigious	-11.038
▁valuable	-11.038
▁bachelor	-11.038
▁drove	-11.038
▁Wildlife	-11.038
▁signature	-11.0381
▁Watson	-11.0381
▁submitted	-11.0381
▁managing	-11.0381
▁fluid	-11.0381
▁birthday	-11.0383
▁Formation	-11.0383
▁queen	-11.0383
▁App	-11.0383
put	-11.0384
▁Ellis	-11.0384
chu	-11.0387
▁lecturer	-11.0387
▁Former	-11.0388
▁1875	-11.0388
▁sword	-11.0389
Gu	-11.0389
▁bull	-11.0391
HS	-11.0391
▁pitch	-11.0392
▁instruction	-11.0392
▁Pearl	-11.0394
▁LA	-11.0394
▁rice	-11.0395
ably	-11.0396
▁enzyme	-11.0396
take	-11.0397
▁unless	-11.0397
▁1881	-11.0401
▁consumer	-11.0403
▁Iraqi	-11.0406
▁plates	-11.0408
AP	-11.0409
▁Bol	-11.0409
▁licensed	-11.041
DC	-11.0414
▁Mul	-11.0414
▁ratings	-11.0417
▁crosses	-11.042
▁sessions	-11.0425
ough	-11.0425
▁(8	-11.0427
▁el	-11.043
▁Let	-11.043
PO	-11.0432
Am	-11.0435
▁Gall	-11.0447
▁su	-11.045
▁78	-11.045
▁monthly	-11.0452
▁Has	-11.0455
▁lo	-11.0456
▁portray	-11.0458
▁Bern	-11.0458
▁demands	-11.046
▁rough	-11.0463
ingham	-11.0466
▁Neu	-11.0467
▁Mason	-11.0468
nor	-11.0469
▁Magic	-11.0471
uf	-11.0471
▁Salt	-11.0473
▁pages	-11.0474
▁grades	-11.0474
▁Fish	-11.0479
▁Fall	-11.0482
▁reverse	-11.0486
▁bases	-11.0487
▁describ	-11.049
▁proportion	-11.0491
▁valid	-11.0497
▁disbanded	-11.0499
▁emphasis	-11.0499
▁explosion	-11.0499
▁graduation	-11.0499
▁incumbent	-11.0499
▁Gothic	-11.0499
▁Architecture	-11.0499
▁municipalities	-11.05
▁attendance	-11.0501
▁volunteers	-11.0501
▁Buffalo	-11.0502
▁resignation	-11.0502
mile	-11.0502
▁Tin	-11.0503
▁Terry	-11.0503
▁Still	-11.0506
▁Movie	-11.0506
▁relay	-11.0506
▁decide	-11.0512
▁convicted	-11.0512
ctor	-11.0512
▁Tech	-11.0514
▁Indonesian	-11.0517
▁Syrian	-11.0519
▁rising	-11.0519
▁Henri	-11.0522
▁Dark	-11.0522
▁approaches	-11.0524
▁physician	-11.0526
▁interaction	-11.0526
▁Philippine	-11.0529
vu	-11.053
91	-11.0532
▁Teams	-11.0532
▁Mall	-11.0533
▁Kill	-11.0534
▁Sara	-11.0535
▁songwriter	-11.0536
▁fun	-11.0536
slav	-11.054
▁landed	-11.0546
read	-11.0549
▁Ivan	-11.0553
▁shore	-11.0554
▁Shar	-11.0556
▁Joan	-11.0559
▁59	-11.056
▁Eagles	-11.056
TS	-11.0565
▁$4	-11.0565
▁Card	-11.0566
▁defect	-11.0569
▁golf	-11.0571
gli	-11.0574
written	-11.0576
▁alternate	-11.0582
formerly	-11.0583
▁attacking	-11.0587
▁Electric	-11.0594
▁manufacture	-11.0599
person	-11.0599
bri	-11.0602
▁Azerbaijan	-11.0611
▁Bryan	-11.0611
▁essential	-11.0613
▁Grove	-11.0619
▁occupy	-11.062
▁Anglican	-11.062
▁Nebraska	-11.062
▁Roosevelt	-11.062
▁identical	-11.062
▁pianist	-11.062
▁summary	-11.062
▁temporarily	-11.062
▁radar	-11.062
▁telephone	-11.062
▁Argentine	-11.062
▁hidden	-11.062
▁Celtic	-11.0621
▁regain	-11.0621
▁mansion	-11.0621
▁Lebanon	-11.0622
▁Manhattan	-11.0622
▁Abdul	-11.0623
▁Performance	-11.0624
▁Hebrew	-11.0624
▁Kas	-11.0625
▁ear	-11.0626
▁Leeds	-11.0627
▁blow	-11.0629
-12	-11.0629
lid	-11.063
▁Join	-11.063
maker	-11.0631
▁Ce	-11.0634
▁intervention	-11.0635
mis	-11.0637
▁1993.	-11.0637
▁Gas	-11.0638
▁clothing	-11.0638
▁stroke	-11.0639
▁Tak	-11.0643
▁variation	-11.0648
▁achievement	-11.065
▁Fourth	-11.0651
▁Bio	-11.0652
▁Bai	-11.0653
iki	-11.0654
▁Gang	-11.0654
▁PS	-11.0657
▁explains	-11.0657
▁Store	-11.0659
▁Cher	-11.0663
▁ch	-11.0665
▁variant	-11.0668
▁Examples	-11.0672
▁Ter	-11.0679
▁broadcasts	-11.0684
▁documented	-11.0684
▁attain	-11.0686
▁deaths	-11.0686
▁Lip	-11.0687
▁Paulo	-11.0687
▁£1	-11.0688
▁Playing	-11.0691
iri	-11.0691
▁liquid	-11.0693
▁Pad	-11.0695
▁Vale	-11.0699
▁Kirk	-11.0699
Da	-11.0699
▁assists	-11.07
comp	-11.0701
▁vi	-11.0701
▁Gri	-11.0701
Com	-11.0701
eni	-11.0703
oh	-11.0711
▁(11	-11.0713
▁dogs	-11.0719
kins	-11.0725
▁thinking	-11.0729
▁solutions	-11.073
▁Les	-11.0738
hole	-11.0742
▁Barcelona	-11.0742
▁Cabinet	-11.0742
▁Cincinnati	-11.0742
▁curriculum	-11.0742
▁industries	-11.0742
▁relevant	-11.0742
▁Berkeley	-11.0742
▁Microsoft	-11.0742
▁consumption	-11.0742
▁rainfall	-11.0742
▁Solomon	-11.0742
▁Dennis	-11.0742
▁diversity	-11.0742
▁Hugh	-11.0742
▁Protection	-11.0742
▁sick	-11.0743
▁assassination	-11.0743
▁Montana	-11.0743
▁decisions	-11.0744
▁Qui	-11.0744
▁slot	-11.0744
▁Mumbai	-11.0745
▁Palestinian	-11.0745
▁Jerusalem	-11.0745
OS	-11.0745
▁nephew	-11.0747
▁Manuel	-11.0748
▁Owen	-11.0748
▁proof	-11.0757
▁Kol	-11.0758
she	-11.0765
▁posts	-11.0765
▁Alice	-11.0768
ces	-11.0769
▁rotation	-11.0769
▁beetle	-11.077
▁playoffs	-11.0771
week	-11.0772
▁opponent	-11.0773
▁situations	-11.0777
▁airline	-11.0781
▁Latino	-11.0785
ffer	-11.0788
▁Rogers	-11.079
▁cr	-11.0794
▁tone	-11.0797
▁craft	-11.0798
▁Rabbi	-11.0799
arian	-11.0803
▁Nation	-11.0805
▁walking	-11.0806
51	-11.081
via	-11.0822
▁Lim	-11.0825
orn	-11.0825
▁myth	-11.0829
CD	-11.0829
▁Lock	-11.0831
▁magazines	-11.0838
▁pupils	-11.0841
cap	-11.0841
dio	-11.0848
▁apparent	-11.0851
▁imp	-11.0853
▁texts	-11.0854
▁Thor	-11.0855
Tra	-11.0856
▁101	-11.0857
▁consistent	-11.0857
▁Nat	-11.0858
▁Germans	-11.0859
▁Rama	-11.0861
_1	-11.0861
▁superior	-11.0864
▁referendum	-11.0865
▁technologies	-11.0865
▁Jefferson	-11.0865
▁Stakes	-11.0866
▁interface	-11.0866
▁Greg	-11.0866
▁NASA	-11.0866
▁Vietnamese	-11.0866
▁permitted	-11.0866
▁Renaissance	-11.0867
▁compiled	-11.0867
▁stake	-11.0867
▁Revolutionary	-11.0868
▁Amendment	-11.0868
▁Tigers	-11.0869
▁Edition	-11.0869
▁Ground	-11.087
▁Guide	-11.0871
▁corruption	-11.0873
▁Edwards	-11.0873
▁accessible	-11.0874
▁1989.	-11.0875
▁alive	-11.0876
▁É	-11.0882
oro	-11.0883
▁prepar	-11.0884
▁urge	-11.0884
▁reduc	-11.0885
▁und	-11.0886
▁governing	-11.0887
met	-11.0888
▁Vel	-11.0889
▁Action	-11.0893
▁taxes	-11.0893
▁challenged	-11.0895
llo	-11.0897
▁expert	-11.0898
▁celebration	-11.0899
▁recover	-11.0902
▁demonstrate	-11.0904
hel	-11.0906
▁Nine	-11.0906
▁pulled	-11.0908
▁Med	-11.0909
▁difficulty	-11.0909
▁departments	-11.0918
▁Every	-11.0922
▁ties	-11.0922
IM	-11.0922
▁Stars	-11.0923
att	-11.0924
flow	-11.0928
▁archaeological	-11.0929
▁historically	-11.0931
▁74	-11.0935
bul	-11.0936
▁Cuban	-11.0943
white	-11.0947
▁Luke	-11.0947
▁possess	-11.0949
▁Less	-11.0949
ographic	-11.0949
▁Found	-11.095
▁Dame	-11.0952
polis	-11.0953
▁filming	-11.0954
▁fighter	-11.0956
rad	-11.0956
reg	-11.0964
▁Arc	-11.0964
rel	-11.0967
▁shoulder	-11.0968
▁decrease	-11.0976
▁populations	-11.098
▁Armenia	-11.0986
▁borders	-11.0987
▁labour	-11.0987
▁Economy	-11.099
▁Industry	-11.099
▁certificate	-11.099
▁silent	-11.099
▁Sheffield	-11.099
▁funeral	-11.099
▁renowned	-11.099
▁filter	-11.099
▁impossible	-11.099
▁roster	-11.099
▁exposure	-11.099
▁efficiency	-11.099
▁Ahmed	-11.099
▁Davies	-11.099
▁milk	-11.099
▁firing	-11.099
▁laboratory	-11.0991
▁colonies	-11.0991
▁biography	-11.0991
▁Beck	-11.0991
▁elevated	-11.0992
▁terrain	-11.0992
▁Lutheran	-11.0993
face	-11.0993
▁50%	-11.0995
eff	-11.0995
▁understood	-11.0996
▁Charlie	-11.0996
rit	-11.1001
ante	-11.1001
dimensional	-11.1001
▁ne	-11.1001
▁1884	-11.1002
▁flights	-11.1003
▁grain	-11.1003
mate	-11.1003
▁Campus	-11.1004
▁illustrated	-11.1004
Sc	-11.1006
anti	-11.1007
▁statistical	-11.101
AD	-11.1011
▁faster	-11.1015
fort	-11.1017
▁2,000	-11.102
BC	-11.1022
▁partial	-11.1022
▁rarely	-11.1023
stead	-11.1025
▁variable	-11.1026
▁procedure	-11.103
▁drums	-11.103
fall	-11.1033
▁namely	-11.1036
▁generate	-11.1038
▁Cold	-11.104
▁improvements	-11.1041
▁Stage	-11.1046
,500	-11.1046
align	-11.105
▁(14	-11.1055
mini	-11.1057
bia	-11.1057
rated	-11.1063
▁Az	-11.1066
lived	-11.1072
▁sleep	-11.1073
▁onwards	-11.1075
▁gra	-11.1076
wide	-11.1076
▁fur	-11.1079
▁Friends	-11.1081
San	-11.1086
▁em	-11.109
▁backing	-11.11
ore	-11.1103
▁profession	-11.1107
▁Av	-11.1109
sberg	-11.1111
▁extinct	-11.1113
▁Row	-11.1115
▁Nevertheless	-11.1117
▁behaviour	-11.1117
▁pregnant	-11.1117
▁tributary	-11.1117
▁voyage	-11.1117
▁worst	-11.1117
▁metropolitan	-11.1117
▁oversee	-11.1117
▁regulator	-11.1117
▁matrix	-11.1117
▁crack	-11.1118
▁Aviation	-11.1118
▁wake	-11.1118
▁elementary	-11.1119
▁quoted	-11.1121
▁cultures	-11.1123
▁Collins	-11.1123
▁migration	-11.1123
▁1871	-11.1123
▁doctrine	-11.1123
▁Costa	-11.1126
▁Rush	-11.1127
▁conductor	-11.1134
aught	-11.1135
track	-11.1136
otic	-11.1136
▁traveling	-11.1137
▁burned	-11.1144
▁hills	-11.1147
▁tele	-11.1155
▁portrait	-11.1156
PR	-11.1156
cast	-11.1156
▁Richardson	-11.1156
▁disorder	-11.1157
▁installation	-11.1157
▁Cardinal	-11.1157
▁lecture	-11.1157
▁aspect	-11.1158
SE	-11.116
cot	-11.1162
▁Em	-11.1162
hem	-11.1168
PD	-11.1168
▁pilots	-11.1169
chy	-11.1169
▁Gene	-11.1171
▁Pac	-11.1174
▁Clo	-11.1176
sz	-11.1177
▁Lab	-11.1178
try	-11.1184
▁prompt	-11.1187
▁festivals	-11.119
▁guests	-11.1191
ground	-11.1193
▁BA	-11.1194
ET	-11.1195
):	-11.1196
EP	-11.1202
that	-11.1205
court	-11.1207
▁theoretical	-11.1208
▁lover	-11.1209
vid	-11.1215
▁moves	-11.1217
▁76	-11.1217
ld	-11.1218
▁shock	-11.1219
kal	-11.1225
▁temples	-11.1225
▁Wars	-11.1229
▁Otto	-11.1231
▁fifteen	-11.1233
▁transported	-11.1234
▁errors	-11.1235
400	-11.1237
▁Sid	-11.1239
▁Commons	-11.1241
▁accompany	-11.1245
▁compensation	-11.1245
▁empire	-11.1245
▁ordinary	-11.1245
▁spectrum	-11.1245
▁placing	-11.1245
▁choir	-11.1245
▁imperial	-11.1245
▁Delaware	-11.1245
▁Obama	-11.1245
▁Harvey	-11.1245
▁Murphy	-11.1245
▁announcement	-11.1246
▁tournaments	-11.1246
▁dangerous	-11.1246
▁varies	-11.1247
leg	-11.125
away	-11.125
▁theories	-11.1251
▁creator	-11.1252
pot	-11.1254
▁bore	-11.1254
▁NY	-11.1254
▁width	-11.1255
▁1868	-11.1256
▁Rail	-11.1259
▁2021.	-11.1261
▁Pala	-11.1264
its	-11.1267
▁finance	-11.1271
▁exhibitions	-11.1273
▁Mann	-11.1274
▁mainland	-11.1279
▁(9	-11.1282
▁Newton	-11.1282
hai	-11.1282
▁mines	-11.1283
▁graph	-11.1283
took	-11.1285
▁interesting	-11.1287
▁Auto	-11.1287
▁locomotive	-11.1289
▁venues	-11.1289
▁incorporate	-11.129
▁objective	-11.1291
ake	-11.1291
▁examination	-11.1292
▁Source	-11.1293
▁Page	-11.1294
▁Rep	-11.1296
▁0.0	-11.1296
▁sung	-11.1298
ibn	-11.1298
▁regulation	-11.1298
▁camps	-11.1301
▁Dia	-11.1302
▁challenges	-11.1303
nz	-11.1306
Pr	-11.1311
rang	-11.1313
rov	-11.1313
▁readers	-11.1314
▁waiting	-11.1316
winning	-11.1316
▁Aires	-11.1317
▁71	-11.1318
nne	-11.1318
cross	-11.1321
▁powered	-11.1322
▁Rain	-11.1326
▁discover	-11.133
speaking	-11.1332
What	-11.1333
°	-11.1339
▁Anton	-11.1339
▁Actor	-11.1339
ising	-11.1345
ncient	-11.1352
fire	-11.1352
▁honored	-11.1358
plane	-11.136
▁Tel	-11.136
▁sharp	-11.1361
RE	-11.1364
yu	-11.1367
▁noble	-11.1369
▁pot	-11.137
lies	-11.1372
▁Municipal	-11.1373
▁Chair	-11.1375
▁Diocese	-11.1375
▁Manitoba	-11.1375
▁Statistics	-11.1375
▁Zimbabwe	-11.1375
▁comprehensive	-11.1375
▁kilometers	-11.1375
▁protagonist	-11.1375
▁unincorporated	-11.1375
▁Cameron	-11.1375
▁warfare	-11.1375
▁configuration	-11.1375
▁dialogue	-11.1375
▁Ernest	-11.1375
▁Stuart	-11.1375
▁massacre	-11.1375
▁consultant	-11.1375
▁Kerala	-11.1375
▁chorus	-11.1376
▁Overview	-11.1376
▁batting	-11.1376
▁Individual	-11.1376
▁mainstream	-11.1376
▁wore	-11.1377
▁pin	-11.1378
▁friendship	-11.1378
odo	-11.1378
▁Bobby	-11.1378
▁Broad	-11.1379
▁Nature	-11.1379
▁Herbert	-11.1379
▁Hughes	-11.1382
▁democracy	-11.1382
month	-11.1384
▁bath	-11.1384
▁#1	-11.1386
▁Tam	-11.1386
▁amounts	-11.1386
▁soap	-11.1389
▁connections	-11.1389
▁AFC	-11.139
▁Where	-11.139
▁consideration	-11.1394
utstanding	-11.14
ort	-11.14
▁taste	-11.1404
▁chi	-11.1404
▁demo	-11.1405
ssel	-11.1406
▁pitched	-11.1411
til	-11.1413
▁NA	-11.1413
▁stops	-11.1414
▁Say	-11.1414
▁Vas	-11.1415
lect	-11.1417
▁tram	-11.1417
ith	-11.1417
pit	-11.1418
▁Chen	-11.1418
▁hence	-11.1419
▁holiday	-11.142
▁compound	-11.1422
▁ticket	-11.1422
▁Album	-11.1423
:30	-11.1424
core	-11.1424
▁rebounds	-11.1425
▁weapon	-11.1425
arch	-11.1427
ree	-11.1428
▁clan	-11.1429
▁Kir	-11.1431
▁diet	-11.1432
stra	-11.1436
▁truck	-11.1437
owski	-11.1442
▁bearing	-11.1446
▁interviews	-11.1447
AT	-11.145
Love	-11.1453
▁44,	-11.1453
▁rape	-11.1457
▁grants	-11.1458
ving	-11.146
▁bone	-11.146
▁Ky	-11.1462
▁Ruth	-11.1464
▁Railways	-11.1465
Super	-11.1466
ía	-11.1466
▁pub	-11.1468
ulu	-11.1472
▁laps	-11.1473
▁numbered	-11.1474
▁Mut	-11.1478
▁Wy	-11.1479
fish	-11.1487
▁trouble	-11.1491
▁judges	-11.1492
▁lease	-11.1492
▁1987.	-11.1495
ista	-11.1495
ois	-11.1497
hat	-11.1498
Ru	-11.15
then	-11.1502
uro	-11.1504
▁Ferdinand	-11.1506
▁elaborate	-11.1506
▁enemies	-11.1506
▁fifty	-11.1506
▁harbour	-11.1506
▁smooth	-11.1506
▁identification	-11.1506
▁Grammy	-11.1507
▁Facebook	-11.1507
▁allegations	-11.1507
▁teeth	-11.1507
▁burial	-11.1507
▁Future	-11.1507
▁Popular	-11.1507
▁sugar	-11.1507
▁Vermont	-11.1507
▁Prison	-11.1509
▁Petersburg	-11.1509
▁cutting	-11.1511
▁1854	-11.1511
▁Price	-11.1512
▁interim	-11.1512
ulate	-11.1513
▁sang	-11.1514
▁god	-11.1516
▁François	-11.1516
▁thrown	-11.1517
▁followers	-11.1517
▁grandson	-11.1519
kers	-11.1519
▁Rick	-11.152
aged	-11.152
▁encounter	-11.1521
▁1856	-11.1523
▁collector	-11.1524
▁provisions	-11.1526
▁restricted	-11.1528
▁cor	-11.153
▁Cave	-11.1534
▁artificial	-11.1535
deemed	-11.1537
unt	-11.1542
eno	-11.1544
seat	-11.1552
▁Associate	-11.1555
▁affair	-11.1558
▁Java	-11.1558
▁resource	-11.1559
lus	-11.156
▁concepts	-11.1561
6,	-11.157
nam	-11.1571
▁dancer	-11.158
▁Brad	-11.1581
▁bat	-11.1583
▁HM	-11.1585
rap	-11.1591
▁Rich	-11.1592
nov	-11.1597
order	-11.1598
▁Near	-11.1599
Bu	-11.1599
▁tons	-11.1602
about	-11.1605
–0	-11.1608
spi	-11.1619
▁tier	-11.162
EA	-11.1622
▁diplomat	-11.1625
▁manufacturers	-11.1625
▁surprise	-11.1625
▁fame	-11.1626
▁sixteen	-11.1629
ère	-11.1631
▁Kenya	-11.1633
▁undergo	-11.1634
▁economics	-11.1636
aff	-11.1636
▁worse	-11.164
▁Beginning	-11.164
▁hurricane	-11.164
▁revolt	-11.164
▁routine	-11.164
▁overseas	-11.164
▁Revival	-11.164
▁Policy	-11.164
▁Wallace	-11.164
▁Leslie	-11.164
▁muscle	-11.164
▁Denver	-11.1641
▁baby	-11.1641
was	-11.1642
▁Spencer	-11.1642
TR	-11.1642
▁Mali	-11.1646
Best	-11.1648
▁sing	-11.1648
▁inherited	-11.1651
▁pairs	-11.1653
▁kg	-11.1654
ison	-11.1655
▁cult	-11.1656
▁succession	-11.1658
▁Sau	-11.1659
▁Us	-11.166
▁recruited	-11.1662
▁worker	-11.1663
▁Editor	-11.1666
late	-11.1666
fen	-11.1666
▁tomb	-11.1669
▁XI	-11.1669
▁Merit	-11.1671
cip	-11.1672
▁dense	-11.1673
▁argues	-11.1676
film	-11.1676
sar	-11.1678
▁GT	-11.1682
▁Pel	-11.1683
IA	-11.1685
▁shifted	-11.1688
▁Academic	-11.1691
▁Wen	-11.1697
▁Ted	-11.1697
8,	-11.1699
▁emerge	-11.1702
▁topic	-11.1703
table	-11.1706
ean	-11.1707
▁ka	-11.1708
lyn	-11.1709
▁Sr	-11.171
▁graphic	-11.1713
▁hyper	-11.1717
▁organisations	-11.172
▁Ir	-11.1721
▁Albums	-11.1726
▁beer	-11.1726
ule	-11.173
world	-11.1731
α	-11.1731
achi	-11.1732
group	-11.1732
▁pet	-11.1732
▁anchor	-11.1742
-21	-11.1746
mos	-11.1746
▁comprises	-11.1748
▁Bear	-11.1749
▁Industrial	-11.1752
▁64,	-11.1753
▁hear	-11.1755
▁angle	-11.1759
ald	-11.176
▁accurate	-11.1761
▁derive	-11.1763
▁wet	-11.1764
6.	-11.1769
▁Pal	-11.1772
▁Brunswick	-11.1775
▁Capitol	-11.1775
▁mirror	-11.1775
▁registration	-11.1775
▁reservoir	-11.1775
▁absent	-11.1775
▁prototype	-11.1775
▁bulk	-11.1775
▁Pedro	-11.1775
▁Besides	-11.1775
▁Venice	-11.1775
▁shopping	-11.1775
▁Nashville	-11.1775
▁intense	-11.1776
▁inform	-11.1776
▁Exhibition	-11.1776
▁vital	-11.1776
▁chess	-11.1777
▁diesel	-11.1777
▁farming	-11.1777
ander	-11.1778
▁optical	-11.1778
▁oak	-11.1778
▁doctorate	-11.1778
▁difficulties	-11.1779
▁audition	-11.1779
▁copper	-11.1779
▁thanks	-11.1779
▁contracts	-11.1779
▁employ	-11.1781
▁Speaker	-11.1782
▁discontinued	-11.1782
▁Eight	-11.1783
▁distinguish	-11.1783
▁72	-11.1783
▁handling	-11.1784
▁hook	-11.1784
▁suddenly	-11.1785
▁Travel	-11.1787
▁custom	-11.1788
▁Isaac	-11.1789
▁shops	-11.179
▁exactly	-11.1792
▁Reading	-11.1793
▁gathered	-11.1794
▁export	-11.18
▁photographer	-11.1801
iver	-11.1803
▁Name	-11.1803
▁€	-11.1804
▁asking	-11.1804
▁Males	-11.1805
▁crimes	-11.181
▁mall	-11.181
▁ft	-11.1811
▁Visit	-11.1812
Mon	-11.1815
▁160	-11.1819
HL	-11.1823
wen	-11.1824
▁Pitt	-11.1824
▁Charter	-11.1826
▁Rai	-11.1827
▁touchdowns	-11.1828
▁tune	-11.1828
▁cluster	-11.1832
..."	-11.1835
▁arrives	-11.1835
▁Set	-11.1836
NT	-11.1837
borg	-11.1841
dam	-11.1848
▁releas	-11.1853
_4	-11.1856
-7	-11.1857
link	-11.1858
▁combine	-11.1862
▁gr	-11.1863
_3	-11.1867
▁Bha	-11.1871
ota	-11.1874
▁How	-11.1877
FC	-11.1886
▁instructions	-11.1887
а	-11.1888
▁ridge	-11.189
gie	-11.1891
RO	-11.1893
HA	-11.1896
▁restore	-11.1903
▁Harbor	-11.1911
▁gardens	-11.1911
æ	-11.1912
▁imprisoned	-11.1912
▁membrane	-11.1912
▁revival	-11.1912
▁licence	-11.1912
▁aviation	-11.1912
▁Rachel	-11.1912
▁mistake	-11.1912
▁plastic	-11.1912
▁Finance	-11.1913
▁bacteria	-11.1913
▁awareness	-11.1913
thy	-11.1913
▁André	-11.1914
tun	-11.1914
▁certified	-11.1915
▁offense	-11.1916
▁Larry	-11.1916
▁simultaneously	-11.1916
▁unclear	-11.1917
▁Official	-11.1917
▁1857	-11.1917
▁Kay	-11.1919
FL	-11.1919
▁Enterprise	-11.1919
▁Interior	-11.192
▁ga	-11.192
▁Barnes	-11.192
▁sit	-11.1922
▁successive	-11.1922
▁indeed	-11.1923
▁Room	-11.1924
▁abilities	-11.1925
2)	-11.1927
▁1848	-11.1928
▁mechanical	-11.193
▁Kai	-11.193
▁Durham	-11.1934
▁pursued	-11.1934
▁advisor	-11.1935
▁strain	-11.1938
▁proceed	-11.1939
▁linguistic	-11.194
mun	-11.1942
▁4-	-11.1944
quest	-11.1944
▁escaped	-11.1948
▁lifetime	-11.1948
▁69	-11.195
▁seeing	-11.1951
▁Notes	-11.1953
▁Chad	-11.1954
▁Yuan	-11.1956
▁heir	-11.1957
▁advocate	-11.1962
▁Ara	-11.1963
▁Sex	-11.1967
▁Bath	-11.1968
▁Grande	-11.197
▁recipient	-11.1971
say	-11.1975
▁Cinema	-11.1976
▁discipline	-11.1976
▁teammate	-11.1978
saw	-11.1979
▁Palm	-11.198
▁Right	-11.1982
è	-11.1983
▁Serie	-11.1983
▁athlete	-11.1984
▁looks	-11.1985
▁Leon	-11.1986
chief	-11.1994
▁leagues	-11.1996
▁notice	-11.1998
▁68	-11.2001
▁independently	-11.2002
–1	-11.2005
3.	-11.2006
Wa	-11.2007
▁productions	-11.2008
German	-11.2009
▁Sala	-11.2009
▁historians	-11.2013
▁portions	-11.2016
▁surrender	-11.2018
▁abandon	-11.2018
▁Bun	-11.2019
color	-11.202
▁Bee	-11.2021
ovich	-11.2022
▁Comics	-11.2022
▁speakers	-11.2031
▁bills	-11.2033
very	-11.2034
▁Pla	-11.2034
▁sacrifice	-11.2035
▁statements	-11.2037
▁beside	-11.2041
▁Gate	-11.2041
imi	-11.2042
CT	-11.2042
▁Punjab	-11.2042
▁institute	-11.2044
▁feelings	-11.2047
rod	-11.2047
eus	-11.2048
cor	-11.2048
▁patron	-11.205
▁Commercial	-11.2051
▁Expedition	-11.2051
▁Gibson	-11.2051
▁Google	-11.2051
▁diocese	-11.2051
▁survival	-11.2051
▁Hudson	-11.2051
▁entity	-11.2051
▁Friedrich	-11.2051
▁fraud	-11.2051
▁Ronald	-11.2051
▁Hat	-11.2051
▁punishment	-11.2052
▁Oscar	-11.2052
▁Airlines	-11.2052
▁lord	-11.2052
▁Number	-11.2052
▁separation	-11.2053
▁helps	-11.2053
nai	-11.2053
▁Oakland	-11.2054
ED	-11.2055
▁$5	-11.2055
▁Location	-11.2055
▁Left	-11.2055
▁Hull	-11.2056
▁Qa	-11.2056
▁Financial	-11.2057
LC	-11.2057
▁trap	-11.2058
▁terrorist	-11.2059
▁Study	-11.2059
▁acknowledged	-11.206
▁Poly	-11.206
▁targets	-11.206
tem	-11.2062
ans	-11.2062
▁Croatian	-11.2062
▁concentrated	-11.2062
▁governed	-11.2067
▁Neil	-11.2068
▁evil	-11.2072
tens	-11.2072
▁Julia	-11.2073
▁Gau	-11.2075
▁drugs	-11.2077
▁neighboring	-11.2081
▁58	-11.2082
▁slowly	-11.2084
rig	-11.2084
sum	-11.2084
▁mail	-11.2087
NG	-11.2089
ON	-11.209
▁experiments	-11.2092
▁ward	-11.2092
▁rap	-11.2096
▁eat	-11.2097
ê	-11.2107
▁te	-11.2107
▁Mai	-11.2108
▁implement	-11.2111
ID	-11.2114
ulation	-11.2115
▁missile	-11.2115
▁trend	-11.2116
▁Bros	-11.2117
▁characteristic	-11.2122
▁inches	-11.2126
▁tru	-11.2127
real	-11.2128
▁requir	-11.2133
▁flee	-11.2134
▁addressed	-11.2135
▁Gill	-11.2142
key	-11.2147
Black	-11.2149
DR	-11.215
▁Sean	-11.215
▁fr	-11.215
▁tenth	-11.2151
ways	-11.2152
▁Bart	-11.2154
graph	-11.2155
▁achievements	-11.216
ried	-11.2161
gas	-11.2162
ature	-11.2164
▁Syn	-11.2171
–15	-11.2171
▁Deep	-11.2172
▁bike	-11.2173
▁toll	-11.2175
▁shoot	-11.2176
nit	-11.218
▁continent	-11.2181
▁prefer	-11.2189
▁Iceland	-11.2191
▁Boulevard	-11.2192
▁Cavalry	-11.2192
▁Monument	-11.2192
▁Shakespeare	-11.2192
▁autumn	-11.2192
▁coffee	-11.2192
▁Amazon	-11.2192
sten	-11.2192
▁conjunction	-11.2192
▁protocol	-11.2192
▁horizontal	-11.2192
▁Bennett	-11.2192
▁Corr	-11.2192
▁immigration	-11.2192
▁shallow	-11.2193
▁Cel	-11.2193
▁Presbyterian	-11.2194
nus	-11.2194
▁dramatic	-11.2195
▁Kr	-11.2196
▁Saints	-11.2197
▁lie	-11.2197
▁parking	-11.2197
▁happy	-11.2197
▁Sullivan	-11.2198
▁Maurice	-11.22
▁Marcus	-11.2202
▁Blake	-11.2202
▁strengthen	-11.2205
▁Higher	-11.2205
▁Carol	-11.2205
▁Arch	-11.2206
dorf	-11.221
rium	-11.2212
▁Met	-11.2215
▁Phillips	-11.2216
vil	-11.2218
Jo	-11.2221
▁remembered	-11.2222
▁severely	-11.2222
▁Flying	-11.2225
▁wound	-11.2227
rite	-11.2227
▁1982.	-11.223
▁Colin	-11.2238
▁95	-11.2239
▁Bert	-11.2244
fl	-11.2244
emp	-11.2248
▁neo	-11.2248
▁curve	-11.2249
▁remov	-11.225
▁Devon	-11.2251
▁flooding	-11.2253
▁recognize	-11.2253
▁Bab	-11.2256
▁monitor	-11.2258
▁waves	-11.2258
hoe	-11.2258
▁belong	-11.2258
▁"(	-11.226
apa	-11.2262
▁blues	-11.2263
EL	-11.2265
▁ph	-11.2266
got	-11.2269
▁teach	-11.2273
▁targeted	-11.228
–8	-11.2282
▁MD	-11.2284
▁aware	-11.2285
▁specialist	-11.2286
second	-11.229
South	-11.2291
mur	-11.2291
RS	-11.2291
▁Mind	-11.2292
sel	-11.2293
▁telling	-11.2295
4)	-11.2297
▁Neo	-11.2299
▁Burn	-11.2299
Th	-11.23
▁seeds	-11.2302
ş	-11.2303
▁drawings	-11.2303
▁AP	-11.2304
▁rider	-11.2307
▁USS	-11.2315
continental	-11.2316
MO	-11.2321
▁Estonia	-11.2323
aku	-11.2325
grade	-11.2326
▁Len	-11.2332
▁efficient	-11.2332
lea	-11.2333
▁capita	-11.2333
ș	-11.2334
dre	-11.2334
е	-11.2334
и	-11.2334
▁Copenhagen	-11.2334
▁Tuesday	-11.2334
▁Vladimir	-11.2334
▁Volunteer	-11.2334
▁companion	-11.2334
▁gastropod	-11.2334
▁oxygen	-11.2334
▁Schedule	-11.2334
▁inclusion	-11.2334
▁psychology	-11.2334
▁dubbed	-11.2334
▁psychological	-11.2335
▁societies	-11.2335
▁Aaron	-11.2335
▁mixture	-11.2335
▁Indianapolis	-11.2335
▁minimal	-11.2335
▁invented	-11.2335
HC	-11.2336
▁Bailey	-11.2336
▁Provincial	-11.2337
▁shipping	-11.2337
▁confidence	-11.2337
▁stolen	-11.2337
▁Harold	-11.2338
▁Politics	-11.2338
▁Diamond	-11.2338
▁Ralph	-11.234
▁Jacques	-11.234
▁Original	-11.2341
▁synthesis	-11.2341
▁Preston	-11.2341
▁Private	-11.2341
▁Malta	-11.2342
▁Flag	-11.2342
▁Voice	-11.2344
▁BCE	-11.2348
▁virus	-11.2349
▁5-	-11.2353
▁73	-11.2355
▁Bin	-11.2355
erson	-11.2358
rn	-11.2365
mph	-11.2369
pla	-11.237
▁Nord	-11.2372
▁realize	-11.2372
▁Apart	-11.2372
én	-11.2373
▁praise	-11.2378
▁seal	-11.2381
▁compositions	-11.2383
itch	-11.2383
▁Fisher	-11.2389
ager	-11.2393
▁Nas	-11.2397
▁600	-11.24
▁lock	-11.24
▁Rovers	-11.24
founded	-11.2403
roy	-11.2403
▁motorcycle	-11.2406
▁restrictions	-11.2406
▁tissue	-11.2406
▁Dec	-11.2408
▁cricketer	-11.2411
lian	-11.2412
ening	-11.2412
▁employee	-11.2412
TE	-11.2413
enburg	-11.2423
▁Single	-11.2423
dus	-11.2426
nna	-11.2429
▁Pin	-11.243
GB	-11.2435
League	-11.2436
▁79	-11.2436
_5	-11.2439
central	-11.244
▁Engineers	-11.2449
▁conferences	-11.245
▁studios	-11.245
▁Louise	-11.2452
▁topped	-11.2456
produced	-11.2459
▁entrepreneur	-11.2459
▁practiced	-11.2459
lau	-11.246
iana	-11.2466
selling	-11.2466
▁Algeria	-11.2469
▁arc	-11.2472
▁caps	-11.2473
etta	-11.2474
▁Bag	-11.2474
lier	-11.2476
▁Relations	-11.2479
▁Ecuador	-11.2479
▁Hurricane	-11.2479
▁Luxembourg	-11.2479
▁Somerset	-11.2479
▁fantasy	-11.2479
▁garrison	-11.2479
▁Uruguay	-11.2479
▁Tax	-11.2479
▁Arnold	-11.2479
▁presidency	-11.2479
▁exterior	-11.2479
▁Essex	-11.2479
▁Harbour	-11.2479
▁bicycle	-11.248
▁Laboratory	-11.248
▁flew	-11.248
▁armour	-11.248
▁Milwaukee	-11.2481
▁Scotia	-11.2481
▁colonel	-11.2481
▁jury	-11.2481
▁Brighton	-11.2481
▁Methodist	-11.2482
▁Thursday	-11.2483
▁uprising	-11.2483
▁Course	-11.2484
▁1869	-11.2484
▁undertaken	-11.2485
▁depot	-11.2486
smith	-11.2486
▁Madison	-11.2488
▁Tibetan	-11.2489
▁mentor	-11.2489
▁bench	-11.2491
If	-11.2491
▁similarly	-11.2492
▁1879	-11.2494
▁preventing	-11.2496
▁Spirit	-11.2497
▁100,000	-11.2497
▁bag	-11.2498
There	-11.2498
▁repeatedly	-11.2498
▁1874	-11.2498
Su	-11.2501
▁enters	-11.2503
▁tag	-11.2506
▁Fighter	-11.2508
▁delayed	-11.2509
ional	-11.2509
sized	-11.251
▁Heat	-11.2511
lac	-11.2512
▁bell	-11.2512
▁climb	-11.2513
▁answer	-11.2523
ink	-11.2525
▁3-	-11.2536
▁Heath	-11.2541
▁aerial	-11.2545
▁Tunisia	-11.2546
Cl	-11.2547
NR	-11.2548
▁Porter	-11.2549
▁Oil	-11.255
▁Cre	-11.255
▁Mus	-11.255
▁Cass	-11.255
▁Cy	-11.2555
SD	-11.2556
▁veteran	-11.2557
▁client	-11.2558
molecular	-11.2558
▁Simpson	-11.2561
▁journalists	-11.2567
▁campaigns	-11.2567
▁customer	-11.2571
▁Chan	-11.2571
ssen	-11.2572
▁Care	-11.2572
▁topics	-11.2573
▁personally	-11.2574
▁nominations	-11.2575
▁Fin	-11.2577
name	-11.2579
And	-11.2579
▁mu	-11.258
text	-11.2582
songwriter	-11.2583
▁procedures	-11.2584
▁Sum	-11.2588
zel	-11.2588
▁adapt	-11.2589
▁Change	-11.2594
referring	-11.2595
/1	-11.2595
▁flower	-11.2595
▁putt	-11.2601
▁Jun	-11.2604
posed	-11.261
eller	-11.261
Big	-11.2614
▁Slovenia	-11.2615
▁Clan	-11.2616
▁Jamaica	-11.2617
▁infection	-11.2619
▁profit	-11.262
▁faces	-11.2622
▁67	-11.2624
▁Hil	-11.2625
▁syndrome	-11.2626
▁Lancashire	-11.2626
▁atmosphere	-11.2626
▁feminist	-11.2626
▁horror	-11.2626
▁imprisonment	-11.2626
▁Edmund	-11.2627
▁Emmy	-11.2627
▁Gerald	-11.2627
▁Cle	-11.2627
▁circulation	-11.2627
llegedly	-11.2627
▁preservation	-11.2627
▁criticised	-11.2628
▁necessarily	-11.2629
▁Rhine	-11.2629
▁Mega	-11.2629
▁Baltic	-11.2629
▁Oslo	-11.263
bot	-11.2631
▁sweet	-11.2632
pm	-11.2633
▁bridges	-11.2634
Day	-11.2634
▁Institution	-11.2634
▁rocks	-11.2635
▁Independence	-11.2636
▁arise	-11.2639
▁Walk	-11.2639
▁hometown	-11.2639
▁absorbed	-11.2645
▁passion	-11.2645
PL	-11.2646
pul	-11.2649
▁noise	-11.2651
▁touch	-11.2652
▁parks	-11.2654
▁trails	-11.2656
amma	-11.2658
▁Gr	-11.2658
▁realized	-11.2659
▁encountered	-11.2663
▁doctors	-11.267
opa	-11.267
lash	-11.2673
▁Ker	-11.2673
▁Marvel	-11.2674
ichi	-11.2674
▁Malay	-11.2678
▁Pas	-11.268
▁Mini	-11.2682
▁settlers	-11.2688
▁dock	-11.269
▁poorly	-11.2691
▁Hawk	-11.2694
▁arrive	-11.2694
roll	-11.2703
▁congregation	-11.2707
▁Eagle	-11.2707
▁Ober	-11.2711
▁customs	-11.2713
▁moments	-11.2714
▁adventure	-11.2716
bell	-11.2719
▁Take	-11.2722
▁Working	-11.2725
▁Kate	-11.2729
front	-11.273
first	-11.2732
Blue	-11.2732
East	-11.2734
▁gathering	-11.2735
▁experts	-11.2735
▁Moor	-11.2738
▁confirm	-11.2739
ifi	-11.274
series	-11.2748
▁refuge	-11.2749
self	-11.2754
Dr	-11.2756
▁Kos	-11.2758
hari	-11.2759
bad	-11.2759
▁dimensions	-11.276
PM	-11.2762
▁monarch	-11.2762
▁loose	-11.2762
tum	-11.2763
▁pure	-11.2763
sville	-11.277
▁equations	-11.2771
о	-11.2776
▁journals	-11.2776
▁Holocaust	-11.2776
▁emerging	-11.2776
▁mathematical	-11.2776
▁retiring	-11.2776
▁Monroe	-11.2776
▁Testament	-11.2776
▁dancing	-11.2776
▁Settlement	-11.2776
▁Stockholm	-11.2776
▁varied	-11.2776
▁array	-11.2776
▁Episcopal	-11.2776
▁vegetation	-11.2776
▁naming	-11.2776
idi	-11.2777
▁merit	-11.2777
▁tourists	-11.2777
dell	-11.2777
▁Springfield	-11.2778
▁manuscripts	-11.2778
▁armies	-11.2778
▁supervision	-11.2778
▁Finn	-11.278
▁Din	-11.278
▁ballot	-11.2781
▁cabin	-11.2781
▁interact	-11.2782
▁Strait	-11.2783
▁regardless	-11.2783
▁Northwest	-11.2784
▁stem	-11.2784
nen	-11.2784
▁Notre	-11.2786
▁hull	-11.2787
▁MTV	-11.2791
▁Reed	-11.2793
▁suspected	-11.2796
▁z	-11.2799
▁Hai	-11.2805
▁Fer	-11.2811
▁aesthetic	-11.2813
▁immun	-11.2813
▁permanently	-11.2815
▁tight	-11.2816
▁deposits	-11.2817
▁Forum	-11.282
▁Math	-11.2822
▁upset	-11.2823
▁Ap	-11.2824
▁runners	-11.2824
▁programmes	-11.2828
▁Ven	-11.2829
▁EC	-11.2832
ages	-11.2833
ept	-11.2834
▁genera	-11.2837
▁jet	-11.2838
ome	-11.2838
bur	-11.2847
▁involve	-11.2847
▁lessons	-11.2849
▁suffer	-11.2851
▁battles	-11.2852
▁keyboard	-11.2855
▁Resources	-11.2857
titled	-11.2857
▁activists	-11.2858
▁tr	-11.2858
▁Bach	-11.286
▁commitment	-11.2861
▁Pier	-11.2863
▁printing	-11.2868
▁lectures	-11.287
where	-11.287
SI	-11.2871
tai	-11.2872
cca	-11.2873
▁Rhode	-11.2873
▁discovers	-11.2875
ör	-11.2875
▁bones	-11.2876
lines	-11.288
▁notion	-11.2881
▁correspond	-11.2883
although	-11.2888
ere	-11.2888
▁Sto	-11.2889
▁founders	-11.2891
quin	-11.2892
▁variants	-11.2893
▁hunt	-11.2896
▁93	-11.2896
▁ju	-11.2902
Ab	-11.2905
▁Basin	-11.2908
tory	-11.2913
▁mutual	-11.2913
▁Bend	-11.2916
▁Prussia	-11.2917
▁Ang	-11.2917
March	-11.2918
▁abstract	-11.2919
escu	-11.2924
▁descendants	-11.2924
▁Michel	-11.2925
▁Abraham	-11.2927
▁easier	-11.2927
▁intermediate	-11.2927
▁streak	-11.2927
▁underwent	-11.2927
▁Cornwall	-11.2927
▁Dol	-11.2927
▁improving	-11.2927
▁silk	-11.2927
▁consent	-11.2927
▁Circle	-11.2927
▁Sierra	-11.2927
▁neighbourhood	-11.2928
▁nationwide	-11.2928
▁Boeing	-11.2928
▁Elector	-11.2928
▁deployment	-11.2928
▁Fellowship	-11.2928
▁(12	-11.2928
▁instructor	-11.2929
▁Sabha	-11.2929
gro	-11.2929
▁perception	-11.2929
▁Baronet	-11.293
▁Chester	-11.293
▁mature	-11.293
▁Edgar	-11.2931
▁bout	-11.2931
▁Clement	-11.2932
▁grid	-11.2932
▁journalism	-11.2932
▁populated	-11.2936
▁Tele	-11.2936
▁1866	-11.2937
▁seized	-11.2937
jur	-11.2939
▁92	-11.294
xa	-11.2941
iel	-11.2941
▁10-	-11.2942
▁Currently	-11.2945
▁pu	-11.2946
▁IC	-11.2949
last	-11.295
-8	-11.2951
▁imposed	-11.2952
▁rational	-11.2954
▁Roberts	-11.2955
▁20,000	-11.2958
▁Holmes	-11.296
▁Rey	-11.2961
▁sailing	-11.2965
NS	-11.2967
ppi	-11.2974
▁89	-11.2975
▁rises	-11.2975
tti	-11.2975
▁reviewed	-11.2977
▁McG	-11.2979
AB	-11.2979
▁developers	-11.2985
▁manor	-11.2986
▁Student	-11.2987
▁electro	-11.2988
atic	-11.2992
Time	-11.2995
power	-11.2999
pop	-11.3
▁84	-11.3003
▁estimate	-11.3007
urn	-11.3008
city	-11.301
▁stepp	-11.3012
▁Sign	-11.3012
▁stationed	-11.3013
▁yard	-11.3016
▁OS	-11.3017
igh	-11.3017
▁supervis	-11.3018
▁spots	-11.3019
▁improvement	-11.3023
▁warning	-11.3024
▁Warriors	-11.303
▁Homer	-11.3032
▁scar	-11.3034
built	-11.3034
▁lit	-11.3034
rina	-11.3035
RI	-11.3036
October	-11.3038
stic	-11.3038
â	-11.3041
▁Gay	-11.3041
LP	-11.3045
nate	-11.3047
loss	-11.3048
▁recreation	-11.3048
▁halt	-11.3051
shore	-11.3053
▁Justin	-11.3053
▁remember	-11.3054
founder	-11.3054
uni	-11.3056
iah	-11.3056
acy	-11.3058
▁Julian	-11.3058
▁holes	-11.306
ail	-11.3062
▁beds	-11.3062
▁divide	-11.3065
eur	-11.3071
▁alien	-11.3071
▁Lit	-11.3071
eman	-11.3074
▁Guards	-11.308
▁Carnegie	-11.3081
▁Colonial	-11.3081
▁Intelligence	-11.3081
▁Istanbul	-11.3081
▁Montgomery	-11.3081
▁acoustic	-11.3081
▁criteria	-11.3081
▁familiar	-11.3081
▁decree	-11.3081
▁empty	-11.3081
▁relegation	-11.3081
▁Ottawa	-11.3081
▁admission	-11.3081
▁confusion	-11.3081
▁Surrey	-11.3081
▁impressive	-11.3081
▁steep	-11.3081
▁Wellington	-11.3082
▁staged	-11.3082
▁Species	-11.3082
▁preference	-11.3082
▁Gon	-11.3082
▁revised	-11.3083
▁sculptor	-11.3083
▁detection	-11.3084
▁assembled	-11.3085
▁perceived	-11.3085
▁dissolved	-11.3088
▁Subsequently	-11.3088
▁Yellow	-11.3088
▁renovated	-11.309
▁1855	-11.3092
▁Rou	-11.3092
▁convinced	-11.3095
▁upgraded	-11.3095
▁Brooks	-11.3097
▁arrangements	-11.3097
▁interpreted	-11.3098
▁Advisory	-11.3098
▁investigated	-11.3101
▁editing	-11.3102
▁Fl	-11.3104
▁buses	-11.3105
▁fairly	-11.3108
▁fer	-11.3109
▁resist	-11.311
▁seriously	-11.3119
▁exceptional	-11.3121
▁Case	-11.3121
▁Than	-11.3122
▁lying	-11.3123
▁Chess	-11.3125
▁lineup	-11.3126
▁particles	-11.3126
▁Multi	-11.3126
▁Queens	-11.3127
▁mac	-11.3127
▁persuade	-11.3128
▁Cer	-11.313
dol	-11.3131
eon	-11.3133
▁bow	-11.3134
mul	-11.3134
▁pushed	-11.3135
tric	-11.314
ograph	-11.3141
▁thereby	-11.3141
gna	-11.3142
▁mud	-11.3145
▁Tara	-11.3146
▁Thos	-11.315
600	-11.316
▁streams	-11.3162
uan	-11.3165
▁Tal	-11.3168
nat	-11.317
▁Mol	-11.3174
▁Alb	-11.3175
▁CS	-11.3176
▁Wol	-11.3176
▁demonstration	-11.3178
zon	-11.3182
▁Belle	-11.3189
▁Ul	-11.3189
▁boards	-11.3191
school	-11.3193
▁AS	-11.3195
▁ver	-11.3196
▁AG	-11.3197
inus	-11.3199
sie	-11.3202
▁130	-11.3203
ß	-11.3204
▁bed	-11.3206
▁travels	-11.3206
▁consumers	-11.3209
▁nu	-11.3209
▁(13	-11.3217
wall	-11.3218
char	-11.3223
ago	-11.3227
mara	-11.323
▁Leonard	-11.323
▁bra	-11.3231
▁beliefs	-11.3233
VA	-11.3235
vey	-11.3236
▁hang	-11.3236
▁Artillery	-11.3237
▁Brussels	-11.3237
▁Junction	-11.3237
▁aggressive	-11.3237
▁ammunition	-11.3237
▁Amateur	-11.3237
▁trophy	-11.3237
▁vulnerable	-11.3237
▁accent	-11.3237
▁casualties	-11.3237
▁shrine	-11.3237
▁Idaho	-11.3238
▁navy	-11.3238
▁bread	-11.3238
▁frog	-11.3238
▁vault	-11.3238
▁commentary	-11.3238
▁evaluation	-11.3239
▁cotton	-11.3239
▁theorem	-11.3239
▁Nancy	-11.3239
▁scout	-11.3239
▁evolutionary	-11.3239
▁Machine	-11.3239
▁biology	-11.324
▁politicians	-11.324
▁prosecution	-11.324
▁neutral	-11.3242
▁Hugo	-11.3242
▁Twenty	-11.3243
▁abortion	-11.3244
▁86	-11.3245
▁bassist	-11.3245
▁corps	-11.3246
▁teenager	-11.3246
▁breast	-11.3246
▁aims	-11.3248
▁Albanian	-11.3248
▁renewed	-11.3249
▁operators	-11.325
active	-11.3251
▁Luc	-11.3251
▁Mills	-11.3252
▁Watch	-11.3252
▁burn	-11.3253
ucci	-11.3254
▁moon	-11.3255
ault	-11.3256
▁Triple	-11.3257
▁priests	-11.3259
lap	-11.3263
▁longtime	-11.3265
7,	-11.3267
ency	-11.327
▁1965.	-11.3273
▁Tol	-11.3273
ify	-11.3274
▁essay	-11.3275
▁Gam	-11.3277
0%	-11.3277
hin	-11.3279
CE	-11.3281
▁arose	-11.3293
▁Pakistani	-11.3293
stage	-11.3293
▁Fra	-11.3296
▁1:	-11.3296
▁hopes	-11.3301
▁Pay	-11.3302
▁Marsh	-11.3304
▁rec	-11.3307
▁prepare	-11.3315
▁94	-11.3322
▁harm	-11.3323
▁samples	-11.3323
▁Rein	-11.3325
fil	-11.3327
▁files	-11.3327
bound	-11.3331
▁hoped	-11.3333
▁hospitals	-11.3338
▁ritual	-11.3338
phone	-11.3339
▁Election	-11.3339
▁Scout	-11.3343
▁Transit	-11.3349
Te	-11.335
▁Allan	-11.335
▁Dragon	-11.3352
January	-11.3353
▁cur	-11.3355
ders	-11.3356
mount	-11.3357
ann	-11.3359
▁lights	-11.3361
OL	-11.3361
agan	-11.3362
▁mount	-11.3363
▁interactions	-11.3364
▁recall	-11.3365
vision	-11.3371
▁Tree	-11.3374
TF	-11.3377
▁Bond	-11.3377
▁withdraw	-11.3378
▁Lead	-11.338
▁Chal	-11.3382
▁mandate	-11.3382
woman	-11.3383
vat	-11.3388
▁Yi	-11.3391
stical	-11.3394
▁prospect	-11.3394
▁Memphis	-11.3396
▁Religion	-11.3396
▁Westminster	-11.3396
▁Wyoming	-11.3396
▁crucial	-11.3396
▁rookie	-11.3396
▁secular	-11.3396
▁Calgary	-11.3396
▁distant	-11.3396
▁hymn	-11.3396
▁mosque	-11.3396
▁confused	-11.3396
▁kitchen	-11.3396
▁dinner	-11.3396
▁Plaza	-11.3397
▁Aircraft	-11.3397
▁breach	-11.3397
pher	-11.3397
▁fortune	-11.3398
▁spite	-11.3398
▁stability	-11.3398
▁athletics	-11.3399
hui	-11.3399
▁Swa	-11.3399
▁conviction	-11.3399
▁terminated	-11.3402
▁[...]	-11.3402
▁Emily	-11.3402
▁1837	-11.3402
sdale	-11.3404
▁Conrad	-11.3405
▁promised	-11.3408
Per	-11.3408
▁metric	-11.3409
ñ	-11.3411
▁j	-11.3411
USA	-11.3412
▁Salem	-11.3412
▁Lin	-11.3412
▁advised	-11.3413
▁Reid	-11.3413
stown	-11.3416
▁Palmer	-11.3416
aux	-11.3417
▁addresses	-11.3417
SM	-11.3418
▁disappeared	-11.3419
▁colours	-11.342
-11	-11.3423
▁wage	-11.3425
▁pap	-11.3426
▁discussions	-11.3427
▁Mala	-11.3429
ury	-11.3429
▁magnetic	-11.3433
▁hu	-11.3433
assa	-11.3434
rey	-11.3437
▁comp	-11.3437
▁swing	-11.3438
▁burning	-11.344
▁Jen	-11.3442
▁Bul	-11.3443
bir	-11.3444
path	-11.3446
ste	-11.3447
▁shortage	-11.3451
▁initiatives	-11.3452
post	-11.3452
▁CC	-11.3453
lai	-11.3454
▁Web	-11.3455
Ja	-11.3458
▁epi	-11.346
▁Leo	-11.3462
cell	-11.3464
▁140	-11.3469
▁clients	-11.3471
▁survivors	-11.3473
▁spelling	-11.3475
▁mechanics	-11.3476
▁Bau	-11.3477
▁Horn	-11.3477
▁mentions	-11.348
alis	-11.3483
ña	-11.3484
▁chapters	-11.3487
Si	-11.3489
▁investors	-11.3494
Tommy	-11.3497
ière	-11.3497
▁Tru	-11.3502
ition	-11.3509
▁requirement	-11.351
▁rhythm	-11.3513
▁predict	-11.3515
▁Ever	-11.3517
▁Pete	-11.3522
bill	-11.3525
▁Distinguish	-11.3526
▁organize	-11.3528
uki	-11.353
▁op	-11.3537
▁centered	-11.3537
▁stick	-11.3537
jar	-11.3543
▁outlets	-11.3546
▁eventual	-11.3547
▁Vir	-11.3547
▁Bosnia	-11.3547
▁Cla	-11.3549
▁resign	-11.355
▁workshops	-11.3551
▁fewer	-11.3552
▁Ethiopia	-11.3553
ashi	-11.3557
▁Literature	-11.3557
▁Personnel	-11.3557
▁Santiago	-11.3557
▁ensemble	-11.3557
▁luxury	-11.3557
▁ordained	-11.3557
▁peninsula	-11.3557
▁orientation	-11.3557
▁crater	-11.3557
▁volleyball	-11.3557
▁capabilities	-11.3557
▁Sussex	-11.3557
▁romance	-11.3558
▁Raymond	-11.3558
▁screenplay	-11.3558
▁hardware	-11.3559
▁occurring	-11.3559
▁dying	-11.3559
▁Caroline	-11.3559
▁Legion	-11.3559
▁Reagan	-11.3559
▁Given	-11.3559
▁layout	-11.3559
▁Prefecture	-11.356
▁freestyle	-11.356
▁fastest	-11.3561
▁Bang	-11.3561
▁Ahmad	-11.3561
▁Apollo	-11.3562
▁Micro	-11.3563
▁underlying	-11.3564
▁Secret	-11.3564
▁1859	-11.3564
▁martial	-11.3565
▁attractive	-11.3566
▁Cris	-11.3567
▁Turner	-11.3567
spor	-11.3569
▁Match	-11.357
▁Kun	-11.3571
▁Advanced	-11.3572
▁knowing	-11.3573
▁calculated	-11.3574
–9	-11.3575
▁bold	-11.3575
▁overlook	-11.3578
▁Foot	-11.3584
▁hydro	-11.3585
▁Stern	-11.3586
Ver	-11.3586
▁Newport	-11.3587
nde	-11.3587
▁CDP	-11.3592
▁Net	-11.3593
▁raw	-11.3593
▁presenter	-11.3595
▁Sox	-11.3595
test	-11.3598
▁boss	-11.3601
▁colleges	-11.3605
▁ministers	-11.3608
bay	-11.3609
▁Stein	-11.3609
▁2.5	-11.3612
▁jointly	-11.3614
▁fortress	-11.3614
▁architects	-11.3616
▁Dub	-11.3617
IF	-11.3617
cious	-11.3623
▁generations	-11.3626
lá	-11.3626
pass	-11.3627
after	-11.363
ester	-11.363
oka	-11.363
Fa	-11.3633
▁crowned	-11.3639
Ri	-11.3647
▁committees	-11.3649
▁delay	-11.365
▁HD	-11.3651
case	-11.3652
lom	-11.3655
▁graphics	-11.3655
▁Bears	-11.3657
duced	-11.3658
▁opt	-11.3658
▁explore	-11.3659
▁questioned	-11.366
▁compounds	-11.3662
lang	-11.3665
▁700	-11.3667
▁detect	-11.3668
▁explanation	-11.3668
▁algorithm	-11.3668
▁specimen	-11.367
▁permit	-11.367
▁tackle	-11.367
▁processor	-11.3672
wei	-11.3677
Ireland	-11.3678
World	-11.3678
any	-11.3681
rail	-11.3686
tham	-11.3686
green	-11.3687
▁privately	-11.3688
▁Male	-11.3688
▁Ard	-11.3689
grad	-11.3689
TM	-11.3689
▁Xi	-11.3691
position	-11.3697
▁signals	-11.3697
▁happen	-11.3698
▁settle	-11.3699
▁Gur	-11.3701
▁Gardens	-11.3701
lem	-11.3702
▁WA	-11.3707
tam	-11.3709
▁bush	-11.3711
five	-11.3715
▁bottle	-11.3721
▁Agreement	-11.3721
▁Cyprus	-11.3721
▁Salvador	-11.3721
▁Sinclair	-11.3721
▁certification	-11.3721
▁snake	-11.3721
▁fiscal	-11.3721
▁Ludwig	-11.3721
▁garage	-11.3721
▁carved	-11.3721
▁Norwich	-11.3721
▁tribal	-11.3722
▁ghost	-11.3722
▁Heights	-11.3723
▁Externa	-11.3723
▁Stanford	-11.3723
▁commentator	-11.3723
▁surgeon	-11.3723
▁fence	-11.3723
▁emigrated	-11.3725
▁rivalry	-11.3725
▁favourite	-11.3726
▁Claude	-11.3726
▁Eugene	-11.3726
▁Globe	-11.3728
▁Holland	-11.3728
▁Burke	-11.3728
▁revived	-11.3729
▁Georgetown	-11.3729
▁rebel	-11.373
▁Rican	-11.373
▁proclaimed	-11.3731
▁Task	-11.3731
▁pronounced	-11.3731
▁withdrawal	-11.3731
▁Morrison	-11.3731
▁enlisted	-11.3733
CL	-11.3734
▁pace	-11.3734
▁constitute	-11.3734
▁divorced	-11.3735
▁1849	-11.3736
▁manages	-11.3737
▁pipe	-11.3738
▁dependent	-11.3744
▁Pil	-11.3746
▁shots	-11.3746
▁1851	-11.3747
Se	-11.3747
▁cuts	-11.3748
▁1830	-11.3749
▁glacier	-11.375
▁starter	-11.3752
rine	-11.3753
▁Was	-11.3754
lad	-11.3755
▁fatal	-11.3755
aq	-11.3757
▁proceeded	-11.3761
▁fi	-11.3762
dh	-11.3768
hang	-11.3771
▁Mau	-11.3774
▁deeply	-11.3776
▁fate	-11.378
▁breeding	-11.3782
▁Link	-11.3784
▁Dai	-11.3791
bid	-11.3792
▁tube	-11.3792
jer	-11.3792
▁Inn	-11.3792
▁killer	-11.3796
▁wa	-11.3796
▁Laura	-11.3796
▁premier	-11.3797
raj	-11.3798
▁tender	-11.3798
▁suggesting	-11.3803
usa	-11.3806
▁*	-11.3809
▁separately	-11.3812
tie	-11.3816
tag	-11.3819
▁forty	-11.3819
▁trips	-11.3822
▁(0	-11.3823
▁dynamic	-11.3824
Col	-11.3825
▁Eve	-11.3827
anna	-11.3828
▁originat	-11.3829
eater	-11.3829
general	-11.3831
cies	-11.3831
keeper	-11.3834
une	-11.3834
▁receptor	-11.3839
▁carrier	-11.3839
▁attraction	-11.3842
screen	-11.3844
▁Films	-11.3844
specific	-11.3844
▁Sk	-11.3845
▁83	-11.3848
▁package	-11.3849
▁particle	-11.385
may	-11.385
▁sporting	-11.3852
Can	-11.3856
lim	-11.3861
▁assess	-11.3862
ija	-11.3864
▁Koh	-11.3868
pra	-11.387
eous	-11.3872
▁convince	-11.3873
▁photograph	-11.3874
▁Additional	-11.3874
▁AT	-11.3875
▁complain	-11.3876
▁breaks	-11.3879
▁generat	-11.388
▁upgrade	-11.3881
MI	-11.3881
fold	-11.3881
BO	-11.3882
▁dome	-11.3884
ée	-11.3885
▁Locat	-11.3885
▁airing	-11.3887
uclear	-11.3888
ا	-11.3888
▁Indigenous	-11.3888
▁accommodation	-11.3888
▁affiliation	-11.3888
▁cathedral	-11.3888
▁consensus	-11.3888
▁decisive	-11.3888
▁frigate	-11.3888
▁hypothesis	-11.3888
▁navigation	-11.3888
▁portfolio	-11.3888
▁preliminary	-11.3888
▁garner	-11.3888
▁Shanghai	-11.3888
▁facade	-11.3888
▁chicken	-11.3888
▁expelled	-11.3888
▁abbey	-11.3888
▁Complex	-11.3888
▁subdivision	-11.3888
▁intact	-11.3889
▁Curtis	-11.3889
▁Lodge	-11.3889
▁proceedings	-11.3889
▁fiber	-11.3889
▁citizenship	-11.3889
▁reconstruction	-11.3889
▁stint	-11.3889
▁View	-11.3889
▁Griffin	-11.389
▁Combat	-11.389
▁Tennis	-11.389
▁legendary	-11.389
▁exploration	-11.3891
▁Meyer	-11.3892
▁Est	-11.3892
▁scattered	-11.3893
▁purple	-11.3893
▁developer	-11.3893
▁97	-11.3893
▁blog	-11.3893
▁3–0	-11.3894
▁Manila	-11.3894
▁fat	-11.3894
▁Workers	-11.3897
▁Pont	-11.3897
▁territorial	-11.3898
▁1814	-11.3898
▁Peak	-11.3898
▁compact	-11.3899
▁Canton	-11.39
▁Border	-11.3901
▁diagnosed	-11.3901
5.	-11.3901
oul	-11.3901
▁observe	-11.3903
▁pur	-11.3903
▁1846	-11.3904
died	-11.3907
-15	-11.3908
▁Publishing	-11.3909
▁Appli	-11.391
▁Til	-11.3911
center	-11.3913
▁plead	-11.3914
ket	-11.3914
▁1800	-11.3914
▁corn	-11.3915
▁Pot	-11.3917
▁unions	-11.3917
▁suburbs	-11.3918
▁acclaimed	-11.3919
▁Gran	-11.3919
▁Mos	-11.392
▁Vin	-11.3921
▁relieve	-11.3928
inae	-11.3929
oria	-11.3932
▁SO	-11.3938
yama	-11.3939
▁Large	-11.394
ario	-11.3941
PF	-11.3942
him	-11.3942
▁mph	-11.3945
▁Glenn	-11.3951
wise	-11.3951
300	-11.3952
▁Structure	-11.3955
▁rely	-11.3956
▁potentially	-11.3957
▁Kel	-11.396
▁sto	-11.3961
Cha	-11.3963
gia	-11.3965
jin	-11.3966
▁deposit	-11.3968
▁reache	-11.3974
▁import	-11.3975
▁ranges	-11.3976
▁Rec	-11.3977
▁gift	-11.3977
▁wheels	-11.3978
park	-11.3979
▁honours	-11.3982
asse	-11.3985
Sal	-11.3988
ended	-11.3989
▁Hen	-11.399
lag	-11.3993
both	-11.3993
ators	-11.3995
igo	-11.3995
bie	-11.3996
▁Jets	-11.3996
▁argue	-11.3997
▁button	-11.3997
▁pounds	-11.3998
▁broadcaster	-11.4
-9	-11.4
holm	-11.4002
▁naturally	-11.4004
▁Mail	-11.4004
rz	-11.4007
▁bars	-11.4008
▁Chin	-11.4008
▁reactions	-11.4009
ime	-11.4013
▁findings	-11.4014
December	-11.4014
August	-11.4014
natural	-11.4014
▁fossil	-11.4015
generation	-11.4016
tier	-11.4027
▁1.5	-11.4029
isa	-11.4037
▁meter	-11.4039
kun	-11.404
▁solve	-11.4041
▁photos	-11.4045
▁True	-11.4047
▁eighteen	-11.4048
Tri	-11.4057
▁computers	-11.4057
▁irregular	-11.4057
▁Commerce	-11.4057
▁Legislature	-11.4057
▁literacy	-11.4057
▁mollusk	-11.4057
▁unveiled	-11.4057
▁vicinity	-11.4057
▁Chelsea	-11.4057
▁McDonald	-11.4057
▁Wagner	-11.4057
▁deliberate	-11.4057
▁rebellion	-11.4057
▁entries	-11.4057
▁marble	-11.4057
▁Heinrich	-11.4057
▁FBI	-11.4057
▁Universe	-11.4057
▁Sheriff	-11.4058
▁scandal	-11.4058
▁subfamily	-11.4058
▁Thunder	-11.4058
▁Index	-11.4058
▁Hampton	-11.4058
▁comedian	-11.4058
▁judgment	-11.4058
▁spark	-11.4059
▁boom	-11.4059
▁Lynch	-11.4059
▁impression	-11.4059
▁Chapter	-11.4059
▁Foster	-11.406
▁Fuji	-11.406
▁Events	-11.406
▁Knights	-11.406
▁Cohen	-11.4061
▁rally	-11.4061
▁catalogue	-11.4061
▁Aboriginal	-11.4062
▁judicial	-11.4062
▁outfit	-11.4064
▁enacted	-11.4064
▁Delta	-11.4065
▁discrimination	-11.4066
turn	-11.4068
▁Flight	-11.4069
tions	-11.4069
▁Steel	-11.4069
är	-11.407
▁beaten	-11.4071
▁sunk	-11.4073
▁1858	-11.4074
▁kings	-11.4074
▁boot	-11.4075
▁withdrawn	-11.4077
▁Fle	-11.4078
▁virtually	-11.4078
▁1845	-11.4079
▁eliminate	-11.4079
▁Title	-11.4083
▁struggled	-11.4083
Los	-11.4084
than	-11.4084
▁fallen	-11.4085
▁vol	-11.4087
▁LP	-11.4088
▁desired	-11.4089
▁performers	-11.4089
▁sheep	-11.4089
▁transformed	-11.409
▁bare	-11.4091
▁1820	-11.4091
▁Mart	-11.4093
▁Bil	-11.4095
▁Stevens	-11.41
▁Fen	-11.4103
▁Walt	-11.4105
▁tear	-11.4107
cum	-11.4108
▁Being	-11.411
▁Archie	-11.4112
▁Hydro	-11.4113
oko	-11.4114
▁91	-11.4115
▁Wonder	-11.4117
▁Kumar	-11.4118
▁Isle	-11.4121
▁().	-11.4122
▁Wells	-11.4126
ought	-11.4126
▁standings	-11.4131
ān	-11.4137
▁sw	-11.4137
fest	-11.4137
Ad	-11.414
phal	-11.4141
das	-11.4147
lick	-11.4148
large	-11.4148
utter	-11.4149
▁Kurt	-11.4154
lev	-11.4156
▁Lamb	-11.4157
oxy	-11.4157
atus	-11.4158
▁believ	-11.4159
▁skill	-11.4159
eve	-11.4161
▁Productions	-11.4161
igan	-11.4163
▁weigh	-11.4163
▁Mans	-11.4166
▁chronic	-11.4168
▁zones	-11.4176
assi	-11.4176
▁Ages	-11.4177
hom	-11.4179
ace	-11.4182
▁Cork	-11.4184
poli	-11.4185
▁resemble	-11.4185
John	-11.4186
April	-11.4186
September	-11.4186
▁nationalist	-11.4187
▁NE	-11.4187
ania	-11.4188
▁Rab	-11.4188
▁appoint	-11.4196
▁nationally	-11.4203
three	-11.4207
arra	-11.4207
▁cleared	-11.4208
▁reserves	-11.4208
▁Sher	-11.4209
▁pack	-11.4211
▁attitude	-11.4212
▁reward	-11.4214
ked	-11.4215
▁joins	-11.4216
▁Bed	-11.4219
▁Uganda	-11.422
fly	-11.4222
▁Fel	-11.4222
▁torpedo	-11.4222
▁Bug	-11.4225
▁culminat	-11.4227
▁invitation	-11.4228
▁Ambassador	-11.423
▁Canterbury	-11.423
▁Depression	-11.423
▁Nintendo	-11.423
▁Treasury	-11.423
▁accuracy	-11.423
▁headquartered	-11.423
▁striking	-11.423
▁shaft	-11.423
▁Tanzania	-11.423
▁automobile	-11.423
▁Kosovo	-11.423
▁Morocco	-11.423
▁proximity	-11.423
▁flash	-11.423
▁Prague	-11.423
▁encode	-11.423
▁copyright	-11.423
▁Elementary	-11.423
▁healthcare	-11.4231
▁submission	-11.4231
▁supporter	-11.4231
▁Style	-11.4234
▁hub	-11.4235
▁Milton	-11.4235
▁slopes	-11.4236
▁lighthouse	-11.4236
▁1832	-11.4238
▁Churchill	-11.4238
▁allied	-11.4239
▁Kru	-11.424
▁Herald	-11.4241
▁Prussian	-11.4242
▁accomplished	-11.4243
▁10%	-11.4243
▁Fran	-11.4244
▁Hick	-11.4245
ood	-11.4245
▁storyline	-11.4245
▁Sco	-11.4249
tine	-11.425
rak	-11.4251
▁Comp	-11.4251
▁Clay	-11.4253
▁Wilhelm	-11.4256
▁homeless	-11.4258
▁stall	-11.4258
▁Guild	-11.4259
1)	-11.4259
▁runway	-11.4259
PI	-11.426
▁Folk	-11.4261
▁highlighted	-11.4261
▁Josh	-11.4262
ival	-11.4262
▁Hon	-11.4262
▁$	-11.4263
▁golden	-11.4265
▁Color	-11.4267
gus	-11.4269
▁crops	-11.4269
Ed	-11.427
▁Swan	-11.4273
Live	-11.4276
▁pal	-11.4282
▁Reg	-11.4283
▁Kingston	-11.4283
ifying	-11.4285
▁strikes	-11.4286
▁Panthers	-11.4289
human	-11.429
▁boarding	-11.429
▁VII	-11.4292
TO	-11.4292
▁transform	-11.4295
▁Clarke	-11.4296
▁fa	-11.4296
▁Lor	-11.4299
▁Gul	-11.4302
fully	-11.4302
▁repairs	-11.4307
▁Come	-11.4311
▁$6	-11.4312
nin	-11.4314
▁drink	-11.432
▁Hop	-11.4323
sp	-11.4324
▁refugees	-11.4324
▁sail	-11.4328
▁sits	-11.433
▁Ala	-11.4331
hou	-11.4333
▁Table	-11.4338
los	-11.4339
▁81	-11.4341
ht	-11.4342
sponsored	-11.4344
nos	-11.4346
▁Full	-11.4348
▁define	-11.435
▁Cru	-11.4355
▁Sony	-11.4356
▁Lei	-11.4356
finite	-11.4359
▁1967.	-11.436
pec	-11.4361
base	-11.4361
▁crop	-11.4362
▁1968.	-11.4363
▁habitats	-11.4363
elo	-11.4363
▁conversation	-11.4363
▁doubt	-11.4363
▁snail	-11.4365
▁inscription	-11.4365
fight	-11.4367
bird	-11.4367
▁measurement	-11.4368
▁drum	-11.4368
▁exploit	-11.4369
▁Georg	-11.4369
▁CP	-11.437
▁complaints	-11.4371
▁exhaust	-11.4372
▁acclaim	-11.4372
▁Hood	-11.4375
_6	-11.4377
▁interviewed	-11.4379
▁regiments	-11.4379
▁Carlo	-11.4379
▁bonds	-11.4385
ido	-11.4385
▁Rank	-11.4387
▁Artist	-11.4387
▁divorce	-11.439
▁torture	-11.439
▁estates	-11.4396
▁civilians	-11.4398
▁dialects	-11.4401
tree	-11.4403
She	-11.4404
yang	-11.4404
▁screening	-11.4404
▁Fletcher	-11.4405
▁Investigation	-11.4405
▁ceiling	-11.4405
▁libraries	-11.4405
ε	-11.4405
▁diamond	-11.4405
▁memories	-11.4405
▁Baldwin	-11.4405
▁floors	-11.4405
▁limestone	-11.4405
▁maritim	-11.4406
▁considerably	-11.4406
▁conquest	-11.4406
▁Planning	-11.4406
▁sandstone	-11.4406
▁decorative	-11.4406
▁span	-11.4407
▁automatically	-11.4407
▁leak	-11.4407
▁Tyler	-11.4407
▁fitness	-11.4408
▁Lucas	-11.4408
▁2014–15	-11.4408
▁Sugar	-11.4408
▁warrant	-11.441
▁conceived	-11.4411
▁similarities	-11.4411
▁travelling	-11.4411
▁laser	-11.4411
▁favorable	-11.4412
▁Adrian	-11.4413
▁Burton	-11.4414
enko	-11.4414
▁Bergen	-11.4416
▁arguments	-11.4416
IT	-11.4417
▁condemned	-11.4418
▁punk	-11.442
▁rivals	-11.4423
▁freeway	-11.4423
▁Worth	-11.4423
▁Lucy	-11.4424
▁Dominican	-11.4424
nova	-11.4426
▁shirt	-11.4427
▁Speed	-11.4427
▁Solar	-11.4429
▁20%	-11.443
▁collapsed	-11.4431
▁Harper	-11.4431
Gra	-11.4435
▁utilized	-11.4436
▁rushing	-11.4436
▁anime	-11.4437
▁Andre	-11.4438
ulf	-11.4438
tina	-11.4439
▁Georgian	-11.4442
▁1,0	-11.4442
gricultural	-11.4444
▁bitter	-11.4444
▁cow	-11.4449
iba	-11.4453
pid	-11.4453
onym	-11.4457
▁stored	-11.4466
▁Gol	-11.4467
▁Por	-11.4467
lets	-11.4467
flu	-11.4468
oke	-11.4471
uchi	-11.4472
▁kilometres	-11.4474
▁Pun	-11.4474
gno	-11.4474
ote	-11.4475
hurst	-11.4477
▁Fur	-11.4479
wich	-11.4479
▁pastor	-11.4483
best	-11.4488
▁referee	-11.4489
half	-11.45
▁Miles	-11.4501
gui	-11.4504
▁Lines	-11.4504
sted	-11.4505
▁Sud	-11.4509
▁stretch	-11.4509
▁Economics	-11.451
dine	-11.4513
▁crystal	-11.4513
cock	-11.4514
tress	-11.452
▁kit	-11.4521
▁Days	-11.4521
▁portraits	-11.4528
▁Roo	-11.453
▁cro	-11.4531
▁Rams	-11.4535
Family	-11.454
▁competitor	-11.4547
▁molecules	-11.4549
▁accus	-11.4551
cation	-11.4553
▁Lyon	-11.4558
▁edges	-11.4558
▁Get	-11.4558
only	-11.4559
North	-11.4561
avan	-11.4561
▁Rot	-11.4563
▁Bonn	-11.4567
▁Cou	-11.4568
▁sudden	-11.457
organ	-11.4573
weed	-11.4574
▁shed	-11.4576
▁cruise	-11.4578
print	-11.4582
▁excess	-11.4582
plex	-11.4583
▁Edmonton	-11.4584
▁Jennifer	-11.4584
▁Jeremy	-11.4584
▁Principal	-11.4584
▁detachment	-11.4584
▁harvest	-11.4584
▁inception	-11.4584
▁mysterious	-11.4584
▁phenomenon	-11.4584
▁prolific	-11.4584
▁shield	-11.4584
­	-11.4584
λ	-11.4584
▁beneath	-11.4584
▁Griffith	-11.4584
▁Gospel	-11.4584
▁Philosophy	-11.4584
▁obvious	-11.4584
▁Rifle	-11.4584
▁Confederation	-11.4584
▁pursuit	-11.4584
▁Female	-11.4584
▁accordance	-11.4584
▁invention	-11.4584
▁Annual	-11.4584
▁Speedway	-11.4584
▁acute	-11.4585
▁Adult	-11.4585
▁detective	-11.4585
▁foster	-11.4585
▁Contest	-11.4586
▁Again	-11.4586
▁knockout	-11.4586
▁Geneva	-11.4586
▁elimination	-11.4587
▁2017–18	-11.4588
▁1989)	-11.459
rab	-11.4591
▁Half	-11.4591
▁shadow	-11.4591
▁Louisville	-11.4592
▁larvae	-11.4592
▁circular	-11.4592
▁thriller	-11.4593
▁3–2	-11.4593
▁Santos	-11.4594
▁impressed	-11.4594
▁Glass	-11.4596
▁rope	-11.4596
▁Shore	-11.46
▁prisoner	-11.4601
▁Amy	-11.4601
▁sphere	-11.4602
▁continuously	-11.4608
▁Vic	-11.4608
▁sciences	-11.4609
aving	-11.4612
▁Lynn	-11.4614
▁metre	-11.4614
▁conflicts	-11.4616
▁1962.	-11.4617
mme	-11.4619
▁Sudan	-11.4619
works	-11.462
▁Ah	-11.462
▁Bit	-11.4621
▁ITV	-11.4623
▁Shiva	-11.4625
▁mob	-11.4626
▁Rag	-11.4629
▁binding	-11.4629
ilo	-11.4636
▁Rule	-11.4636
▁Lost	-11.4637
gua	-11.4637
▁105	-11.464
clo	-11.464
▁Joy	-11.4643
▁$7	-11.4647
▁Burg	-11.4648
▁Critics	-11.465
▁scal	-11.4654
▁Ou	-11.4655
mut	-11.4656
▁ensu	-11.4657
▁Ame	-11.4659
▁Fay	-11.4661
▁tu	-11.4661
Red	-11.4662
▁hide	-11.4663
▁expanding	-11.4664
qi	-11.4669
▁1972.	-11.467
RM	-11.4671
ér	-11.4671
ologists	-11.4671
▁Pic	-11.4672
▁ser	-11.4672
▁sheet	-11.4672
▁Sul	-11.4674
tian	-11.4674
▁CI	-11.4677
rash	-11.4677
uge	-11.4678
wind	-11.4684
▁proceeds	-11.4685
▁aftermath	-11.4687
SN	-11.469
▁legally	-11.4692
nagar	-11.4692
▁Lau	-11.4694
arc	-11.4695
vest	-11.4701
▁Vis	-11.4701
▁lab	-11.4702
▁Gru	-11.4704
▁willing	-11.4704
▁novelist	-11.4707
arrow	-11.4708
amine	-11.4708
standing	-11.471
▁highlight	-11.471
augh	-11.4711
host	-11.4713
–14	-11.4714
▁talking	-11.4717
▁trace	-11.4718
▁scales	-11.4718
▁quarters	-11.472
▁3,000	-11.472
▁Mile	-11.4722
wheel	-11.4722
▁rounded	-11.4722
▁Access	-11.4724
gam	-11.4726
▁lanes	-11.4727
▁barn	-11.4729
▁helicopter	-11.4731
▁tasks	-11.4734
▁philosopher	-11.4735
rama	-11.4735
▁speaks	-11.4738
▁tours	-11.474
ppe	-11.474
▁logic	-11.4742
▁raids	-11.4742
Rock	-11.4743
dict	-11.4746
▁scan	-11.4751
▁chase	-11.4752
▁Belt	-11.4752
▁fix	-11.4752
▁codes	-11.4752
▁Albania	-11.4753
▁centres	-11.4757
▁intent	-11.4763
▁Present	-11.4763
Č	-11.4766
▁Bucharest	-11.4766
▁Fitzgerald	-11.4766
▁Giovanni	-11.4766
▁Lancaster	-11.4766
▁Plymouth	-11.4766
▁Wednesday	-11.4766
▁challenging	-11.4766
▁simulation	-11.4766
▁sophomore	-11.4766
▁varieties	-11.4766
▁goddess	-11.4766
▁Shield	-11.4766
▁lunch	-11.4766
▁Coalition	-11.4766
▁harsh	-11.4766
▁Gustav	-11.4766
▁guidance	-11.4766
▁bankruptcy	-11.4766
▁hydrogen	-11.4766
▁duration	-11.4766
▁recurring	-11.4766
▁Eddie	-11.4766
▁Dylan	-11.4767
▁inspection	-11.4767
▁philosophical	-11.4767
▁trademark	-11.4767
▁Fernando	-11.4768
▁Arctic	-11.4768
▁ferry	-11.4768
▁Seminary	-11.4769
▁currency	-11.4769
▁Frankfurt	-11.4769
kat	-11.4769
▁nonprofit	-11.4769
▁Nadu	-11.4772
▁ease	-11.4774
▁1839	-11.4775
▁voluntary	-11.4775
▁Mobile	-11.4775
▁Valle	-11.4776
▁authorized	-11.4777
▁Silva	-11.4777
▁Northwestern	-11.4777
▁lifestyle	-11.4777
▁revolutionary	-11.4779
▁Grave	-11.4779
▁enhanced	-11.478
▁Princeton	-11.478
▁layers	-11.478
▁Sharon	-11.4781
▁segments	-11.4784
▁Potter	-11.4784
▁mate	-11.4784
mod	-11.4785
▁Jer	-11.4785
FF	-11.4786
▁environments	-11.4788
▁consequences	-11.4791
▁Planet	-11.4791
▁6-	-11.4793
▁hy	-11.4793
▁Rap	-11.4795
▁Charleston	-11.4797
▁zoo	-11.48
▁competitors	-11.4803
▁RNA	-11.4808
▁explored	-11.4808
▁Trial	-11.481
▁Ran	-11.4811
▁Past	-11.4812
▁Artists	-11.4813
▁specification	-11.4814
▁Indo	-11.4815
▁banking	-11.4819
▁siblings	-11.482
▁bypass	-11.4824
▁sectors	-11.4827
▁Pale	-11.4827
▁peaceful	-11.4829
▁creates	-11.4831
▁Dunn	-11.4831
▁plantation	-11.4832
ched	-11.4842
insky	-11.4846
▁Bos	-11.4859
▁stronger	-11.486
▁curse	-11.4864
Art	-11.4869
Ko	-11.4873
hua	-11.4874
▁planted	-11.4879
kai	-11.4881
▁walks	-11.4883
▁Pit	-11.4886
hav	-11.4889
race	-11.489
▁Cool	-11.489
▁sending	-11.489
▁conducting	-11.4893
▁counsel	-11.4897
▁Archives	-11.4898
rol	-11.49
friend	-11.4901
▁Origin	-11.4902
endra	-11.4904
eep	-11.4905
production	-11.4905
▁Reich	-11.4907
BR	-11.4907
album	-11.4907
President	-11.4908
▁ask	-11.4909
LE	-11.4909
▁chip	-11.4909
▁blocked	-11.491
June	-11.4911
▁Marion	-11.4913
lene	-11.4914
▁autonomous	-11.4914
boat	-11.4915
omo	-11.4915
▁drill	-11.4919
▁innovation	-11.492
▁sensor	-11.492
▁classroom	-11.4922
▁semifinals	-11.4924
around	-11.4931
Brien	-11.4934
quet	-11.4936
▁partnered	-11.4937
▁Cambodia	-11.4937
DE	-11.4938
▁collective	-11.4939
▁arena	-11.4941
▁openly	-11.4943
▁meta	-11.4948
▁commissioner	-11.4949
▁Progress	-11.495
▁LGBT	-11.495
suming	-11.4951
▁Bermuda	-11.4951
▁Helsinki	-11.4951
▁Statistical	-11.4951
▁advancing	-11.4951
▁ceremonial	-11.4951
▁furniture	-11.4951
▁physicist	-11.4951
▁propaganda	-11.4951
▁pseudo	-11.4951
▁Arsenal	-11.4951
▁Miguel	-11.4951
▁hamlet	-11.4951
▁availability	-11.4951
▁Toyota	-11.4951
▁Armstrong	-11.4951
▁Teacher	-11.4951
▁repris	-11.4951
▁quantum	-11.4952
▁Thomson	-11.4952
▁mild	-11.4952
▁Tampa	-11.4952
▁feedback	-11.4952
▁Ferguson	-11.4952
▁Todd	-11.4952
▁Cornell	-11.4952
▁berth	-11.4952
▁submit	-11.4952
▁acceptance	-11.4953
▁polymer	-11.4953
▁Internal	-11.4953
▁Stefan	-11.4953
▁Fol	-11.4954
▁speculation	-11.4954
▁acquire	-11.4955
▁Quarter	-11.4955
Bra	-11.4956
▁VIII	-11.4956
▁draws	-11.4956
▁Emma	-11.4958
▁notorious	-11.4958
▁missionary	-11.4958
▁1836	-11.4958
asp	-11.4958
▁Progressive	-11.4958
▁1838	-11.4959
▁CF	-11.496
zzi	-11.496
▁1835	-11.4962
▁rendered	-11.4966
ijk	-11.4966
▁suggestion	-11.4967
▁cannon	-11.4968
▁humanity	-11.497
▁Rao	-11.497
uer	-11.497
▁amino	-11.4972
▁1844	-11.4972
fre	-11.4973
▁ci	-11.4976
▁provision	-11.4977
▁democratic	-11.4978
pil	-11.4978
uba	-11.4979
▁Lev	-11.4979
▁Indoor	-11.4981
▁handled	-11.4981
▁Copa	-11.4984
▁1810	-11.4989
▁Dev	-11.4989
▁disk	-11.499
▁promotional	-11.4997
▁displays	-11.4999
▁reserved	-11.5001
kon	-11.5005
▁Š	-11.5012
|	-11.5013
designated	-11.5015
▁Online	-11.5016
ár	-11.5021
itan	-11.5028
hm	-11.503
▁headline	-11.5031
hun	-11.5035
▁hosting	-11.5037
egan	-11.5039
Bar	-11.5041
▁united	-11.5044
▁knows	-11.5046
▁ge	-11.5048
nier	-11.5048
▁Metal	-11.5049
▁109	-11.5052
iles	-11.5053
▁Tau	-11.5054
Ph	-11.5054
▁Publications	-11.5055
GC	-11.506
anza	-11.5062
▁monuments	-11.5063
▁Sacr	-11.5066
▁thesis	-11.5069
▁Jet	-11.5069
▁brands	-11.5071
▁Cad	-11.5074
▁objectives	-11.5076
▁98	-11.5078
▁ion	-11.5079
leigh	-11.5081
▁Moh	-11.5082
logy	-11.5083
▁performs	-11.5084
▁stones	-11.5085
mil	-11.5087
▁slate	-11.509
Connor	-11.5096
sexual	-11.5096
fiction	-11.5098
scape	-11.5103
▁Lil	-11.5104
UN	-11.5111
▁consequence	-11.5114
▁renovation	-11.5114
▁colleague	-11.5114
▁outcome	-11.5116
▁Face	-11.5118
▁Feder	-11.5118
▁irr	-11.512
▁loyal	-11.5123
pped	-11.5123
▁proposals	-11.5125
▁Macedonia	-11.5125
▁inventor	-11.5127
▁Fun	-11.5128
▁cy	-11.5132
khan	-11.5132
▁Crow	-11.5133
▁archive	-11.5133
bred	-11.5133
▁corrupt	-11.5137
▁dive	-11.5137
▁Hag	-11.5139
▁Halifax	-11.5139
▁Malcolm	-11.5139
▁Māori	-11.5139
▁Sebastian	-11.5139
▁demolition	-11.5139
▁dispatch	-11.5139
▁economist	-11.5139
▁evident	-11.5139
▁twentieth	-11.5139
▁virtue	-11.5139
▁Built	-11.5139
▁Orlando	-11.5139
▁Krishna	-11.5139
▁cheese	-11.5139
▁Fifth	-11.5139
▁Citation	-11.514
▁Hopkins	-11.514
▁antenna	-11.514
▁sacred	-11.514
▁pension	-11.514
▁Twitter	-11.514
▁extraordinary	-11.514
▁Sutton	-11.514
▁wildlife	-11.514
▁Safety	-11.514
▁tutor	-11.514
▁correspondence	-11.514
▁batteries	-11.514
▁Bradford	-11.5141
▁feast	-11.5141
▁infant	-11.5142
▁cyclone	-11.5143
▁Outside	-11.5143
▁Phase	-11.5144
▁revision	-11.5144
▁clothes	-11.5144
▁USSR	-11.5146
▁witnesses	-11.5146
▁pink	-11.5147
▁accidentally	-11.5148
▁Previously	-11.5149
▁hitting	-11.5149
rim	-11.5151
▁airfield	-11.5152
hwa	-11.5153
bone	-11.5154
mot	-11.5155
▁sky	-11.5157
▁Franz	-11.5158
▁fold	-11.5159
▁consistently	-11.5161
tempo	-11.5161
fla	-11.5162
▁Riv	-11.5164
▁invested	-11.5164
▁Path	-11.5164
azi	-11.5167
▁1793	-11.5168
Hal	-11.5168
▁Om	-11.5168
▁inhabited	-11.5172
▁disputed	-11.5172
▁lung	-11.5173
▁curved	-11.5173
▁Ming	-11.5173
▁Weekly	-11.518
ees	-11.5181
▁Sz	-11.5181
▁Gla	-11.5185
▁surrendered	-11.5185
▁sequences	-11.5186
▁CIA	-11.5187
▁IF	-11.5189
▁showcase	-11.519
▁remnants	-11.5192
party	-11.5194
▁monitoring	-11.5197
Once	-11.5198
▁specimens	-11.5199
▁Marcel	-11.5201
▁qui	-11.5204
▁circles	-11.5206
▁counted	-11.5207
▁utilize	-11.5209
▁reli	-11.5217
▁Yet	-11.5218
▁Cr	-11.5218
▁dealt	-11.5219
▁roller	-11.522
▁Toy	-11.5224
▁Prof	-11.5224
▁bombs	-11.5226
▁rat	-11.523
▁mammals	-11.523
▁afford	-11.5232
▁Merc	-11.5235
▁canon	-11.5237
TL	-11.5237
structed	-11.5237
TU	-11.5238
”,	-11.5239
how	-11.5239
▁Kit	-11.524
▁Barn	-11.5243
▁Naka	-11.5248
▁Rus	-11.525
▁seasonal	-11.5252
PE	-11.5255
▁remix	-11.5256
▁Bow	-11.526
chel	-11.5262
Lu	-11.5262
kom	-11.5268
count	-11.5272
ega	-11.5273
▁fees	-11.5273
equi	-11.5274
stream	-11.5278
▁controls	-11.5283
▁associations	-11.5288
▁Def	-11.5288
English	-11.5288
November	-11.5288
mission	-11.5289
▁symbols	-11.5295
▁panels	-11.5296
▁inhabit	-11.5299
▁Deb	-11.5299
▁Weather	-11.53
corp	-11.5301
there	-11.5303
▁110	-11.5307
▁nurse	-11.5307
▁substance	-11.5307
vre	-11.5308
▁Cham	-11.5309
aru	-11.5309
▁expenses	-11.5311
▁enhance	-11.5312
WS	-11.5313
writer	-11.5313
fit	-11.5315
▁Pet	-11.5315
nning	-11.5316
▁fulfill	-11.5317
▁universal	-11.5318
▁Tasmania	-11.5322
▁cartoon	-11.5326
Fu	-11.5326
▁shrub	-11.5329
tech	-11.5331
▁Kho	-11.5332
▁flour	-11.5332
▁Achievement	-11.5332
▁NASCAR	-11.5332
▁Physics	-11.5332
▁PlayStation	-11.5332
▁electorate	-11.5332
▁magnitude	-11.5332
▁wreck	-11.5332
▁Sicily	-11.5332
▁Auckland	-11.5332
▁entities	-11.5332
▁integral	-11.5332
▁Criminal	-11.5332
▁smoke	-11.5332
▁surpass	-11.5332
▁rejoin	-11.5332
▁grandmother	-11.5332
▁Belgrade	-11.5332
▁enrollment	-11.5332
▁Desert	-11.5333
▁cream	-11.5333
▁Negro	-11.5333
flower	-11.5333
▁Wool	-11.5334
▁2:	-11.5334
▁maiden	-11.5335
▁Stalin	-11.5335
▁Qing	-11.5336
lich	-11.5336
▁Blair	-11.5337
▁voltage	-11.5338
▁Below	-11.5339
Let	-11.5339
sche	-11.534
▁Environmental	-11.534
▁106	-11.5341
▁Similarly	-11.5344
▁Hammer	-11.5344
▁Castro	-11.5345
▁1831	-11.5348
▁nano	-11.535
bic	-11.535
▁Mick	-11.5354
fan	-11.5354
mail	-11.5355
▁NC	-11.5358
▁Classical	-11.5358
▁performer	-11.5359
zhou	-11.536
ook	-11.536
TH	-11.5361
tron	-11.5363
vol	-11.5365
▁Martha	-11.5367
▁constantly	-11.537
utonomous	-11.537
▁Baby	-11.5371
▁artifacts	-11.5373
section	-11.5375
▁realm	-11.5378
izer	-11.5378
▁1973.	-11.538
▁finite	-11.5381
▁1500	-11.5381
▁lasting	-11.5382
▁contributor	-11.5385
plic	-11.5387
▁flowering	-11.5389
CM	-11.5393
moto	-11.5394
oa	-11.5395
▁Lam	-11.5401
site	-11.5401
▁kinds	-11.5404
9.	-11.541
hana	-11.5411
▁ramp	-11.5411
▁pat	-11.5412
King	-11.5416
burgh	-11.5419
▁marking	-11.5422
▁Bass	-11.5425
▁Browne	-11.5426
▁dies	-11.5429
▁comment	-11.543
▁applying	-11.543
▁certainly	-11.5431
▁kills	-11.5431
▁Wan	-11.5434
▁trustees	-11.5438
▁170	-11.544
▁reflected	-11.544
▁kids	-11.5443
iller	-11.5444
kes	-11.5444
▁Dong	-11.5445
gawa	-11.5447
▁pm	-11.5448
▁12-	-11.545
▁boost	-11.5451
zia	-11.5453
rai	-11.5453
_8	-11.5454
▁coin	-11.5455
ML	-11.5456
ides	-11.5457
.00	-11.5459
▁rings	-11.546
▁contractor	-11.5464
▁conform	-11.5465
▁disorders	-11.5466
▁avoided	-11.5467
▁tables	-11.5469
▁Cop	-11.5474
▁Rhodes	-11.5475
▁Romaniz	-11.5476
craft	-11.5481
▁Directors	-11.5484
wrote	-11.5485
▁Aba	-11.5485
▁lesser	-11.5487
▁175	-11.5488
Old	-11.5488
tana	-11.549
rud	-11.5491
▁Plains	-11.5493
▁restrict	-11.5494
▁shaped	-11.5495
uga	-11.5497
onian	-11.5497
July	-11.5498
shin	-11.5498
▁seating	-11.5499
▁authored	-11.5499
▁threats	-11.5501
▁Manning	-11.5502
▁delegates	-11.5503
▁listen	-11.5504
wed	-11.5507
▁genes	-11.5508
▁enterprise	-11.5509
▁finger	-11.5509
▁violation	-11.551
▁stamp	-11.5511
▁depart	-11.5511
▁Republicans	-11.5511
sub	-11.5511
▁Wh	-11.5513
▁Linda	-11.5514
Ge	-11.5517
lab	-11.5517
▁agrees	-11.5519
▁neuro	-11.5521
▁geographical	-11.5521
won	-11.5522
yam	-11.5522
iko	-11.5524
▁spa	-11.5526
▁pray	-11.5526
responsibilities	-11.5528
▁Alfonso	-11.5528
▁Etymology	-11.5528
▁Literary	-11.5528
▁Nacional	-11.5528
▁Newfoundland	-11.5528
▁Reynolds	-11.5528
▁achieving	-11.5528
▁enlarged	-11.5528
▁legitimate	-11.5528
▁pistol	-11.5528
▁tactics	-11.5528
▁vaccine	-11.5528
▁clerk	-11.5528
▁radius	-11.5528
▁tobacco	-11.5528
▁Physical	-11.5528
▁Marathon	-11.5528
▁Catalan	-11.5528
▁leather	-11.5528
▁Fraser	-11.5528
ès	-11.5528
▁ESPN	-11.5528
▁IBM	-11.5528
▁creek	-11.5528
▁dropping	-11.5529
▁Seoul	-11.5529
▁Stories	-11.5529
▁thermal	-11.553
▁sponsorship	-11.553
oi	-11.5532
▁Chapman	-11.5532
▁pageant	-11.5532
▁adoption	-11.5533
▁Chronicle	-11.5533
▁Priest	-11.5533
▁1853	-11.5534
▁Tunnel	-11.5534
▁Ellen	-11.5534
▁bullet	-11.5536
▁coastline	-11.5536
▁flora	-11.5536
▁Chancellor	-11.5538
▁Strong	-11.5539
▁Sweet	-11.554
▁hypo	-11.554
▁Southwest	-11.554
Neill	-11.5544
▁Nathan	-11.5544
▁rent	-11.5545
ibi	-11.5545
▁Klein	-11.5546
▁Zoo	-11.5546
▁1812	-11.5547
/2	-11.5547
▁Total	-11.5551
▁gray	-11.5554
▁Batt	-11.5556
▁examined	-11.5556
omy	-11.5558
▁substantially	-11.5558
▁observations	-11.5563
mie	-11.5563
teen	-11.5564
miss	-11.5565
signed	-11.5568
▁trim	-11.5569
▁farmer	-11.5571
▁Et	-11.5571
▁portal	-11.5572
▁Bud	-11.5572
▁defines	-11.5573
decorated	-11.5578
▁Bulldogs	-11.5578
yev	-11.5584
▁Epi	-11.5585
grave	-11.5588
▁developments	-11.5589
▁Amb	-11.5591
[	-11.5593
mov	-11.5594
▁eating	-11.5595
NE	-11.5595
▁insects	-11.56
▁Tank	-11.5601
▁epic	-11.5605
oda	-11.5608
formation	-11.5612
lou	-11.5613
▁determin	-11.5614
▁Karen	-11.5614
▁Form	-11.5616
▁Alt	-11.5617
▁Bala	-11.5617
▁Shak	-11.562
▁analog	-11.5623
▁fabric	-11.5625
▁provider	-11.5625
▁accounting	-11.5625
▁incomplete	-11.5629
▁bears	-11.563
corn	-11.5631
ots	-11.5631
▁recruit	-11.5632
▁Ari	-11.5637
▁Lakes	-11.5638
▁Ship	-11.564
lecommunications	-11.5642
will	-11.5643
▁Ras	-11.5643
onne	-11.5645
▁bishops	-11.5646
nom	-11.5649
Du	-11.5653
▁Pul	-11.5654
▁finale	-11.566
▁commercially	-11.566
rica	-11.5661
cott	-11.5667
ender	-11.5667
▁Crime	-11.5667
▁watching	-11.5676
▁Ski	-11.5679
▁Support	-11.5681
ür	-11.5682
Ju	-11.5682
▁wickets	-11.5684
▁cook	-11.5684
▁neighbor	-11.5685
National	-11.5685
league	-11.5685
▁communicate	-11.5687
▁healthy	-11.5687
▁witness	-11.5688
▁marginal	-11.5689
▁monks	-11.5689
▁Mani	-11.5691
VE	-11.5693
released	-11.5693
▁museums	-11.5694
▁promise	-11.5696
Roman	-11.5699
EX	-11.57
▁Kul	-11.5702
▁Sisters	-11.5702
▁publish	-11.5702
aut	-11.5703
tail	-11.5706
amba	-11.571
dé	-11.5712
▁ancestor	-11.5713
▁assignment	-11.5713
▁discharge	-11.5714
gio	-11.5715
▁Sang	-11.5715
▁gates	-11.5716
▁slight	-11.5718
ike	-11.5718
▁Moss	-11.572
▁treasure	-11.5721
▁Tibet	-11.5721
UC	-11.5722
▁reads	-11.5724
▁Kre	-11.5725
▁Mou	-11.5725
▁egg	-11.5726
ô	-11.5727
▁Qua	-11.5727
▁Step	-11.5728
▁Nottingham	-11.5728
▁Administrative	-11.5728
▁Constantinople	-11.5728
▁Naples	-11.5728
▁Scientific	-11.5728
▁Winnipeg	-11.5728
▁auxiliary	-11.5728
▁cuisine	-11.5728
▁devotion	-11.5728
▁granite	-11.5728
▁pregnancy	-11.5728
▁prominence	-11.5728
▁reconnaissance	-11.5728
▁repertoire	-11.5728
▁skull	-11.5728
▁strategies	-11.5728
▁terrestrial	-11.5728
▁Xavier	-11.5728
▁mystery	-11.5728
▁vacant	-11.5728
▁Sofia	-11.5728
▁conspiracy	-11.5728
▁firearms	-11.5728
▁Providence	-11.5728
▁interference	-11.5728
▁Chennai	-11.5728
▁Eurovision	-11.5728
▁probability	-11.5728
▁trunk	-11.5728
▁accusations	-11.5728
▁Filipino	-11.5728
▁swimmer	-11.5728
▁grammar	-11.5728
▁convey	-11.5729
▁(2009)	-11.5729
▁(2010)	-11.5729
▁Darwin	-11.5729
▁Whitney	-11.5729
▁inaugurated	-11.573
▁Hassan	-11.573
▁adjoin	-11.573
▁Walsh	-11.5731
▁RBI	-11.5731
▁Emergency	-11.5731
▁Overall	-11.5732
▁commerce	-11.5733
▁Dynasty	-11.5733
▁remarkable	-11.5733
▁Oriental	-11.5734
▁Rookie	-11.5734
▁1852	-11.5734
opo	-11.5735
▁Drama	-11.5736
grass	-11.5736
▁Episode	-11.5736
▁Chambers	-11.5736
▁occasional	-11.5738
▁specified	-11.5739
▁analyst	-11.5739
▁Fitz	-11.5739
▁Ai	-11.5741
▁Devi	-11.5744
▁textile	-11.5744
Far	-11.5746
good	-11.5747
▁ages	-11.5748
-13	-11.5748
▁2018–19	-11.5751
▁crest	-11.5752
▁decreased	-11.5752
▁verses	-11.5754
▁Drug	-11.576
liga	-11.5761
▁witnessed	-11.5761
LS	-11.5763
stre	-11.5765
dog	-11.5766
▁broader	-11.5766
▁socio	-11.5767
▁Lima	-11.5771
▁GP	-11.5775
▁rotat	-11.5775
▁electron	-11.5782
para	-11.5783
▁enabled	-11.5783
▁hanging	-11.5784
hur	-11.5785
▁climbing	-11.5787
▁Singer	-11.5788
▁rode	-11.5789
atter	-11.579
▁rebels	-11.579
▁magnet	-11.5791
▁informal	-11.5792
avyweight	-11.5794
▁Elections	-11.58
▁Pav	-11.5804
erie	-11.5805
oides	-11.5806
IG	-11.5806
chair	-11.5807
▁Stre	-11.5809
Ti	-11.5811
▁estimates	-11.5812
▁surfaces	-11.5812
▁genres	-11.5813
▁Scho	-11.5817
dition	-11.5817
▁scorer	-11.5818
▁ruins	-11.582
▁Que	-11.5821
enz	-11.5821
▁algebra	-11.5824
▁3–1	-11.583
aging	-11.583
ingen	-11.5831
▁Mae	-11.5831
shot	-11.5833
▁ingredients	-11.5838
▁Fly	-11.5839
eal	-11.5847
nian	-11.585
▁Winners	-11.5857
▁Pick	-11.5858
▁trucks	-11.5859
▁Petr	-11.5862
trans	-11.5864
bee	-11.5864
▁1990.	-11.5867
berger	-11.5868
cultural	-11.5869
▁gravel	-11.5872
owner	-11.5878
▁feat	-11.5879
▁Slav	-11.5881
▁Nash	-11.5888
–12	-11.5888
London	-11.5889
ull	-11.5891
normal	-11.5891
rri	-11.5892
umba	-11.5893
▁Edge	-11.5894
▁canton	-11.5894
▁trigger	-11.5899
Ni	-11.5899
opus	-11.59
▁Direct	-11.5902
▁fin	-11.5904
Top	-11.5905
unda	-11.5905
atha	-11.5907
▁heading	-11.591
▁composers	-11.591
▁lateral	-11.5911
▁specialis	-11.5914
▁Bak	-11.5918
qa	-11.592
fri	-11.5921
▁saint	-11.5921
Gen	-11.5921
▁react	-11.5923
▁mineral	-11.5924
uel	-11.5925
▁catalog	-11.5928
iser	-11.5929
·	-11.5932
▁Audrey	-11.5932
▁Cameroon	-11.5932
▁Graduate	-11.5932
▁Industries	-11.5932
▁Mohammad	-11.5932
▁constituencies	-11.5932
▁ecclesia	-11.5932
▁steadily	-11.5932
▁testimony	-11.5932
▁welfare	-11.5932
▁£2	-11.5932
▁plaque	-11.5932
▁technological	-11.5932
▁thrust	-11.5932
▁Baghdad	-11.5932
▁Montenegro	-11.5932
▁Software	-11.5932
▁Mechanic	-11.5932
oj	-11.5932
▁Organisation	-11.5932
▁inquiry	-11.5932
▁prayer	-11.5932
▁conferr	-11.5932
▁subordinate	-11.5932
▁inheritance	-11.5932
▁Battery	-11.5932
▁dorsal	-11.5932
▁girlfriend	-11.5932
▁Rochester	-11.5933
▁divine	-11.5933
▁Denis	-11.5933
▁drainage	-11.5933
▁unofficial	-11.5933
▁batted	-11.5933
▁Underground	-11.5933
▁$8	-11.5933
▁persecution	-11.5934
▁HIV	-11.5934
▁flagship	-11.5934
▁chest	-11.5934
▁reliable	-11.5934
ules	-11.5934
▁Sacramento	-11.5934
Her	-11.5934
▁fitting	-11.5934
birds	-11.5935
▁Elm	-11.5935
▁Alexandra	-11.5936
▁dragon	-11.5937
▁Ö	-11.5938
▁Afghan	-11.5938
▁UFC	-11.594
pr	-11.5941
▁farms	-11.5941
▁motivation	-11.5942
▁freshman	-11.5942
MR	-11.5943
▁priority	-11.5944
asso	-11.5945
▁audiences	-11.5945
▁banner	-11.5945
asco	-11.5947
▁generator	-11.5947
▁alert	-11.5947
▁Estonian	-11.5949
▁reactor	-11.595
▁bias	-11.595
VC	-11.5951
▁MC	-11.5954
▁develops	-11.5954
▁pier	-11.5954
▁encompasse	-11.5955
▁noticed	-11.5956
▁conquered	-11.5956
HF	-11.5959
▁Wong	-11.5961
▁Robertson	-11.5962
▁altered	-11.5964
▁princess	-11.5965
rry	-11.5968
▁Pius	-11.5969
▁1946.	-11.597
iano	-11.5974
▁AFL	-11.5974
itor	-11.5975
▁cooking	-11.5976
▁Mori	-11.5979
▁Mei	-11.598
▁guidelines	-11.598
▁Boyd	-11.5988
▁Holly	-11.5988
sham	-11.599
MB	-11.5993
▁mag	-11.5993
▁Nik	-11.5994
▁lawyers	-11.5999
▁Ave	-11.6001
▁Ada	-11.6001
shed	-11.6003
▁Tsu	-11.6004
▁agreements	-11.6007
How	-11.601
▁MI	-11.6011
▁Gin	-11.6013
▁Ant	-11.6014
▁Dock	-11.602
▁contents	-11.6023
lica	-11.6024
bling	-11.6028
▁engineers	-11.6028
▁typ	-11.603
–13	-11.6033
▁vegetables	-11.6035
▁gains	-11.604
▁viewing	-11.6042
left	-11.6042
▁allocat	-11.6043
1/	-11.6046
▁respected	-11.6054
▁differ	-11.6054
▁Cas	-11.6054
CI	-11.606
▁expect	-11.606
▁Bran	-11.6062
▁Kom	-11.6062
▁Blu	-11.6064
mura	-11.6064
▁flu	-11.6064
raw	-11.6065
▁Mine	-11.6066
▁Kap	-11.6072
▁Perform	-11.6072
▁Andrews	-11.6075
▁Hanna	-11.6076
eria	-11.6079
Men	-11.6081
linger	-11.6086
▁secur	-11.6086
▁considers	-11.6088
script	-11.6091
kowski	-11.6091
British	-11.6097
walk	-11.6098
▁Return	-11.6099
▁107	-11.61
▁Abd	-11.6101
dvisory	-11.6102
scope	-11.6103
frame	-11.6103
▁Fat	-11.6105
etz	-11.6114
▁Stor	-11.6117
bey	-11.6117
hum	-11.6126
▁Alternative	-11.6126
▁unrest	-11.6129
▁Lithuania	-11.613
▁educator	-11.6133
▁vowel	-11.6134
▁modification	-11.6134
▁tension	-11.6135
erry	-11.6135
▁immigrant	-11.6135
▁wrestler	-11.6136
clusive	-11.614
н	-11.614
▁Mathematics	-11.614
▁deficit	-11.614
▁statute	-11.614
▁2019–20	-11.614
▁abundant	-11.614
▁extant	-11.614
▁salary	-11.614
▁postponed	-11.614
▁intensity	-11.614
▁Toledo	-11.614
▁Kazakhstan	-11.614
▁Kashmir	-11.614
▁console	-11.614
▁Pirates	-11.614
▁propeller	-11.614
▁Belfast	-11.6141
▁Caesar	-11.6141
▁constraints	-11.6141
▁mandatory	-11.6141
▁organizing	-11.6141
▁Qatar	-11.6141
▁Interstate	-11.6141
▁settings	-11.6141
▁grape	-11.6142
▁Travis	-11.6142
bass	-11.6142
▁María	-11.6142
▁oath	-11.6142
▁Hague	-11.6142
▁dump	-11.6142
▁2012–13	-11.6143
▁altar	-11.6143
▁Budapest	-11.6144
▁posthumously	-11.6144
olog	-11.6144
▁Alpha	-11.6144
20)	-11.6144
▁Percy	-11.6144
hausen	-11.6145
▁1937,	-11.6145
▁reunited	-11.6146
▁slope	-11.6146
▁20-	-11.6146
▁Drake	-11.6146
▁Elliott	-11.6146
▁SM	-11.6147
▁endangered	-11.6148
▁Thames	-11.6149
▁Tiger	-11.6149
▁Vista	-11.6149
▁Eva	-11.6151
▁pathway	-11.6151
▁Moses	-11.6152
▁Ple	-11.6153
▁rod	-11.6155
▁indication	-11.6155
▁Steam	-11.6155
▁Cra	-11.6156
Les	-11.6157
▁sensitive	-11.6157
▁MLB	-11.6158
▁Diana	-11.6159
▁Nigerian	-11.6159
even	-11.616
wave	-11.616
▁UP	-11.616
▁3000	-11.6161
▁woodland	-11.6161
▁porch	-11.6162
▁insisted	-11.6162
▁Erie	-11.6162
▁Look	-11.6163
▁Pink	-11.6163
▁websites	-11.6163
▁unlikely	-11.6166
▁sweep	-11.6167
▁Rice	-11.6167
Hu	-11.6168
▁anonymous	-11.6169
▁Gross	-11.6172
▁Any	-11.6174
▁Haz	-11.6182
open	-11.6184
▁Powers	-11.6185
gress	-11.6185
Without	-11.6187
▁2"	-11.6189
shu	-11.6191
▁riders	-11.6194
▁hectares	-11.6194
▁Hero	-11.6195
▁Ferr	-11.6196
▁Yard	-11.6196
▁Maj	-11.6196
sher	-11.62
▁palm	-11.62
▁180	-11.6201
▁verb	-11.6202
▁Process	-11.6203
▁Bird	-11.6203
sul	-11.6204
along	-11.6204
▁lacking	-11.6205
MM	-11.6205
▁raced	-11.6207
▁Rem	-11.6208
▁socialist	-11.6209
▁alter	-11.6209
▁critically	-11.6213
▁Pak	-11.6213
▁Pod	-11.6214
ego	-11.6219
▁Boat	-11.6219
▁Bir	-11.6221
▁Clu	-11.6222
2010	-11.6225
▁nave	-11.6226
song	-11.6229
NO	-11.6231
▁collecting	-11.6233
▁couldn	-11.6233
▁Ok	-11.6234
cke	-11.6236
▁Dh	-11.624
▁cage	-11.624
alia	-11.6245
▁Luck	-11.6245
▁http	-11.6247
▁Grass	-11.6248
▁Theory	-11.6252
▁Educational	-11.6254
▁electronics	-11.6257
Br	-11.6265
▁Cox	-11.6266
chrom	-11.6268
▁dish	-11.627
mine	-11.6273
▁spann	-11.6274
▁Bolivia	-11.6276
uke	-11.6277
▁Petro	-11.6277
▁mat	-11.6278
nick	-11.628
▁Cri	-11.6281
▁Hum	-11.6283
owing	-11.6288
▁Rom	-11.629
lett	-11.6292
_7	-11.6292
▁diver	-11.6293
ovo	-11.6294
▁Doug	-11.6295
▁dust	-11.6296
▁Rosen	-11.6297
▁lip	-11.6299
▁MO	-11.6302
word	-11.6305
profile	-11.6309
Little	-11.631
controlled	-11.631
▁recit	-11.6311
▁Glo	-11.6312
–10	-11.6313
78)	-11.6314
bas	-11.6316
▁donations	-11.6318
Mad	-11.6324
▁Manor	-11.6325
▁conf	-11.6326
▁fragments	-11.6326
▁Clyde	-11.6327
▁Joel	-11.6327
hab	-11.6329
▁item	-11.6331
▁Acting	-11.6332
▁presents	-11.6336
▁Sep	-11.6336
lak	-11.6336
stop	-11.6337
▁Pap	-11.6337
▁freely	-11.6339
▁confess	-11.6342
Cor	-11.6342
▁researcher	-11.6344
▁Ent	-11.6348
▁Environment	-11.6349
▁odd	-11.6351
▁sediment	-11.6352
rack	-11.6352
▁Bangkok	-11.6353
▁Chemistry	-11.6353
▁División	-11.6353
▁Hundred	-11.6353
▁celebrity	-11.6353
▁ceremonies	-11.6353
▁collision	-11.6353
▁complications	-11.6353
▁derivative	-11.6353
▁intelligent	-11.6353
▁militant	-11.6353
▁nervous	-11.6353
▁pollution	-11.6353
▁precipitation	-11.6353
▁revenge	-11.6353
▁innovative	-11.6353
▁Colony	-11.6353
▁PBS	-11.6353
▁Windsor	-11.6353
▁spawn	-11.6353
▁Housing	-11.6353
▁disabilities	-11.6353
▁kidney	-11.6353
▁Regular	-11.6353
▁WWE	-11.6353
▁Madras	-11.6353
▁boyfriend	-11.6353
▁readily	-11.6354
▁Soundtrack	-11.6354
▁Communication	-11.6354
▁Grammar	-11.6354
▁burden	-11.6354
vasive	-11.6354
▁Afterwards	-11.6354
▁FF	-11.6354
▁sank	-11.6354
▁wool	-11.6354
▁Cedar	-11.6354
▁Carroll	-11.6354
▁correspondent	-11.6354
▁conceptual	-11.6355
▁Europa	-11.6355
▁transmitter	-11.6355
▁Bradley	-11.6356
▁Chuck	-11.6356
▁Lorenzo	-11.6356
▁rapper	-11.6357
▁tallest	-11.6357
▁slavery	-11.6357
▁Discovery	-11.6358
▁Nordic	-11.6359
▁twist	-11.6359
▁activated	-11.636
▁deals	-11.636
▁weekday	-11.6361
Our	-11.6361
▁Twin	-11.6361
▁1847	-11.6361
▁eagle	-11.6363
▁investigations	-11.6364
▁Double	-11.6365
▁Learning	-11.6365
▁carriage	-11.6365
dz	-11.6368
▁Pilot	-11.6369
▁alignment	-11.6371
▁shoe	-11.6371
▁finest	-11.6374
▁canceled	-11.6375
▁Bryant	-11.6375
Note	-11.6375
uta	-11.6376
▁Islander	-11.6377
▁leased	-11.6377
▁Adi	-11.6378
verse	-11.6378
▁labels	-11.6379
▁spur	-11.6381
▁Need	-11.6384
▁professionally	-11.6389
▁Solo	-11.6391
▁30,000	-11.6391
▁Pond	-11.6392
▁adviser	-11.6395
Min	-11.6398
▁pour	-11.6398
▁Living	-11.6399
ened	-11.6401
▁Beau	-11.6406
▁blame	-11.6407
▁Ballet	-11.6409
held	-11.6411
▁Mach	-11.6411
cera	-11.6414
▁colon	-11.6416
▁prizes	-11.6418
▁advertise	-11.6419
▁equally	-11.6421
tour	-11.6421
▁108	-11.6423
▁lion	-11.6426
▁macro	-11.6429
▁1–1	-11.643
▁Finals	-11.643
▁ob	-11.6435
six	-11.6442
▁Od	-11.6447
hart	-11.6447
oku	-11.6449
▁rim	-11.645
ugu	-11.6451
▁Wait	-11.6452
▁contacts	-11.6453
▁Eye	-11.6454
Is	-11.6454
NL	-11.6454
▁Marco	-11.6455
▁Dee	-11.6455
Fe	-11.6458
▁freed	-11.6458
▁1959,	-11.6461
▁hatch	-11.6463
media	-11.6465
▁skiing	-11.6474
▁Das	-11.6474
▁Gha	-11.6475
owa	-11.6476
▁Pain	-11.6479
rington	-11.6483
▁Hawks	-11.6486
▁Troy	-11.6488
lah	-11.6491
▁lyric	-11.6492
cru	-11.6492
BL	-11.6492
listed	-11.6495
▁Photo	-11.6496
ono	-11.6499
▁Santo	-11.6501
▁Rhodesia	-11.6504
▁($	-11.6506
liter	-11.6506
▁Programme	-11.6507
▁Appeals	-11.6509
▁Beth	-11.651
▁Bomb	-11.651
ische	-11.6511
Pre	-11.6512
cate	-11.6513
▁ports	-11.6518
uti	-11.652
▁Cash	-11.6521
iro	-11.6523
▁SE	-11.6523
▁trailer	-11.6526
▁Sei	-11.6527
mates	-11.6529
▁1,2	-11.653
When	-11.6532
▁nose	-11.6533
uddin	-11.6536
arious	-11.6536
▁casting	-11.6537
▁Ami	-11.6537
▁erect	-11.6538
▁Eden	-11.6539
▁Johnston	-11.6541
▁Doll	-11.6541
▁flame	-11.6543
metre	-11.6545
▁defendants	-11.6547
Up	-11.6554
▁retire	-11.6554
▁Similar	-11.6556
/4	-11.656
▁commit	-11.6567
▁frames	-11.6569
▁uncertain	-11.6569
▁lacked	-11.657
▁Archdiocese	-11.657
▁Maharashtra	-11.657
▁Timothy	-11.657
▁Volleyball	-11.657
▁enormous	-11.657
▁juvenile	-11.657
▁measuring	-11.657
▁utility	-11.657
▁Columbus	-11.657
▁Glacier	-11.657
▁Henderson	-11.657
▁compromise	-11.657
▁gravity	-11.657
▁nursing	-11.657
▁Julius	-11.657
▁racism	-11.657
▁vinyl	-11.657
▁Lombard	-11.657
▁dairy	-11.657
▁codice	-11.657
▁butterfly	-11.657
▁honest	-11.657
▁endorsed	-11.657
▁maternal	-11.6571
▁inflation	-11.6571
▁swept	-11.6571
▁Rwanda	-11.6571
▁delegation	-11.6571
▁nerve	-11.6571
▁trilogy	-11.6571
▁Recreation	-11.6571
▁Composition	-11.6571
▁Albany	-11.6571
▁Janeiro	-11.6571
▁Criticism	-11.6571
▁transmitted	-11.6571
▁quantity	-11.6571
▁Edwin	-11.6571
▁mythology	-11.6572
▁spacecraft	-11.6572
▁Tropic	-11.6572
▁loyalty	-11.6572
▁Raiders	-11.6572
▁stack	-11.6573
▁sustainable	-11.6573
▁2013–14	-11.6573
▁canvas	-11.6573
▁interactive	-11.6573
▁systematic	-11.6574
▁Sons	-11.6574
▁Gould	-11.6575
▁Crystal	-11.6575
▁Buddha	-11.6575
▁descendant	-11.6576
▁lady	-11.6578
▁responses	-11.6578
VI	-11.6578
▁1834	-11.6578
▁carefully	-11.6579
▁hail	-11.6579
▁UCI	-11.6579
▁deceased	-11.658
▁imagery	-11.658
▁Maritime	-11.658
▁remarked	-11.658
▁norm	-11.6581
mma	-11.6581
▁anterior	-11.6582
▁complexity	-11.6585
▁80%	-11.6586
▁editors	-11.6587
▁Shadow	-11.6588
▁Electronic	-11.6589
▁ranch	-11.6589
▁basement	-11.6589
▁invaded	-11.659
▁excluded	-11.6593
hine	-11.6597
▁prohibited	-11.6597
▁1815	-11.6598
▁AR	-11.6598
▁planes	-11.6599
▁Weber	-11.66
▁rushed	-11.66
▁striker	-11.66
▁wartime	-11.66
▁tin	-11.6603
gard	-11.6603
stadt	-11.6603
▁polar	-11.6604
▁commemorate	-11.6606
▁poets	-11.6606
orum	-11.6607
▁Phi	-11.6607
wu	-11.6608
▁advocated	-11.6608
▁folded	-11.6609
ribe	-11.6609
▁Gui	-11.6612
▁armor	-11.6612
▁imported	-11.6613
PB	-11.6615
▁gland	-11.6616
▁snails	-11.662
▁threatening	-11.6623
▁gifts	-11.6631
▁Shri	-11.6635
6)	-11.6636
pproximately	-11.6636
stick	-11.6636
▁politically	-11.6639
stand	-11.6644
▁proven	-11.6649
emia	-11.6649
wy	-11.6649
thair	-11.6652
▁Naga	-11.6652
▁Lac	-11.6654
▁Recording	-11.6655
garh	-11.6658
▁oppos	-11.6658
▁comics	-11.666
lei	-11.666
RNA	-11.6661
Part	-11.6663
▁rankings	-11.6668
ops	-11.6671
▁submarines	-11.6673
▁UC	-11.6675
urban	-11.6676
▁canoe	-11.668
isse	-11.6686
▁NS	-11.6688
cted	-11.669
atu	-11.6692
▁5%	-11.6692
▁affecting	-11.6692
▁PM	-11.6692
▁Tell	-11.6694
"—	-11.6695
inn	-11.6695
▁clusters	-11.6699
mill	-11.6699
▁keys	-11.6705
▁Haven	-11.6709
NI	-11.6709
▁Woods	-11.6711
▁separat	-11.6714
▁tract	-11.6717
▁SP	-11.6718
sko	-11.6719
▁loved	-11.6722
▁Kind	-11.6724
▁Valu	-11.6728
▁Bloom	-11.6729
▁Newman	-11.673
hap	-11.6733
▁decorat	-11.6733
▁cure	-11.6734
▁Word	-11.6737
show	-11.6737
▁Xu	-11.674
▁screened	-11.674
EF	-11.6744
isch	-11.6746
▁Chat	-11.6746
▁min	-11.6747
ope	-11.6747
zin	-11.6749
chal	-11.6749
country	-11.6751
sound	-11.6752
cel	-11.6753
▁Gö	-11.6753
guard	-11.6754
▁Alma	-11.6754
▁swor	-11.6755
mother	-11.6756
▁den	-11.6756
▁comfort	-11.6758
▁extract	-11.6759
▁Pos	-11.6761
▁Vil	-11.6761
established	-11.6762
pis	-11.6764
▁chord	-11.6764
cession	-11.6765
▁schemes	-11.6766
▁Sche	-11.6776
▁Kala	-11.6777
▁strange	-11.6777
▁Concert	-11.6777
wel	-11.6779
▁Loch	-11.6779
▁dances	-11.6779
ango	-11.6779
▁coordinates	-11.678
▁quiet	-11.6781
ises	-11.6782
agger	-11.6783
▁intersect	-11.6787
▁Nak	-11.6788
▁lamp	-11.6789
▁com	-11.6789
▁unexpected	-11.679
rog	-11.6792
▁Leicester	-11.6792
▁speculat	-11.6792
ν	-11.6793
▁phases	-11.6793
▁Gibraltar	-11.6793
▁Inspector	-11.6793
▁Kurdish	-11.6793
▁Minneapolis	-11.6793
▁Saskatchewan	-11.6793
▁Sutherland	-11.6793
▁arguing	-11.6793
▁complicated	-11.6793
▁consecrated	-11.6793
▁encouraging	-11.6793
▁lizard	-11.6793
▁marathon	-11.6793
▁mathematician	-11.6793
▁slogan	-11.6793
▁substrate	-11.6793
ι	-11.6793
▁Paraguay	-11.6793
▁Kenneth	-11.6793
▁Namibia	-11.6793
▁sparse	-11.6793
▁asteroid	-11.6793
▁Dundee	-11.6793
▁hiatus	-11.6793
▁cognitive	-11.6793
▁Heaven	-11.6793
▁subtropical	-11.6793
▁Jesse	-11.6793
▁Bronze	-11.6793
▁Period	-11.6793
▁Bombay	-11.6793
▁heaven	-11.6793
▁Promotion	-11.6793
▁cultivation	-11.6793
▁expertise	-11.6793
▁Savage	-11.6794
▁capability	-11.6794
▁narrator	-11.6794
▁Investment	-11.6794
▁lens	-11.6794
▁injection	-11.6794
▁Scots	-11.6794
▁NSW	-11.6795
▁remake	-11.6795
▁homo	-11.6795
▁Counties	-11.6795
▁terrace	-11.6796
▁consequently	-11.6797
▁Self	-11.6797
▁singers	-11.6798
▁Chand	-11.6799
▁Sherman	-11.6799
▁Vijay	-11.6799
▁modifications	-11.6799
▁wolf	-11.68
▁warned	-11.6801
▁1828	-11.6802
▁decoration	-11.6803
▁Claire	-11.6803
LL	-11.6803
▁Spider	-11.6804
-1990	-11.6804
▁teaches	-11.6805
▁reside	-11.6805
▁workshop	-11.6806
▁wishes	-11.6807
▁Cloud	-11.6807
ogue	-11.6808
▁Gala	-11.6809
Home	-11.6809
tman	-11.681
▁Impact	-11.681
▁tar	-11.681
▁embarked	-11.681
▁1842	-11.6811
▁combin	-11.6814
▁hiding	-11.6816
▁computing	-11.6817
▁asserted	-11.6817
lob	-11.682
hae	-11.682
▁alloy	-11.6821
▁Duck	-11.6821
▁archives	-11.6824
▁unsuccessfully	-11.6824
named	-11.6828
▁"...	-11.6829
haus	-11.683
▁ni	-11.683
▁bomber	-11.683
▁oral	-11.683
▁Ranch	-11.6831
evich	-11.6832
▁Valencia	-11.6833
▁sculptures	-11.6834
▁highlights	-11.6835
▁Willis	-11.6836
▁Herman	-11.6836
▁Adel	-11.6839
Ya	-11.684
▁relatives	-11.6842
▁Own	-11.6844
▁rescued	-11.6844
▁Sah	-11.6844
▁Aero	-11.6846
▁1987)	-11.6846
▁Yoshi	-11.6849
▁voter	-11.685
▁approaching	-11.6851
▁coincide	-11.6852
▁syn	-11.6853
▁counts	-11.6856
▁Dom	-11.6857
code	-11.6858
▁wished	-11.6858
▁Burns	-11.6861
50,000	-11.6863
▁tubes	-11.6864
▁Zen	-11.6867
▁87	-11.6869
cry	-11.6869
uka	-11.6871
▁explores	-11.6871
▁Want	-11.6872
▁Pole	-11.6873
▁incidents	-11.6874
▁battalions	-11.6877
▁Paper	-11.6878
Shi	-11.6879
rist	-11.6879
▁modest	-11.6881
▁Others	-11.6884
▁placement	-11.6885
▁2.0	-11.6886
fur	-11.6887
▁Esp	-11.6888
▁bri	-11.6888
▁parameters	-11.689
▁Andr	-11.689
▁homeland	-11.6892
suit	-11.6896
bang	-11.6898
▁veterans	-11.6899
▁Poe	-11.69
Sch	-11.6901
▁metro	-11.6907
▁USC	-11.6908
▁Chase	-11.6918
▁adds	-11.6919
sea	-11.6922
makers	-11.6923
▁feeding	-11.6924
mba	-11.6924
viv	-11.6924
tori	-11.6925
▁Rub	-11.6925
▁Ox	-11.6925
▁Chap	-11.693
▁Kali	-11.6933
▁gall	-11.6933
LM	-11.6934
▁Sally	-11.6935
▁tickets	-11.6939
▁gather	-11.6945
▁Churches	-11.6949
▁Use	-11.6949
▁rocky	-11.6949
▁Emp	-11.695
aves	-11.6956
charge	-11.6959
▁Titan	-11.6963
imal	-11.6963
ð	-11.6966
▁Clear	-11.6968
▁Cort	-11.6969
public	-11.6971
gues	-11.6971
▁Gag	-11.6972
cylinder	-11.6976
economic	-11.6976
Op	-11.6977
Chief	-11.6977
Life	-11.6978
lop	-11.6982
▁professionals	-11.6983
▁suppress	-11.6984
▁disappear	-11.6986
▁periodical	-11.6987
▁threaten	-11.6988
kra	-11.6988
▁Stand	-11.6989
▁0.2	-11.699
▁specially	-11.699
▁staying	-11.6991
▁Bald	-11.6994
▁Shell	-11.6995
OD	-11.6996
▁drag	-11.6997
▁Af	-11.6998
anta	-11.6999
powered	-11.6999
beat	-11.7
▁Role	-11.7001
▁fu	-11.7001
▁Coal	-11.7003
▁Turn	-11.7004
dhi	-11.7005
▁emphasize	-11.7005
▁Arg	-11.7006
▁unanimous	-11.7006
▁Bour	-11.701
▁clergy	-11.7015
▁assume	-11.7018
▁pronoun	-11.7018
▁complement	-11.7019
л	-11.702
ा	-11.702
▁Buddhism	-11.702
▁González	-11.702
▁Reservoir	-11.702
▁atmospheric	-11.702
▁celebrities	-11.702
▁dwarf	-11.702
▁frequencies	-11.702
▁genuine	-11.702
▁monasteries	-11.702
▁mortality	-11.702
▁percussion	-11.702
▁pyramid	-11.702
▁struggling	-11.702
▁twelfth	-11.702
ą	-11.702
▁Insurance	-11.702
▁Portsmouth	-11.702
▁volcanic	-11.702
▁Fiction	-11.702
▁Superior	-11.702
▁CNN	-11.702
▁Canyon	-11.702
▁Beaver	-11.702
▁aquatic	-11.702
▁decay	-11.702
▁Ibn	-11.702
▁anthology	-11.702
▁disabled	-11.702
▁depriv	-11.702
▁subspecies	-11.702
▁Empress	-11.702
▁congress	-11.702
▁surgical	-11.702
▁toxic	-11.702
▁Actress	-11.702
▁Hammond	-11.7021
▁hurt	-11.7021
▁Trevor	-11.7021
▁coefficient	-11.7021
▁Angola	-11.7021
▁Comedy	-11.7021
ło	-11.7021
▁mouse	-11.7021
▁Lydia	-11.7022
▁diving	-11.7022
▁shortened	-11.7022
▁2011–12	-11.7022
uh	-11.7023
▁Era	-11.7023
▁Cotton	-11.7023
▁Leipzig	-11.7023
▁hydraulic	-11.7025
▁Against	-11.7026
▁crews	-11.7026
▁battleship	-11.7026
▁Exp	-11.7028
▁Clara	-11.7028
▁reinforced	-11.7029
▁curator	-11.7029
ño	-11.703
▁Clinical	-11.7031
▁brass	-11.7031
▁1813	-11.7031
this	-11.7031
▁CR	-11.7032
▁AIDS	-11.7033
▁Craft	-11.7033
▁annexed	-11.7033
▁bug	-11.7033
▁mock	-11.7033
▁insight	-11.7036
rava	-11.7036
▁autobiography	-11.7036
▁frontier	-11.7037
Mr	-11.7037
▁landmark	-11.7037
▁introducing	-11.7038
▁pond	-11.7038
▁violated	-11.7039
▁overwhelming	-11.7039
▁contestant	-11.7039
▁Money	-11.704
▁conscious	-11.7041
▁fusion	-11.7042
▁Bengali	-11.7044
▁positioned	-11.7045
▁constituted	-11.7048
▁ignored	-11.7048
CF	-11.7049
▁Slam	-11.705
▁Sikh	-11.705
ogen	-11.7051
▁Slo	-11.7052
FS	-11.7054
▁blend	-11.7058
▁Hank	-11.7059
▁Extra	-11.7061
▁joy	-11.7061
▁Kot	-11.7062
▁spectators	-11.7063
▁blade	-11.7064
▁Matsu	-11.7067
▁recreational	-11.7071
▁inscriptions	-11.7072
▁locked	-11.7073
▁900	-11.7073
▁Nag	-11.7077
Die	-11.7077
▁Rah	-11.7081
▁medalist	-11.7082
▁audit	-11.7082
▁deny	-11.7088
▁talented	-11.709
▁Lok	-11.7096
▁Dry	-11.7097
▁messages	-11.7107
zong	-11.7109
▁Richards	-11.7111
▁stems	-11.7121
▁prominently	-11.7122
Au	-11.7125
beck	-11.7126
▁Rocky	-11.7127
sbury	-11.7132
▁explor	-11.7134
▁geo	-11.714
udi	-11.714
Pal	-11.7144
dress	-11.7144
iger	-11.7145
▁Hut	-11.7146
ça	-11.7146
este	-11.7147
▁cab	-11.7156
▁McCa	-11.7157
▁conventions	-11.7158
ete	-11.7159
rna	-11.716
▁Crew	-11.7161
▁consul	-11.7162
▁0.1	-11.7164
LG	-11.7165
▁Yugoslav	-11.7165
▁reformed	-11.7168
▁jo	-11.7171
▁accepting	-11.7174
▁crypt	-11.7175
web	-11.7176
2006	-11.7178
▁Lex	-11.718
▁coordinate	-11.7181
▁Devil	-11.7182
▁embrace	-11.7183
love	-11.7186
▁senators	-11.7193
▁Kane	-11.7195
enne	-11.72
gged	-11.7206
▁install	-11.7207
CU	-11.7208
oriented	-11.7209
▁balls	-11.7209
French	-11.7209
station	-11.721
▁Tat	-11.721
ogram	-11.7215
▁Dow	-11.7218
hia	-11.7218
▁rot	-11.7218
▁Got	-11.7218
At	-11.7219
▁Angels	-11.7221
▁Pie	-11.7221
▁dial	-11.7224
great	-11.7225
▁Og	-11.7227
vell	-11.7227
▁float	-11.7227
2014	-11.7227
▁disputes	-11.7227
▁Haw	-11.7233
▁Devils	-11.7236
▁resume	-11.7238
▁Lyn	-11.7238
▁translate	-11.7238
▁sur	-11.7239
▁Zam	-11.7239
▁contestants	-11.7239
cover	-11.724
▁acknowledge	-11.724
brand	-11.7242
▁NH	-11.7244
▁Brooke	-11.7244
mite	-11.7246
▁Luna	-11.7247
▁Sharp	-11.7247
▁Clare	-11.7248
▁abbreviat	-11.7249
▁AI	-11.7249
▁Belarus	-11.725
See	-11.7251
▁Gale	-11.7252
ğ	-11.7252
▁Brigadier	-11.7252
▁Canberra	-11.7252
▁Eleanor	-11.7252
▁Habitat	-11.7252
▁Kolkata	-11.7252
▁Nielsen	-11.7252
▁Practice	-11.7252
▁Presidency	-11.7252
▁ancestry	-11.7252
▁default	-11.7252
▁elephant	-11.7252
▁embassy	-11.7252
▁grenade	-11.7252
▁magistrate	-11.7252
▁tragedy	-11.7252
Strategic	-11.7252
т	-11.7252
▁Baroque	-11.7252
▁Shepherd	-11.7252
▁promising	-11.7252
▁Dixon	-11.7252
▁Lisbon	-11.7253
▁Cancer	-11.7253
▁singular	-11.7253
▁citation	-11.7253
▁diagram	-11.7253
▁sizes	-11.7253
▁Evangelical	-11.7253
▁seemingly	-11.7253
eminent	-11.7253
▁Cairo	-11.7253
▁blast	-11.7253
▁Turks	-11.7254
▁Gaelic	-11.7254
▁dramatically	-11.7254
▁Leadership	-11.7254
▁Duncan	-11.7254
▁sitcom	-11.7254
▁subgroup	-11.7254
▁Vernon	-11.7254
▁denounc	-11.7254
▁cement	-11.7255
▁Dodge	-11.7255
▁Hartford	-11.7255
▁Fiji	-11.7256
▁Biology	-11.7256
alter	-11.7256
▁rebrand	-11.7256
▁Powell	-11.7257
▁2015–16	-11.7257
▁commissions	-11.7258
▁Deutsche	-11.7258
▁Leban	-11.7261
▁Hindi	-11.7261
▁GDP	-11.7261
▁Poetry	-11.7261
▁equality	-11.7261
▁documentation	-11.7262
▁Marshal	-11.7262
▁axis	-11.7263
▁1841	-11.7263
▁fake	-11.7264
eem	-11.7264
▁Sleep	-11.7265
▁selective	-11.7265
▁Chandra	-11.7265
ould	-11.7265
▁Saxony	-11.7265
▁workplace	-11.7267
▁Winston	-11.7267
▁Boris	-11.7267
▁cultivated	-11.7267
▁prevention	-11.7268
▁localities	-11.7268
▁literally	-11.7269
▁#2	-11.7269
▁Challenger	-11.7269
▁Pratt	-11.7269
▁tiny	-11.7269
▁charm	-11.727
▁60%	-11.7271
▁traced	-11.7272
▁saving	-11.7273
▁saves	-11.7273
▁Flat	-11.7273
▁monarchy	-11.7274
▁Kerry	-11.7274
▁strand	-11.7274
▁Baden	-11.7275
▁Trent	-11.7275
▁collegiate	-11.7277
▁partisan	-11.7277
▁pill	-11.7277
▁cruiser	-11.7278
▁prosecutor	-11.7279
Chi	-11.728
–11	-11.7281
has	-11.7281
▁Moy	-11.7283
▁Malaysian	-11.7283
train	-11.7284
▁racer	-11.7284
cano	-11.7287
▁Canon	-11.7288
▁Amar	-11.7288
phosphate	-11.7289
sses	-11.7289
pac	-11.7289
▁strings	-11.7289
▁coral	-11.7289
▁MB	-11.7291
▁rented	-11.7292
▁cone	-11.7295
▁spreading	-11.7295
▁Cran	-11.7295
▁pose	-11.7296
▁aside	-11.7296
▁deposited	-11.7298
▁fed	-11.7299
▁guided	-11.73
▁predicted	-11.7301
▁badly	-11.7301
▁opted	-11.7301
cost	-11.7301
▁Ec	-11.7304
stair	-11.7306
▁Lisa	-11.7306
Wi	-11.7307
tten	-11.7308
▁Connor	-11.7309
ards	-11.7309
▁Tab	-11.7311
▁inning	-11.7311
▁cylinder	-11.7315
▁prop	-11.7318
RP	-11.7319
cade	-11.732
▁bounded	-11.7322
▁listeners	-11.7323
iform	-11.7326
GM	-11.7327
▁accessed	-11.7329
▁sexually	-11.733
ride	-11.7331
ality	-11.7332
eti	-11.7332
gat	-11.7336
CH	-11.7336
▁physically	-11.7337
user	-11.7337
▁Drum	-11.7339
pus	-11.7339
▁Gates	-11.7341
▁marched	-11.7341
▁lineage	-11.7346
▁supervisor	-11.7347
–21	-11.7348
road	-11.7349
NU	-11.735
▁350	-11.735
▁--	-11.7351
buck	-11.7353
▁Hua	-11.7353
▁enforce	-11.7356
illon	-11.7358
−	-11.7358
▁Qian	-11.7359
▁celebrat	-11.7359
gging	-11.7359
▁IP	-11.7364
▁Patriots	-11.7365
▁correction	-11.7365
▁specializ	-11.7367
cis	-11.7369
ân	-11.7369
[...]
